<unk>	0
▁t	-0
▁a	-1
▁th	-2
▁i	-3
▁w	-4
▁the	-5
▁s	-6
re	-7
▁o	-8
in	-9
nd	-10
ou	-11
at	-12
er	-13
▁b	-14
▁c	-15
▁m	-16
▁h	-17
▁f	-18
▁and	-19
ing	-20
▁p	-21
en	-22
▁to	-23
on	-24
▁d	-25
an	-26
▁y	-27
ll	-28
es	-29
or	-30
▁l	-31
▁of	-32
▁in	-33
is	-34
ed	-35
▁you	-36
▁g	-37
ar	-38
it	-39
▁n	-40
▁that	-41
▁we	-42
om	-43
ve	-44
▁it	-45
as	-46
▁is	-47
ic	-48
ow	-49
▁wh	-50
al	-51
le	-52
us	-53
▁e	-54
▁be	-55
▁on	-56
ut	-57
et	-58
▁this	-59
ot	-60
ion	-61
ld	-62
ent	-63
▁so	-64
▁re	-65
▁ha	-66
ct	-67
ver	-68
ay	-69
ro	-70
ig	-71
▁for	-72
▁he	-73
▁st	-74
se	-75
all	-76
ke	-77
id	-78
ch	-79
ly	-80
st	-81
ir	-82
ra	-83
ur	-84
▁do	-85
▁li	-86
ce	-87
im	-88
▁go	-89
▁an	-90
▁se	-91
▁u	-92
▁can	-93
▁was	-94
ith	-95
▁sh	-96
▁k	-97
▁ab	-98
▁they	-99
▁j	-100
▁with	-101
ally	-102
▁are	-103
am	-104
▁my	-105
▁have	-106
ht	-107
▁mo	-108
op	-109
ad	-110
out	-111
ter	-112
oo	-113
ill	-114
▁wor	-115
▁ne	-116
▁what	-117
very	-118
▁all	-119
▁r	-120
▁me	-121
ome	-122
▁one	-123
▁but	-124
▁about	-125
▁as	-126
▁at	-127
▁ch	-128
ight	-129
ust	-130
▁fr	-131
il	-132
ould	-133
ge	-134
th	-135
ation	-136
▁us	-137
▁like	-138
ear	-139
ant	-140
▁pro	-141
ck	-142
▁not	-143
ere	-144
▁there	-145
▁ma	-146
ers	-147
ive	-148
▁or	-149
▁tw	-150
▁your	-151
▁con	-152
ul	-153
▁com	-154
ess	-155
ol	-156
▁now	-157
▁v	-158
▁just	-159
pp	-160
and	-161
▁al	-162
▁from	-163
ure	-164
▁bec	-165
▁de	-166
if	-167
ous	-168
▁out	-169
od	-170
um	-171
▁int	-172
▁these	-173
▁sp	-174
ie	-175
▁here	-176
ind	-177
▁te	-178
▁year	-179
un	-180
ook	-181
art	-182
▁very	-183
use	-184
our	-185
▁pl	-186
▁ex	-187
▁if	-188
est	-189
▁pe	-190
ect	-191
▁up	-192
ause	-193
▁some	-194
ab	-195
qu	-196
▁en	-197
red	-198
▁our	-199
▁see	-200
▁because	-201
ate	-202
▁kn	-203
os	-204
ist	-205
ort	-206
ound	-207
her	-208
ild	-209
▁tim	-210
ich	-211
one	-212
▁thing	-213
▁when	-214
▁going	-215
▁ar	-216
▁tr	-217
▁get	-218
▁two	-219
▁know	-220
▁im	-221
ty	-222
▁by	-223
king	-224
ople	-225
▁act	-226
▁people	-227
ies	-228
▁how	-229
▁them	-230
ide	-231
▁le	-232
ity	-233
▁than	-234
▁who	-235
▁look	-236
▁which	-237
nt	-238
ually	-239
▁world	-240
ag	-241
el	-242
▁will	-243
ong	-244
▁fa	-245
▁had	-246
em	-247
iv	-248
ci	-249
ine	-250
ap	-251
oug	-252
ard	-253
▁su	-254
▁sa	-255
▁into	-256
▁thin	-257
ame	-258
▁bu	-259
▁comp	-260
▁then	-261
ain	-262
▁more	-263
og	-264
ree	-265
▁time	-266
▁were	-267
▁pre	-268
▁actually	-269
hing	-270
▁years	-271
▁their	-272
▁af	-273
▁ta	-274
▁every	-275
ib	-276
▁new	-277
▁would	-278
ast	-279
▁po	-280
ment	-281
▁want	-282
ack	-283
iz	-284
▁really	-285
age	-286
reat	-287
▁has	-288
irst	-289
omet	-290
▁way	-291
▁cont	-292
▁man	-293
▁first	-294
ven	-295
▁work	-296
itt	-297
▁no	-298
▁right	-299
ip	-300
▁ag	-301
▁per	-302
▁think	-303
▁don	-304
so	-305
▁ro	-306
▁three	-307
ans	-308
▁cl	-309
▁tal	-310
▁somet	-311
ia	-312
ore	-313
ite	-314
▁fe	-315
▁mu	-316
ions	-317
ousand	-318
▁could	-319
▁thousand	-320
ose	-321
▁qu	-322
▁she	-323
▁make	-324
▁un	-325
▁his	-326
▁also	-327
ry	-328
ach	-329
▁am	-330
▁say	-331
own	-332
▁co	-333
▁hu	-334
▁much	-335
ud	-336
▁dis	-337
▁back	-338
▁well	-339
▁where	-340
▁over	-341
ang	-342
▁got	-343
ff	-344
ough	-345
are	-346
▁did	-347
▁five	-348
▁need	-349
▁show	-350
ys	-351
ass	-352
▁been	-353
▁something	-354
ire	-355
▁exp	-356
ittle	-357
▁little	-358
▁things	-359
▁gu	-360
nder	-361
▁build	-362
▁ph	-363
ence	-364
ndred	-365
▁hundred	-366
te	-367
ice	-368
▁start	-369
ater	-370
▁let	-371
ep	-372
ss	-373
▁day	-374
▁imp	-375
ign	-376
ical	-377
▁lif	-378
▁good	-379
▁most	-380
▁child	-381
▁lo	-382
▁tra	-383
ody	-384
▁four	-385
ix	-386
lf	-387
▁happ	-388
ea	-389
ple	-390
way	-391
▁pr	-392
▁any	-393
▁call	-394
ces	-395
▁after	-396
ens	-397
ish	-398
▁bl	-399
enty	-400
▁too	-401
▁prob	-402
▁real	-403
▁said	-404
▁those	-405
co	-406
int	-407
▁only	-408
pt	-409
act	-410
▁sc	-411
▁down	-412
▁thank	-413
ars	-414
ick	-415
fere	-416
▁bra	-417
▁ind	-418
▁put	-419
▁use	-420
▁tell	-421
urn	-422
ace	-423
als	-424
▁wr	-425
▁big	-426
▁cou	-427
▁lot	-428
other	-429
▁kind	-430
ue	-431
ase	-432
ics	-433
ves	-434
▁gr	-435
ther	-436
▁off	-437
ade	-438
orm	-439
▁br	-440
▁fo	-441
▁sy	-442
ance	-443
▁her	-444
▁why	-445
▁id	-446
▁take	-447
▁inter	-448
vel	-449
cent	-450
▁dif	-451
▁under	-452
ving	-453
▁life	-454
pl	-455
ub	-456
ange	-457
▁res	-458
▁doing	-459
ood	-460
ool	-461
olog	-462
▁eight	-463
ren	-464
ject	-465
▁ted	-466
▁thr	-467
▁come	-468
▁part	-469
▁talk	-470
▁thir	-471
du	-472
ber	-473
ower	-474
▁app	-475
▁inf	-476
▁mar	-477
▁six	-478
▁spe	-479
▁should	-480
xt	-481
▁bet	-482
▁made	-483
wn	-484
lem	-485
ult	-486
▁em	-487
ible	-488
▁gen	-489
▁does	-490
▁being	-491
▁differe	-492
cc	-493
ary	-494
day	-495
▁long	-496
▁building	-497
▁ad	-498
▁sm	-499
able	-500
▁ins	-501
▁mus	-502
illion	-503
ob	-504
get	-505
▁hum	-506
▁own	-507
▁even	-508
▁great	-509
▁other	-510
▁twenty	-511
▁children	-512
ory	-513
▁ago	-514
▁find	-515
▁tech	-516
ations	-517
▁around	-518
▁through	-519
ph	-520
self	-521
vent	-522
ated	-523
ting	-524
▁mat	-525
▁may	-526
ition	-527
▁techn	-528
ak	-529
ids	-530
▁bas	-531
▁des	-532
▁end	-533
▁fif	-534
▁many	-535
▁called	-536
▁problem	-537
ile	-538
▁bel	-539
▁dec	-540
▁fact	-541
▁next	-542
▁stud	-543
▁different	-544
erg	-545
▁gl	-546
▁fam	-547
▁sch	-548
ug	-549
ied	-550
igh	-551
▁cr	-552
stem	-553
▁eng	-554
▁him	-555
▁old	-556
▁pos	-557
▁imag	-558
▁brain	-559
▁point	-560
▁power	-561
▁percent	-562
ft	-563
les	-564
▁ra	-565
ning	-566
▁art	-567
▁try	-568
▁turn	-569
▁creat	-570
ac	-571
pe	-572
nds	-573
▁min	-574
▁sim	-575
ather	-576
thing	-577
▁lear	-578
ily	-579
▁fl	-580
fore	-581
▁car	-582
▁inc	-583
ought	-584
▁same	-585
▁sort	-586
▁again	-587
ian	-588
ock	-589
ope	-590
ious	-591
▁rec	-592
▁str	-593
▁last	-594
ically	-595
▁today	-596
▁school	-597
▁system	-598
▁technolog	-599
ize	-600
ved	-601
▁ok	-602
ress	-603
▁didn	-604
▁pers	-605
▁went	-606
▁human	-607
▁music	-608
▁contro	-609
▁import	-610
ful	-611
ric	-612
▁dr	-613
lect	-614
vers	-615
▁dat	-616
▁still	-617
▁before	-618
▁started	-619
kes	-620
ram	-621
▁ten	-622
▁able	-623
▁comm	-624
▁form	-625
▁inst	-626
▁change	-627
▁another	-628
ail	-629
een	-630
▁bo	-631
▁cam	-632
▁wee	-633
▁working	-634
▁important	-635
ord	-636
per	-637
tty	-638
▁ke	-639
▁ob	-640
▁sk	-641
ates	-642
ieve	-643
ized	-644
ness	-645
ular	-646
ways	-647
▁nat	-648
ating	-649
ction	-650
▁live	-651
▁took	-652
▁quest	-653
▁sound	-654
▁pretty	-655
▁underst	-656
lic	-657
cial	-658
ents	-659
▁ear	-660
▁mon	-661
▁data	-662
▁home	-663
▁news	-664
▁seco	-665
▁count	-666
ps	-667
ise	-668
its	-669
▁giv	-670
▁gra	-671
▁rem	-672
▁body	-673
▁came	-674
▁guys	-675
▁kids	-676
▁less	-677
▁learn	-678
▁produ	-679
▁happen	-680
▁person	-681
ng	-682
▁z	-683
ath	-684
ict	-685
ors	-686
ull	-687
▁leg	-688
▁top	-689
▁wom	-690
▁anim	-691
▁high	-692
▁mean	-693
▁plan	-694
▁week	-695
▁energ	-696
▁times	-697
▁water	-698
▁always	-699
▁better	-700
▁thirty	-701
▁technology	-702
▁understand	-703
be	-704
▁pop	-705
erest	-706
▁feel	-707
▁hard	-708
▁play	-709
▁chang	-710
▁found	-711
▁young	-712
▁comput	-713
▁energy	-714
▁million	-715
ial	-716
iss	-717
body	-718
lish	-719
▁ent	-720
▁fly	-721
▁fut	-722
▁pie	-723
▁run	-724
▁sci	-725
▁sur	-726
▁coll	-727
▁forty	-728
▁future	-729
▁project	-730
▁thought	-731
▁interest	-732
ash	-733
ave	-734
ced	-735
▁ac	-736
▁vi	-737
▁stu	-738
velop	-739
▁hand	-740
▁hope	-741
▁sign	-742
▁vide	-743
▁never	-744
▁seven	-745
▁comple	-746
▁design	-747
der	-748
llow	-749
teen	-750
ward	-751
▁beg	-752
▁bot	-753
▁cons	-754
▁dire	-755
▁each	-756
▁hour	-757
▁idea	-758
▁okay	-759
▁used	-760
▁allow	-761
▁trans	-762
▁develop	-763
ert	-764
ific	-765
ourn	-766
▁eff	-767
▁few	-768
▁mom	-769
▁nin	-770
▁reg	-771
▁book	-772
▁exam	-773
▁head	-774
▁poss	-775
▁month	-776
▁small	-777
ds	-778
ale	-779
ety	-780
▁ey	-781
atch	-782
cing	-783
ined	-784
▁air	-785
▁fil	-786
▁fin	-787
▁pol	-788
▁vis	-789
▁cour	-790
▁phot	-791
▁song	-792
▁using	-793
▁whole	-794
▁inside	-795
ms	-796
ts	-797
ark	-798
bot	-799
ell	-800
ets	-801
ger	-802
▁sl	-803
ross	-804
▁fun	-805
▁wal	-806
▁kill	-807
▁move	-808
▁sing	-809
▁soon	-810
▁elect	-811
▁fifty	-812
▁stuff	-813
▁second	-814
▁believe	-815
▁looking	-816
▁question	-817
ons	-818
ual	-819
▁op	-820
ered	-821
ines	-822
ings	-823
read	-824
ural	-825
ures	-826
▁cre	-827
▁gre	-828
▁hel	-829
▁war	-830
ccess	-831
▁give	-832
▁grow	-833
▁stop	-834
gether	-835
▁journ	-836
▁maybe	-837
▁place	-838
▁robot	-839
▁story	-840
▁course	-841
▁father	-842
▁together	-843
ked	-844
▁oh	-845
angu	-846
arch	-847
cept	-848
tern	-849
▁env	-850
▁guy	-851
▁lar	-852
▁num	-853
▁rel	-854
▁ser	-855
▁sol	-856
▁away	-857
▁ever	-858
▁frie	-859
▁nine	-860
▁seen	-861
▁stre	-862
▁supp	-863
▁doesn	-864
▁india	-865
▁minut	-866
▁coming	-867
▁wanted	-868
▁control	-869
▁success	-870
ey	-871
iew	-872
ner	-873
ote	-874
ages	-875
alth	-876
less	-877
ogra	-878
ware	-879
▁bus	-880
▁cra	-881
▁eas	-882
▁inv	-883
▁its	-884
▁ref	-885
▁sub	-886
ience	-887
▁doll	-888
▁pass	-889
▁pict	-890
▁pres	-891
▁room	-892
▁wind	-893
▁exper	-894
▁gener	-895
▁heart	-896
▁langu	-897
▁means	-898
▁might	-899
▁piece	-900
▁intern	-901
ket	-902
nce	-903
ron	-904
▁di	-905
▁sw	-906
ably	-907
iron	-908
ital	-909
oney	-910
▁att	-911
▁bad	-912
▁loc	-913
▁pub	-914
▁rep	-915
ility	-916
▁care	-917
▁lead	-918
▁mind	-919
▁name	-920
▁told	-921
▁earth	-922
▁later	-923
▁light	-924
▁plast	-925
▁commun	-926
▁direct	-927
▁follow	-928
▁trying	-929
ironment	-930
▁english	-931
▁example	-932
▁talking	-933
▁computer	-934
▁everything	-935
▁environment	-936
eas	-937
row	-938
▁ed	-939
▁wo	-940
aces	-941
cess	-942
gram	-943
ists	-944
▁map	-945
ately	-946
ative	-947
ected	-948
iness	-949
▁cent	-950
▁done	-951
▁face	-952
▁help	-953
▁perf	-954
▁read	-955
▁rese	-956
▁bring	-957
ational	-958
▁family	-959
▁health	-960
▁letter	-961
▁matter	-962
▁country	-963
az	-964
pr	-965
ru	-966
ead	-967
urd	-968
▁da	-969
▁ge	-970
aper	-971
ever	-972
gest	-973
ince	-974
▁bit	-975
▁cal	-976
▁cor	-977
▁equ	-978
▁far	-979
▁hal	-980
▁iss	-981
▁job	-982
▁oil	-983
▁pat	-984
▁uni	-985
iting	-986
▁days	-987
▁goes	-988
▁left	-989
▁love	-990
▁pain	-991
▁teach	-992
▁video	-993
▁across	-994
▁inform	-995
▁market	-996
▁mother	-997
▁simple	-998
▁dollars	-999
▁getting	-1000
▁nothing	-1001
▁research	-1002
▁thinking	-1003
oy	-1004
ken	-1005
sel	-1006
ump	-1007
▁el	-1008
▁ho	-1009
ials	-1010
ided	-1011
ield	-1012
ract	-1013
▁bre	-1014
▁col	-1015
▁cur	-1016
▁dev	-1017
▁met	-1018
▁set	-1019
ution	-1020
▁doct	-1021
▁film	-1022
▁food	-1023
▁half	-1024
▁hear	-1025
▁phys	-1026
▁says	-1027
▁self	-1028
ograph	-1029
▁begin	-1030
▁hours	-1031
▁money	-1032
▁plant	-1033
▁watch	-1034
▁number	-1035
▁information	-1036
aw	-1037
gr	-1038
mo	-1039
na	-1040
yc	-1041
ape	-1042
cus	-1043
eah	-1044
hip	-1045
ilt	-1046
led	-1047
res	-1048
uck	-1049
ush	-1050
▁ca	-1051
▁ve	-1052
ient	-1053
▁ext	-1054
▁lab	-1055
▁med	-1056
▁par	-1057
ories	-1058
uring	-1059
▁glob	-1060
▁side	-1061
▁spec	-1062
▁step	-1063
▁yeah	-1064
▁afric	-1065
▁makes	-1066
▁couple	-1067
▁effect	-1068
▁enough	-1069
▁living	-1070
▁animals	-1071
▁complex	-1072
▁program	-1073
▁possible	-1074
▁interesting	-1075
hm	-1076
ank	-1077
aps	-1078
cer	-1079
ork	-1080
▁ev	-1081
▁ty	-1082
bers	-1083
iter	-1084
ouse	-1085
vern	-1086
ween	-1087
▁bir	-1088
▁sle	-1089
▁yes	-1090
ities	-1091
▁city	-1092
▁goal	-1093
▁land	-1094
▁lives	-1095
▁stand	-1096
▁while	-1097
▁become	-1098
▁create	-1099
▁govern	-1100
▁looked	-1101
▁between	-1102
▁decided	-1103
▁imagine	-1104
▁minutes	-1105
▁picture	-1106
▁plastic	-1107
▁process	-1108
▁thousands	-1109
bs	-1110
li	-1111
aut	-1112
lec	-1113
▁wa	-1114
ason	-1115
ease	-1116
ense	-1117
eric	-1118
ited	-1119
pped	-1120
side	-1121
▁aud	-1122
▁bro	-1123
▁det	-1124
▁sev	-1125
▁ter	-1126
▁unt	-1127
cking	-1128
▁amaz	-1129
▁bott	-1130
▁expl	-1131
▁keep	-1132
▁lego	-1133
▁list	-1134
▁mach	-1135
▁once	-1136
▁viol	-1137
ertain	-1138
▁dance	-1139
▁disco	-1140
▁level	-1141
▁local	-1142
▁looks	-1143
▁mater	-1144
▁molec	-1145
▁popul	-1146
▁space	-1147
▁americ	-1148
▁moment	-1149
▁nature	-1150
▁partic	-1151
▁taking	-1152
▁content	-1153
▁disease	-1154
▁journey	-1155
▁anything	-1156
▁probably	-1157
▁basically	-1158
▁government	-1159
uc	-1160
eel	-1161
idd	-1162
ins	-1163
nam	-1164
ten	-1165
here	-1166
icro	-1167
imes	-1168
omes	-1169
outh	-1170
urdy	-1171
▁dig	-1172
▁imm	-1173
▁opp	-1174
▁ple	-1175
▁sky	-1176
ember	-1177
ister	-1178
▁clim	-1179
▁fire	-1180
▁full	-1181
▁insp	-1182
▁past	-1183
▁port	-1184
selves	-1185
▁block	-1186
▁built	-1187
▁comes	-1188
▁focus	-1189
▁house	-1190
▁ideas	-1191
▁micro	-1192
▁quick	-1193
▁sleep	-1194
▁woman	-1195
▁women	-1196
▁africa	-1197
▁images	-1198
▁happens	-1199
▁science	-1200
▁someone	-1201
▁business	-1202
▁internet	-1203
▁students	-1204
▁everybody	-1205
av	-1206
gs	-1207
ks	-1208
elt	-1209
jor	-1210
nts	-1211
ted	-1212
uit	-1213
une	-1214
▁av	-1215
ream	-1216
ught	-1217
▁acc	-1218
▁age	-1219
▁bab	-1220
▁beh	-1221
▁dra	-1222
▁dro	-1223
▁mod	-1224
▁org	-1225
▁saf	-1226
▁vol	-1227
acter	-1228
verse	-1229
vious	-1230
wards	-1231
▁bill	-1232
▁char	-1233
▁conf	-1234
▁cult	-1235
▁dist	-1236
▁felt	-1237
▁hist	-1238
▁jump	-1239
▁mess	-1240
▁miss	-1241
▁ones	-1242
▁open	-1243
▁rele	-1244
▁beaut	-1245
▁blood	-1246
▁break	-1247
▁happy	-1248
▁major	-1249
▁quite	-1250
▁reach	-1251
▁third	-1252
▁became	-1253
▁entire	-1254
▁invent	-1255
▁making	-1256
▁amazing	-1257
▁instead	-1258
▁product	-1259
▁seventy	-1260
▁language	-1261
▁realized	-1262
▁remember	-1263
▁sometimes	-1264
no	-1265
ane	-1266
ero	-1267
ese	-1268
han	-1269
▁hy	-1270
ries	-1271
▁add	-1272
▁aff	-1273
▁bom	-1274
▁eye	-1275
▁har	-1276
▁ris	-1277
atics	-1278
ments	-1279
ument	-1280
▁arch	-1281
▁cost	-1282
▁else	-1283
▁free	-1284
▁mass	-1285
▁mill	-1286
▁moon	-1287
▁stay	-1288
▁such	-1289
▁view	-1290
▁displ	-1291
▁glass	-1292
▁image	-1293
▁older	-1294
▁organ	-1295
▁until	-1296
▁write	-1297
▁incred	-1298
▁listen	-1299
▁longer	-1300
▁myself	-1301
▁result	-1302
▁scient	-1303
▁wonder	-1304
▁learned	-1305
▁perform	-1306
▁yourself	-1307
cr	-1308
sw	-1309
ake	-1310
con	-1311
cre	-1312
era	-1313
erv	-1314
ips	-1315
iti	-1316
ues	-1317
ule	-1318
umm	-1319
vor	-1320
▁bi	-1321
▁jo	-1322
▁la	-1323
elve	-1324
iban	-1325
iful	-1326
ired	-1327
itch	-1328
▁ach	-1329
▁cle	-1330
▁cut	-1331
▁dna	-1332
▁pay	-1333
▁red	-1334
▁sat	-1335
▁tre	-1336
ining	-1337
ional	-1338
istan	-1339
pping	-1340
▁cars	-1341
▁cool	-1342
▁orig	-1343
▁prof	-1344
▁prop	-1345
▁soft	-1346
▁trad	-1347
▁true	-1348
▁favor	-1349
▁given	-1350
▁green	-1351
▁leave	-1352
▁paper	-1353
▁phone	-1354
▁scale	-1355
▁since	-1356
▁store	-1357
▁takes	-1358
▁weeks	-1359
▁during	-1360
▁having	-1361
▁months	-1362
▁public	-1363
▁robots	-1364
▁seeing	-1365
▁single	-1366
▁street	-1367
▁twelve	-1368
▁created	-1369
▁express	-1370
▁fifteen	-1371
▁natural	-1372
▁present	-1373
▁taliban	-1374
▁controll	-1375
▁everyone	-1376
▁personal	-1377
▁developed	-1378
▁photograph	-1379
cy	-1380
lt	-1381
lu	-1382
me	-1383
ny	-1384
air	-1385
ene	-1386
ier	-1387
irc	-1388
oke	-1389
oth	-1390
por	-1391
ube	-1392
uro	-1393
uth	-1394
▁cy	-1395
▁ps	-1396
ales	-1397
ives	-1398
ling	-1399
ming	-1400
ring	-1401
ured	-1402
▁ask	-1403
▁che	-1404
▁hot	-1405
▁men	-1406
▁pet	-1407
▁spl	-1408
▁tem	-1409
ature	-1410
ident	-1411
ortun	-1412
▁anal	-1413
▁answ	-1414
▁burn	-1415
▁cell	-1416
▁circ	-1417
▁deal	-1418
▁deep	-1419
▁fail	-1420
▁fall	-1421
▁feet	-1422
▁main	-1423
▁math	-1424
▁meas	-1425
▁must	-1426
▁prov	-1427
▁save	-1428
▁stat	-1429
▁sure	-1430
▁zero	-1431
▁along	-1432
▁appro	-1433
▁genes	-1434
▁guess	-1435
▁heard	-1436
▁issue	-1437
▁order	-1438
▁south	-1439
▁taken	-1440
▁turns	-1441
▁works	-1442
▁wrong	-1443
▁camera	-1444
▁device	-1445
▁eighty	-1446
▁flying	-1447
▁friend	-1448
▁giving	-1449
▁global	-1450
▁ninety	-1451
▁places	-1452
▁planet	-1453
▁worked	-1454
▁certain	-1455
▁digital	-1456
▁display	-1457
▁message	-1458
▁outside	-1459
▁species	-1460
▁universe	-1461
br	-1462
ik	-1463
els	-1464
ged	-1465
irl	-1466
ned	-1467
▁es	-1468
ared	-1469
ator	-1470
ians	-1471
ival	-1472
most	-1473
oose	-1474
ount	-1475
unch	-1476
▁buy	-1477
▁cap	-1478
▁dan	-1479
▁def	-1480
▁doc	-1481
▁eat	-1482
▁low	-1483
▁mem	-1484
▁mob	-1485
▁pot	-1486
▁sit	-1487
▁val	-1488
▁vir	-1489
▁win	-1490
▁yet	-1491
itect	-1492
iving	-1493
▁died	-1494
▁easy	-1495
▁eyes	-1496
▁flow	-1497
▁foot	-1498
▁grou	-1499
▁line	-1500
▁meet	-1501
▁pare	-1502
▁pick	-1503
▁poor	-1504
▁prot	-1505
▁push	-1506
▁resp	-1507
▁rich	-1508
▁road	-1509
▁sens	-1510
▁ways	-1511
cially	-1512
itical	-1513
▁famil	-1514
▁moder	-1515
▁ninet	-1516
▁pages	-1517
▁sense	-1518
▁shows	-1519
▁sixty	-1520
▁state	-1521
ability	-1522
▁behind	-1523
▁couldn	-1524
▁detail	-1525
▁doctor	-1526
▁impact	-1527
▁marrow	-1528
▁office	-1529
▁origin	-1530
▁please	-1531
▁record	-1532
▁syring	-1533
▁weight	-1534
▁billion	-1535
▁friends	-1536
▁obvious	-1537
▁parents	-1538
▁prevent	-1539
▁quickly	-1540
▁running	-1541
▁special	-1542
▁support	-1543
▁usually	-1544
▁changing	-1545
▁happened	-1546
▁software	-1547
▁whatever	-1548
▁architect	-1549
▁beautiful	-1550
▁beginning	-1551
▁buildings	-1552
▁population	-1553
▁themselves	-1554
io	-1555
sc	-1556
ble	-1557
ief	-1558
ien	-1559
ife	-1560
ond	-1561
ont	-1562
osp	-1563
ute	-1564
ych	-1565
ames	-1566
ased	-1567
cket	-1568
ging	-1569
ices	-1570
ider	-1571
unte	-1572
work	-1573
▁bar	-1574
▁emb	-1575
▁kid	-1576
▁squ	-1577
cious	-1578
ering	-1579
etnam	-1580
iddle	-1581
itive	-1582
nding	-1583
ready	-1584
▁best	-1585
▁clos	-1586
▁cond	-1587
▁dark	-1588
▁espe	-1589
▁fore	-1590
▁girl	-1591
▁hold	-1592
▁luck	-1593
▁sell	-1594
▁soci	-1595
▁spea	-1596
▁stra	-1597
▁summ	-1598
▁wasn	-1599
▁carry	-1600
▁clock	-1601
▁force	-1602
▁haiti	-1603
▁impro	-1604
▁large	-1605
▁newsp	-1606
▁often	-1607
▁psych	-1608
▁shape	-1609
▁share	-1610
▁wheel	-1611
▁white	-1612
▁words	-1613
itional	-1614
▁almost	-1615
▁bigger	-1616
▁choose	-1617
▁contin	-1618
▁mobile	-1619
▁portra	-1620
▁rather	-1621
▁reason	-1622
▁sevent	-1623
▁within	-1624
▁already	-1625
▁changed	-1626
▁growing	-1627
▁machine	-1628
▁reality	-1629
▁telling	-1630
▁vietnam	-1631
▁volunte	-1632
▁audience	-1633
▁complete	-1634
▁favorite	-1635
▁millions	-1636
▁community	-1637
▁countries	-1638
▁marketing	-1639
▁materials	-1640
▁wonderful	-1641
▁especially	-1642
▁experience	-1643
▁particular	-1644
bo	-1645
lo	-1646
of	-1647
ats	-1648
bir	-1649
cks	-1650
cul	-1651
eds	-1652
ina	-1653
ium	-1654
ony	-1655
orn	-1656
oss	-1657
ots	-1658
rab	-1659
ude	-1660
urs	-1661
yle	-1662
▁ep	-1663
ases	-1664
haps	-1665
hood	-1666
ites	-1667
land	-1668
load	-1669
ones	-1670
▁arr	-1671
▁cym	-1672
▁dim	-1673
▁emp	-1674
▁est	-1675
▁exc	-1676
▁fig	-1677
▁hit	-1678
▁mag	-1679
▁mil	-1680
▁nor	-1681
▁oth	-1682
▁pen	-1683
▁saw	-1684
▁sun	-1685
allow	-1686
aster	-1687
ision	-1688
ledge	-1689
quake	-1690
▁baby	-1691
▁bone	-1692
▁camp	-1693
▁dang	-1694
▁draw	-1695
▁educ	-1696
▁emot	-1697
▁gets	-1698
▁grew	-1699
▁inno	-1700
▁inte	-1701
▁page	-1702
▁post	-1703
▁redu	-1704
▁rest	-1705
▁surv	-1706
▁test	-1707
▁word	-1708
ground	-1709
itting	-1710
▁among	-1711
▁brand	-1712
▁climb	-1713
▁dream	-1714
▁front	-1715
▁hands	-1716
▁labor	-1717
▁night	-1718
▁study	-1719
▁yield	-1720
ference	-1721
▁allows	-1722
▁compet	-1723
▁engine	-1724
▁finish	-1725
▁itself	-1726
▁killed	-1727
▁middle	-1728
▁needed	-1729
▁others	-1730
▁plants	-1731
▁potent	-1732
▁proper	-1733
▁recent	-1734
▁spread	-1735
▁feeling	-1736
▁finding	-1737
▁history	-1738
▁passion	-1739
▁pattern	-1740
▁perhaps	-1741
▁physics	-1742
▁serious	-1743
▁stories	-1744
▁document	-1745
▁movement	-1746
▁earthquake	-1747
▁incredible	-1748
ew	-1749
app	-1750
arr	-1751
asa	-1752
eed	-1753
gen	-1754
nik	-1755
umb	-1756
ury	-1757
cret	-1758
enth	-1759
full	-1760
ghan	-1761
idic	-1762
ised	-1763
line	-1764
part	-1765
rent	-1766
rodu	-1767
ters	-1768
tube	-1769
▁abs	-1770
▁cop	-1771
▁del	-1772
▁enc	-1773
▁fre	-1774
▁hip	-1775
▁hiv	-1776
▁hor	-1777
▁key	-1778
▁net	-1779
▁nut	-1780
▁oce	-1781
▁opt	-1782
▁pak	-1783
▁tru	-1784
▁typ	-1785
▁web	-1786
alist	-1787
ellig	-1788
ether	-1789
fully	-1790
inary	-1791
itten	-1792
izing	-1793
ronic	-1794
utnik	-1795
where	-1796
▁boys	-1797
▁crow	-1798
▁evol	-1799
▁gent	-1800
▁gone	-1801
▁hosp	-1802
▁huge	-1803
▁lots	-1804
▁meat	-1805
▁prim	-1806
▁safe	-1807
▁size	-1808
▁tool	-1809
▁vers	-1810
▁wait	-1811
ection	-1812
ective	-1813
▁alone	-1814
▁asked	-1815
▁based	-1816
▁books	-1817
▁const	-1818
▁extra	-1819
▁field	-1820
▁fight	-1821
▁group	-1822
▁innov	-1823
▁press	-1824
▁short	-1825
▁smoke	-1826
▁wrote	-1827
ization	-1828
▁afghan	-1829
▁answer	-1830
▁common	-1831
▁compan	-1832
▁consum	-1833
▁dimens	-1834
▁forget	-1835
▁modern	-1836
▁points	-1837
▁report	-1838
▁saying	-1839
▁secret	-1840
▁showed	-1841
▁social	-1842
▁videos	-1843
▁vision	-1844
▁visual	-1845
ckingbir	-1846
▁america	-1847
▁biggest	-1848
▁changes	-1849
▁culture	-1850
▁profess	-1851
▁society	-1852
▁sputnik	-1853
▁statist	-1854
▁strange	-1855
▁subject	-1856
▁youtube	-1857
▁intellig	-1858
▁national	-1859
▁nineteen	-1860
▁pakistan	-1861
▁problems	-1862
▁projects	-1863
▁starting	-1864
▁happening	-1865
▁questions	-1866
▁completely	-1867
▁mockingbir	-1868
he	-1869
hy	-1870
mb	-1871
oc	-1872
to	-1873
up	-1874
bit	-1875
ein	-1876
har	-1877
iar	-1878
ift	-1879
ior	-1880
joy	-1881
mit	-1882
ogn	-1883
oud	-1884
ove	-1885
ped	-1886
ply	-1887
und	-1888
▁ir	-1889
ardo	-1890
book	-1891
iger	-1892
inst	-1893
ived	-1894
ouge	-1895
ples	-1896
room	-1897
ules	-1898
used	-1899
ustr	-1900
▁die	-1901
▁ele	-1902
▁god	-1903
▁ice	-1904
▁lin	-1905
▁mel	-1906
▁mor	-1907
▁mot	-1908
▁rot	-1909
▁ste	-1910
▁ton	-1911
▁ult	-1912
▁wit	-1913
ables	-1914
conom	-1915
ences	-1916
erous	-1917
ither	-1918
ouses	-1919
rical	-1920
vered	-1921
▁aids	-1922
▁arab	-1923
▁base	-1924
▁both	-1925
▁conn	-1926
▁drop	-1927
▁heav	-1928
▁leon	-1929
▁mars	-1930
▁mult	-1931
▁nasa	-1932
▁norm	-1933
▁peak	-1934
▁pole	-1935
▁risk	-1936
▁scre	-1937
▁shut	-1938
▁spot	-1939
▁walk	-1940
atives	-1941
ources	-1942
▁areas	-1943
▁avail	-1944
▁aware	-1945
▁basis	-1946
▁began	-1947
▁birth	-1948
▁death	-1949
▁einst	-1950
▁enjoy	-1951
▁exact	-1952
▁gurdy	-1953
▁hurdy	-1954
▁incre	-1955
▁influ	-1956
▁known	-1957
▁liter	-1958
▁media	-1959
▁model	-1960
▁names	-1961
▁offic	-1962
▁oppos	-1963
▁pract	-1964
▁react	-1965
▁rouge	-1966
▁speed	-1967
▁stage	-1968
▁talks	-1969
▁terms	-1970
▁traff	-1971
▁truly	-1972
▁truth	-1973
▁affect	-1974
▁animal	-1975
▁anyone	-1976
▁artist	-1977
▁compos	-1978
▁concer	-1979
▁contem	-1980
▁conver	-1981
▁corner	-1982
▁econom	-1983
▁except	-1984
▁famous	-1985
▁issues	-1986
▁object	-1987
▁possib	-1988
▁region	-1989
▁simply	-1990
ervation	-1991
▁achieve	-1992
▁brought	-1993
▁convers	-1994
▁current	-1995
▁install	-1996
▁measure	-1997
▁schools	-1998
▁seconds	-1999
▁whether	-2000
▁writing	-2001
▁written	-2002
▁creating	-2003
▁cymatics	-2004
▁directly	-2005
▁einstein	-2006
▁electric	-2007
▁fourteen	-2008
▁hundreds	-2009
▁inspired	-2010
▁interact	-2011
▁learning	-2012
▁leonardo	-2013
▁powerful	-2014
▁signific	-2015
▁teachers	-2016
▁violence	-2017
▁character	-2018
▁dangerous	-2019
▁knowledge	-2020
▁languages	-2021
▁obviously	-2022
▁electrical	-2023
▁generation	-2024
▁performance	-2025
ah	-2026
we	-2027
ann	-2028
bab	-2029
bon	-2030
cil	-2031
edi	-2032
how	-2033
iet	-2034
lam	-2035
man	-2036
mon	-2037
not	-2038
ode	-2039
old	-2040
osy	-2041
rib	-2042
ton	-2043
ung	-2044
▁dy	-2045
ades	-2046
ains	-2047
ants	-2048
apan	-2049
ards	-2050
ashy	-2051
etic	-2052
face	-2053
hmer	-2054
ides	-2055
ighb	-2056
ivil	-2057
ouch	-2058
ruct	-2059
ture	-2060
view	-2061
wide	-2062
yond	-2063
▁ann	-2064
▁ant	-2065
▁arm	-2066
▁ass	-2067
▁bag	-2068
▁cho	-2069
▁chr	-2070
▁dam	-2071
▁fem	-2072
▁fit	-2073
▁fix	-2074
▁gas	-2075
▁hon	-2076
▁inj	-2077
▁lad	-2078
▁los	-2079
▁occ	-2080
▁pan	-2081
▁sad	-2082
▁tot	-2083
▁uns	-2084
▁won	-2085
apers	-2086
asons	-2087
ially	-2088
ieved	-2089
imate	-2090
ising	-2091
olute	-2092
ounds	-2093
▁aren	-2094
▁blue	-2095
▁case	-2096
▁diag	-2097
▁fing	-2098
▁fort	-2099
▁fund	-2100
▁game	-2101
▁gave	-2102
▁legs	-2103
▁nose	-2104
▁oper	-2105
▁park	-2106
▁plus	-2107
▁poem	-2108
▁poet	-2109
▁pull	-2110
▁requ	-2111
▁ship	-2112
▁sick	-2113
▁suic	-2114
▁team	-2115
▁type	-2116
▁wall	-2117
▁wife	-2118
▁york	-2119
ensive	-2120
ention	-2121
ressed	-2122
ughter	-2123
vering	-2124
▁above	-2125
▁apart	-2126
▁below	-2127
▁china	-2128
▁civil	-2129
▁clean	-2130
▁close	-2131
▁colle	-2132
▁crowd	-2133
▁gives	-2134
▁islam	-2135
▁japan	-2136
▁khmer	-2137
▁kinds	-2138
▁needs	-2139
▁peace	-2140
▁sahar	-2141
▁speak	-2142
▁spent	-2143
▁tried	-2144
▁wings	-2145
▁altern	-2146
▁asking	-2147
▁bacter	-2148
▁beyond	-2149
▁bottle	-2150
▁calcul	-2151
▁carbon	-2152
▁disapp	-2153
▁easily	-2154
▁either	-2155
▁eleven	-2156
▁flight	-2157
▁ground	-2158
▁indeed	-2159
▁integr	-2160
▁landsc	-2161
▁mister	-2162
▁mostly	-2163
▁neighb	-2164
▁notice	-2165
▁online	-2166
▁pieces	-2167
▁recogn	-2168
▁repres	-2169
▁resist	-2170
▁rights	-2171
▁spaces	-2172
▁strong	-2173
▁supply	-2174
▁window	-2175
ortunity	-2176
▁allowed	-2177
▁collect	-2178
▁experim	-2179
▁forward	-2180
▁glasses	-2181
▁introdu	-2182
▁largest	-2183
▁letters	-2184
▁musical	-2185
▁popular	-2186
▁publish	-2187
▁realize	-2188
▁somehow	-2189
▁splashy	-2190
▁student	-2191
▁syringe	-2192
▁witness	-2193
▁absolute	-2194
▁approach	-2195
▁communic	-2196
▁homeless	-2197
▁positive	-2198
▁reaching	-2199
▁recently	-2200
▁tracking	-2201
▁training	-2202
▁contempor	-2203
▁molecular	-2204
▁complexity	-2205
▁developing	-2206
▁competition	-2207
▁opportunity	-2208
▁photography	-2209
▁significant	-2210
▁traditional	-2211
▁conversation	-2212
eg	-2213
ex	-2214
hi	-2215
zy	-2216
anf	-2217
bod	-2218
cel	-2219
gre	-2220
ify	-2221
ims	-2222
ink	-2223
ism	-2224
oid	-2225
oun	-2226
uct	-2227
uel	-2228
ugg	-2229
urb	-2230
urt	-2231
▁aw	-2232
▁dh	-2233
aged	-2234
atic	-2235
enef	-2236
iant	-2237
icle	-2238
inci	-2239
iple	-2240
nded	-2241
plic	-2242
resh	-2243
ster	-2244
ulpt	-2245
uses	-2246
ycle	-2247
▁adj	-2248
▁ast	-2249
▁aug	-2250
▁aut	-2251
▁bal	-2252
▁bat	-2253
▁bed	-2254
▁box	-2255
▁boy	-2256
▁dep	-2257
▁fro	-2258
▁fur	-2259
▁hig	-2260
▁isn	-2261
▁lat	-2262
▁lay	-2263
▁lea	-2264
▁non	-2265
▁rad	-2266
▁son	-2267
▁sug	-2268
▁tar	-2269
▁unc	-2270
▁unf	-2271
▁ups	-2272
ality	-2273
board	-2274
bsite	-2275
eared	-2276
ified	-2277
opath	-2278
print	-2279
uries	-2280
urope	-2281
▁aver	-2282
▁cass	-2283
▁comb	-2284
▁conv	-2285
▁coun	-2286
▁cris	-2287
▁dead	-2288
▁diff	-2289
▁disp	-2290
▁drug	-2291
▁fish	-2292
▁harv	-2293
▁heat	-2294
▁lose	-2295
▁male	-2296
▁maps	-2297
▁mash	-2298
▁onto	-2299
▁prom	-2300
▁roof	-2301
▁rule	-2302
▁sent	-2303
▁shot	-2304
▁site	-2305
▁situ	-2306
▁skyd	-2307
▁stem	-2308
▁tied	-2309
▁tune	-2310
▁vall	-2311
▁wish	-2312
owered	-2313
utions	-2314
▁activ	-2315
▁apple	-2316
▁beach	-2317
▁benef	-2318
▁birds	-2319
▁board	-2320
▁broad	-2321
▁cells	-2322
▁class	-2323
▁color	-2324
▁email	-2325
▁exist	-2326
▁faces	-2327
▁fires	-2328
▁funny	-2329
▁grand	-2330
▁heavy	-2331
▁homes	-2332
▁ident	-2333
▁invol	-2334
▁minds	-2335
▁pants	-2336
▁parag	-2337
▁peter	-2338
▁polic	-2339
▁range	-2340
▁seems	-2341
▁signs	-2342
▁solve	-2343
▁songs	-2344
▁sorts	-2345
▁spell	-2346
▁treat	-2347
▁trust	-2348
▁veget	-2349
ematics	-2350
▁anyway	-2351
▁attack	-2352
▁blocks	-2353
▁cambod	-2354
▁cities	-2355
▁damage	-2356
▁europe	-2357
▁facial	-2358
▁higher	-2359
▁houses	-2360
▁immedi	-2361
▁indian	-2362
▁lifest	-2363
▁manage	-2364
▁minute	-2365
▁sculpt	-2366
▁states	-2367
▁target	-2368
▁united	-2369
▁becomes	-2370
▁century	-2371
▁chronic	-2372
▁company	-2373
▁complic	-2374
▁creates	-2375
▁dancing	-2376
▁doctors	-2377
▁exactly	-2378
▁gentlem	-2379
▁interse	-2380
▁laborat	-2381
▁meaning	-2382
▁mission	-2383
▁objects	-2384
▁organic	-2385
▁perfect	-2386
▁respons	-2387
▁saharan	-2388
▁showing	-2389
▁sitting	-2390
▁suicide	-2391
▁univers	-2392
▁walking	-2393
▁website	-2394
▁without	-2395
ationship	-2396
▁bacteria	-2397
▁critical	-2398
▁daughter	-2399
▁familiar	-2400
▁hospital	-2401
▁machines	-2402
▁material	-2403
▁molecule	-2404
▁opposite	-2405
▁original	-2406
▁physical	-2407
▁released	-2408
▁trillion	-2409
▁conscious	-2410
▁direction	-2411
▁education	-2412
▁effective	-2413
▁following	-2414
▁invention	-2415
▁literally	-2416
▁portraits	-2417
▁potential	-2418
▁reference	-2419
▁resources	-2420
▁volunteer	-2421
▁absolutely	-2422
▁difference	-2423
▁newspapers	-2424
▁production	-2425
▁psychopath	-2426
▁scientists	-2427
▁statistics	-2428
▁dimensional	-2429
▁electricity	-2430
▁mathematics	-2431
▁mockingbird	-2432
▁relationship	-2433
▁understanding	-2434
dd	-2435
de	-2436
ee	-2437
ii	-2438
ma	-2439
ns	-2440
po	-2441
wh	-2442
xy	-2443
▁x	-2444
ads	-2445
aff	-2446
cra	-2447
end	-2448
ery	-2449
ext	-2450
ges	-2451
ggs	-2452
ike	-2453
ime	-2454
iny	-2455
ios	-2456
mer	-2457
tle	-2458
uss	-2459
zhe	-2460
zil	-2461
▁ec	-2462
▁ri	-2463
▁sn	-2464
▁tv	-2465
amed	-2466
arly	-2467
bert	-2468
cked	-2469
ctop	-2470
form	-2471
head	-2472
iced	-2473
icks	-2474
idge	-2475
imer	-2476
iven	-2477
lies	-2478
miss	-2479
oura	-2480
▁arg	-2481
▁ate	-2482
▁bod	-2483
▁cat	-2484
▁fol	-2485
▁gal	-2486
▁joy	-2487
▁lap	-2488
▁law	-2489
▁led	-2490
▁log	-2491
▁lou	-2492
▁mov	-2493
▁neg	-2494
▁ran	-2495
▁rev	-2496
▁san	-2497
▁tip	-2498
▁tor	-2499
▁wes	-2500
▁wii	-2501
allen	-2502
alone	-2503
aries	-2504
aring	-2505
ental	-2506
ested	-2507
grees	-2508
gress	-2509
icult	-2510
iforn	-2511
illed	-2512
inite	-2513
ipped	-2514
oming	-2515
orrow	-2516
owing	-2517
phone	-2518
veral	-2519
▁ball	-2520
▁bear	-2521
▁beat	-2522
▁bike	-2523
▁bits	-2524
▁bomb	-2525
▁chem	-2526
▁clin	-2527
▁copy	-2528
▁date	-2529
▁demo	-2530
▁eggs	-2531
▁evil	-2532
▁fair	-2533
▁fear	-2534
▁gene	-2535
▁hell	-2536
▁incl	-2537
▁jugg	-2538
▁mine	-2539
▁nice	-2540
▁note	-2541
▁pair	-2542
▁phil	-2543
▁poll	-2544
▁rate	-2545
▁rock	-2546
▁send	-2547
▁sequ	-2548
▁shap	-2549
▁shop	-2550
▁spir	-2551
▁star	-2552
▁teen	-2553
▁trek	-2554
▁trib	-2555
▁user	-2556
▁uses	-2557
▁wood	-2558
anford	-2559
ctopus	-2560
ipment	-2561
itions	-2562
others	-2563
teenth	-2564
▁accom	-2565
▁adult	-2566
▁airpl	-2567
▁alzhe	-2568
▁bears	-2569
▁bombs	-2570
▁brief	-2571
▁cause	-2572
▁corre	-2573
▁crank	-2574
▁crazy	-2575
▁cross	-2576
▁effic	-2577
▁embra	-2578
▁emerg	-2579
▁final	-2580
▁forms	-2581
▁frank	-2582
▁fresh	-2583
▁instr	-2584
▁kites	-2585
▁knows	-2586
▁least	-2587
▁lucky	-2588
▁mason	-2589
▁neuro	-2590
▁occur	-2591
▁parts	-2592
▁pitch	-2593
▁plane	-2594
▁proud	-2595
▁raise	-2596
▁ready	-2597
▁relig	-2598
▁round	-2599
▁shown	-2600
▁steel	-2601
▁stick	-2602
▁table	-2603
▁tools	-2604
▁touch	-2605
▁train	-2606
▁value	-2607
▁virus	-2608
hmallow	-2609
ifornia	-2610
imately	-2611
▁adjust	-2612
▁applic	-2613
▁babies	-2614
▁brazil	-2615
▁cancer	-2616
▁cannot	-2617
▁causes	-2618
▁center	-2619
▁closer	-2620
▁crisis	-2621
▁dreams	-2622
▁format	-2623
▁geomet	-2624
▁histor	-2625
▁humans	-2626
▁inject	-2627
▁larger	-2628
▁launch	-2629
▁leader	-2630
▁likely	-2631
▁melody	-2632
▁owners	-2633
▁passes	-2634
▁played	-2635
▁poetry	-2636
▁police	-2637
▁pounds	-2638
▁recept	-2639
▁screen	-2640
▁sensor	-2641
▁shared	-2642
▁sister	-2643
▁sphere	-2644
▁strand	-2645
▁struct	-2646
▁summer	-2647
▁taught	-2648
▁though	-2649
▁travel	-2650
▁turned	-2651
▁upload	-2652
▁abalone	-2653
▁artists	-2654
▁average	-2655
▁challen	-2656
▁contain	-2657
▁context	-2658
▁degrees	-2659
▁encoura	-2660
▁figured	-2661
▁finally	-2662
▁further	-2663
▁healthy	-2664
▁himself	-2665
▁improve	-2666
▁justice	-2667
▁leaders	-2668
▁network	-2669
▁noticed	-2670
▁octopus	-2671
▁patient	-2672
▁playing	-2673
▁produce	-2674
▁putting	-2675
▁quality	-2676
▁reflect	-2677
▁regular	-2678
▁results	-2679
▁several	-2680
▁streets	-2681
▁tonight	-2682
▁torture	-2683
▁traffic	-2684
▁turning	-2685
▁version	-2686
▁western	-2687
▁younger	-2688
▁american	-2689
▁bringing	-2690
▁calculus	-2691
▁cambodia	-2692
▁confined	-2693
▁consider	-2694
▁creature	-2695
▁darkness	-2696
▁detailed	-2697
▁disaster	-2698
▁experien	-2699
▁families	-2700
▁finished	-2701
▁function	-2702
▁multiple	-2703
▁neighbor	-2704
▁pictures	-2705
▁position	-2706
▁somebody	-2707
▁stanford	-2708
▁unfortun	-2709
▁wingsuit	-2710
▁alzheimer	-2711
▁concerned	-2712
▁difficult	-2713
▁equipment	-2714
▁introduce	-2715
▁lifestyle	-2716
▁political	-2717
▁published	-2718
▁represent	-2719
▁skydiving	-2720
▁worldwide	-2721
▁california	-2722
▁discovered	-2723
▁scientific	-2724
▁vietnamese	-2725
▁complicated	-2726
▁expressions	-2727
▁immediately	-2728
▁marshmallow	-2729
▁possibility	-2730
▁architecture	-2731
▁availability	-2732
▁contemporary	-2733
▁unfortunately	-2734
ae	-2735
ax	-2736
ef	-2737
fu	-2738
hn	-2739
ne	-2740
ri	-2741
ta	-2742
ze	-2743
acy	-2744
ami	-2745
ana	-2746
ari	-2747
asc	-2748
dro	-2749
edd	-2750
esh	-2751
eth	-2752
flu	-2753
ibr	-2754
ini	-2755
ipe	-2756
irt	-2757
let	-2758
lly	-2759
log	-2760
met	-2761
oes	-2762
oor	-2763
que	-2764
ral	-2765
rop	-2766
thm	-2767
top	-2768
unk	-2769
vid	-2770
▁ax	-2771
▁er	-2772
▁gh	-2773
▁ig	-2774
▁ng	-2775
▁ug	-2776
abol	-2777
aced	-2778
acle	-2779
ateg	-2780
band	-2781
cast	-2782
ches	-2783
edom	-2784
ency	-2785
ibly	-2786
idem	-2787
iled	-2788
ires	-2789
irts	-2790
ison	-2791
itor	-2792
ivid	-2793
like	-2794
mill	-2795
oked	-2796
ored	-2797
ores	-2798
osal	-2799
reme	-2800
rest	-2801
uled	-2802
uous	-2803
vert	-2804
ysis	-2805
▁ang	-2806
▁ban	-2807
▁bob	-2808
▁cla	-2809
▁cyc	-2810
▁dad	-2811
▁fan	-2812
▁fat	-2813
▁gar	-2814
▁hom	-2815
▁hyp	-2816
▁ill	-2817
▁jud	-2818
▁mal	-2819
▁mir	-2820
▁mit	-2821
▁obs	-2822
▁ord	-2823
▁pra	-2824
▁ret	-2825
▁rhy	-2826
▁sal	-2827
▁scr	-2828
▁sil	-2829
▁sou	-2830
▁tad	-2831
▁van	-2832
▁veh	-2833
aling	-2834
antly	-2835
crete	-2836
eases	-2837
ement	-2838
icked	-2839
iling	-2840
inese	-2841
istry	-2842
itary	-2843
itter	-2844
itude	-2845
lines	-2846
lying	-2847
ology	-2848
oting	-2849
ounce	-2850
ource	-2851
plant	-2852
plish	-2853
rared	-2854
rible	-2855
riger	-2856
sters	-2857
ycled	-2858
▁area	-2859
▁bang	-2860
▁bank	-2861
▁blog	-2862
▁cand	-2863
▁cats	-2864
▁cred	-2865
▁depe	-2866
▁diet	-2867
▁door	-2868
▁dots	-2869
▁fold	-2870
▁foll	-2871
▁gold	-2872
▁grav	-2873
▁hang	-2874
▁hate	-2875
▁jets	-2876
▁john	-2877
▁knew	-2878
▁libr	-2879
▁lost	-2880
▁mini	-2881
▁narr	-2882
▁pred	-2883
▁priv	-2884
▁purs	-2885
▁rise	-2886
▁russ	-2887
▁seem	-2888
▁sees	-2889
▁serv	-2890
▁shed	-2891
▁skin	-2892
▁sold	-2893
▁tele	-2894
▁term	-2895
▁tide	-2896
▁tiny	-2897
▁tofu	-2898
▁tree	-2899
▁upon	-2900
▁warm	-2901
aining	-2902
ctions	-2903
iction	-2904
ightly	-2905
ormous	-2906
ounced	-2907
terday	-2908
ubator	-2909
▁avoid	-2910
▁barry	-2911
▁basic	-2912
▁broke	-2913
▁camps	-2914
▁canad	-2915
▁cases	-2916
▁chann	-2917
▁check	-2918
▁chris	-2919
▁colum	-2920
▁compl	-2921
▁david	-2922
▁delhi	-2923
▁earli	-2924
▁early	-2925
▁event	-2926
▁exped	-2927
▁fixed	-2928
▁haven	-2929
▁hydro	-2930
▁leads	-2931
▁lived	-2932
▁loses	-2933
▁loved	-2934
▁males	-2935
▁meant	-2936
▁miles	-2937
▁mount	-2938
▁moves	-2939
▁movie	-2940
▁ocean	-2941
▁persp	-2942
▁photo	-2943
▁plain	-2944
▁prize	-2945
▁quiet	-2946
▁reson	-2947
▁reuse	-2948
▁ridic	-2949
▁rooms	-2950
▁rules	-2951
▁scans	-2952
▁slide	-2953
▁style	-2954
▁super	-2955
▁tempt	-2956
▁worst	-2957
fluidic	-2958
initely	-2959
ivalent	-2960
mission	-2961
olution	-2962
oration	-2963
plicity	-2964
ruction	-2965
ulation	-2966
▁active	-2967
▁actual	-2968
▁afford	-2969
▁analog	-2970
▁appear	-2971
▁attach	-2972
▁bodies	-2973
▁bottom	-2974
▁broken	-2975
▁chance	-2976
▁deeply	-2977
▁driven	-2978
▁empath	-2979
▁epidem	-2980
▁expect	-2981
▁fellow	-2982
▁female	-2983
▁fields	-2984
▁fourth	-2985
▁growth	-2986
▁immune	-2987
▁jumped	-2988
▁lesson	-2989
▁marine	-2990
▁medium	-2991
▁moving	-2992
▁normal	-2993
▁oceans	-2994
▁pocket	-2995
▁policy	-2996
▁praise	-2997
▁princi	-2998
▁remote	-2999
▁rising	-3000
▁robert	-3001
▁safety	-3002
▁select	-3003
▁sooner	-3004
▁sounds	-3005
▁source	-3006
▁spirit	-3007
▁string	-3008
▁switch	-3009
▁temper	-3010
▁topics	-3011
▁unlike	-3012
▁useful	-3013
▁wouldn	-3014
ological	-3015
▁affects	-3016
▁against	-3017
▁arrived	-3018
▁balance	-3019
▁cassini	-3020
▁chinese	-3021
▁circuit	-3022
▁clearly	-3023
▁college	-3024
▁confron	-3025
▁contact	-3026
▁counter	-3027
▁decades	-3028
▁diagram	-3029
▁drawing	-3030
▁driving	-3031
▁embrace	-3032
▁england	-3033
▁evolved	-3034
▁extreme	-3035
▁freedom	-3036
▁hearing	-3037
▁however	-3038
▁imagery	-3039
▁individ	-3040
▁mapping	-3041
▁masonry	-3042
▁members	-3043
▁numbers	-3044
▁parabol	-3045
▁percept	-3046
▁posture	-3047
▁primary	-3048
▁reading	-3049
▁reasons	-3050
▁release	-3051
▁stopped	-3052
▁suggest	-3053
▁surface	-3054
▁systems	-3055
▁totally	-3056
▁towards	-3057
▁vehicle	-3058
▁waiting	-3059
▁willing	-3060
▁airplane	-3061
▁analysis	-3062
▁anywhere	-3063
▁believed	-3064
▁benefits	-3065
▁billions	-3066
▁blocking	-3067
▁climbing	-3068
▁creative	-3069
▁decision	-3070
▁discover	-3071
▁diseases	-3072
▁exciting	-3073
▁follower	-3074
▁generate	-3075
▁geometry	-3076
▁greatest	-3077
▁infected	-3078
▁infrared	-3079
▁invented	-3080
▁japanese	-3081
▁location	-3082
▁military	-3083
▁neurolog	-3084
▁painting	-3085
▁patterns	-3086
▁plastics	-3087
▁portrait	-3088
▁pressure	-3089
▁refriger	-3090
▁sequence	-3091
▁slightly	-3092
▁spending	-3093
▁syringes	-3094
▁thoughts	-3095
▁windmill	-3096
▁broadcast	-3097
▁condition	-3098
▁discovery	-3099
▁expensive	-3100
▁gentleman	-3101
▁happiness	-3102
▁incubator	-3103
▁infection	-3104
▁influence	-3105
▁interview	-3106
▁listening	-3107
▁newspaper	-3108
▁officials	-3109
▁president	-3110
▁recognize	-3111
▁seriously	-3112
▁seventeen	-3113
▁situation	-3114
▁transform	-3115
▁accomplish	-3116
▁businesses	-3117
▁controlled	-3118
▁equivalent	-3119
▁eventually	-3120
▁expedition	-3121
▁experiment	-3122
▁incredibly	-3123
▁instrument	-3124
▁interested	-3125
▁journalist	-3126
▁laboratory	-3127
▁passionate	-3128
▁simplicity	-3129
▁transplant	-3130
▁volunteers	-3131
▁weightless	-3132
▁afghanistan	-3133
▁alternative	-3134
▁communicate	-3135
▁engineering	-3136
▁intelligent	-3137
▁perspective	-3138
▁populations	-3139
▁responsible	-3140
▁temperature	-3141
▁intersection	-3142
▁microfluidic	-3143
▁neighborhood	-3144
▁psychopathic	-3145
▁environmental	-3146
ai	-3147
cl	-3148
go	-3149
mi	-3150
ok	-3151
▁'	-3152
ald	-3153
aws	-3154
ays	-3155
cip	-3156
dom	-3157
egg	-3158
ele	-3159
erm	-3160
eys	-3161
ias	-3162
iff	-3163
iod	-3164
ler	-3165
lex	-3166
mir	-3167
nth	-3168
oms	-3169
ows	-3170
pal	-3171
pea	-3172
pol	-3173
pri	-3174
ray	-3175
tch	-3176
uge	-3177
urf	-3178
▁au	-3179
▁gy	-3180
▁py	-3181
▁vo	-3182
▁zo	-3183
abet	-3184
ager	-3185
ague	-3186
aign	-3187
ails	-3188
akes	-3189
anda	-3190
atts	-3191
back	-3192
beat	-3193
bits	-3194
ceed	-3195
cend	-3196
cers	-3197
cise	-3198
come	-3199
crib	-3200
ctic	-3201
empt	-3202
erve	-3203
esth	-3204
eter	-3205
fact	-3206
ffee	-3207
iest	-3208
ilar	-3209
iles	-3210
imin	-3211
imum	-3212
ingu	-3213
ises	-3214
izes	-3215
lear	-3216
mbol	-3217
mend	-3218
odes	-3219
olum	-3220
omat	-3221
omed	-3222
orts	-3223
osed	-3224
pare	-3225
ping	-3226
ploy	-3227
raph	-3228
rely	-3229
ried	-3230
sure	-3231
tend	-3232
ties	-3233
uals	-3234
uits	-3235
zens	-3236
▁adv	-3237
▁asp	-3238
▁bes	-3239
▁bic	-3240
▁cas	-3241
▁cru	-3242
▁cry	-3243
▁ess	-3244
▁hey	-3245
▁hop	-3246
▁hus	-3247
▁ine	-3248
▁irr	-3249
▁mad	-3250
▁mer	-3251
▁mos	-3252
▁nuc	-3253
▁oxy	-3254
▁pig	-3255
▁shy	-3256
▁sor	-3257
▁tit	-3258
▁tow	-3259
▁unl	-3260
▁wea	-3261
▁zim	-3262
acity	-3263
acles	-3264
aging	-3265
aking	-3266
asant	-3267
ascin	-3268
asing	-3269
avior	-3270
babwe	-3271
craft	-3272
elebr	-3273
ening	-3274
epend	-3275
etime	-3276
ients	-3277
igate	-3278
itted	-3279
monia	-3280
ograp	-3281
onent	-3282
oring	-3283
ounts	-3284
owned	-3285
peace	-3286
round	-3287
urban	-3288
ustry	-3289
verty	-3290
▁adam	-3291
▁alar	-3292
▁alth	-3293
▁anth	-3294
▁ants	-3295
▁arms	-3296
▁asia	-3297
▁auda	-3298
▁auth	-3299
▁axis	-3300
▁bind	-3301
▁bord	-3302
▁boss	-3303
▁chip	-3304
▁coal	-3305
▁deli	-3306
▁desk	-3307
▁dest	-3308
▁disc	-3309
▁drag	-3310
▁drum	-3311
▁enem	-3312
▁fast	-3313
▁file	-3314
▁flat	-3315
▁gift	-3316
▁glor	-3317
▁gore	-3318
▁hans	-3319
▁hole	-3320
▁hurt	-3321
▁icon	-3322
▁iron	-3323
▁kept	-3324
▁leds	-3325
▁lone	-3326
▁mirr	-3327
▁murd	-3328
▁musc	-3329
▁nerv	-3330
▁pack	-3331
▁path	-3332
▁plug	-3333
▁prol	-3334
▁quar	-3335
▁rand	-3336
▁rece	-3337
▁role	-3338
▁sacr	-3339
▁sand	-3340
▁seed	-3341
▁slab	-3342
▁soul	-3343
▁span	-3344
▁ster	-3345
▁sust	-3346
▁tape	-3347
▁tens	-3348
▁tick	-3349
▁vibr	-3350
▁vill	-3351
▁vote	-3352
▁west	-3353
▁wire	-3354
▁wise	-3355
▁wond	-3356
agious	-3357
alized	-3358
ancial	-3359
ession	-3360
iented	-3361
ipping	-3362
ortion	-3363
osynth	-3364
priate	-3365
racted	-3366
teries	-3367
▁abegg	-3368
▁achie	-3369
▁admit	-3370
▁analy	-3371
▁apply	-3372
▁austr	-3373
▁blind	-3374
▁bound	-3375
▁breat	-3376
▁brill	-3377
▁comic	-3378
▁daily	-3379
▁drive	-3380
▁drugs	-3381
▁dynam	-3382
▁ecosy	-3383
▁ended	-3384
▁estim	-3385
▁faced	-3386
▁fifth	-3387
▁folks	-3388
▁freef	-3389
▁frogs	-3390
▁fully	-3391
▁genet	-3392
▁girls	-3393
▁globe	-3394
▁honor	-3395
▁horiz	-3396
▁likes	-3397
▁loads	-3398
▁lower	-3399
▁mania	-3400
▁match	-3401
▁medic	-3402
▁metal	-3403
▁minor	-3404
▁moral	-3405
▁mouth	-3406
▁nepal	-3407
▁north	-3408
▁orion	-3409
▁paint	-3410
▁plans	-3411
▁poems	-3412
▁price	-3413
▁prote	-3414
▁serve	-3415
▁shall	-3416
▁shbab	-3417
▁shock	-3418
▁smart	-3419
▁steps	-3420
▁stock	-3421
▁storm	-3422
▁surpr	-3423
▁tells	-3424
▁theme	-3425
▁topic	-3426
▁twice	-3427
▁users	-3428
▁walks	-3429
▁walls	-3430
▁weeke	-3431
amental	-3432
eration	-3433
igation	-3434
ilities	-3435
iminate	-3436
itation	-3437
ologist	-3438
ructive	-3439
ustrial	-3440
▁accept	-3441
▁adults	-3442
▁advert	-3443
▁amount	-3444
▁august	-3445
▁beauty	-3446
▁borrow	-3447
▁brains	-3448
▁breaks	-3449
▁celebr	-3450
▁choice	-3451
▁coffee	-3452
▁collab	-3453
▁cracks	-3454
▁decade	-3455
▁decide	-3456
▁dozens	-3457
▁easier	-3458
▁enable	-3459
▁ensure	-3460
▁facing	-3461
▁factor	-3462
▁failed	-3463
▁fascin	-3464
▁faster	-3465
▁figure	-3466
▁gather	-3467
▁gotten	-3468
▁highly	-3469
▁honest	-3470
▁improv	-3471
▁includ	-3472
▁infect	-3473
▁inspir	-3474
▁instit	-3475
▁invest	-3476
▁invite	-3477
▁joined	-3478
▁ladies	-3479
▁leaves	-3480
▁legacy	-3481
▁namely	-3482
▁nation	-3483
▁nobody	-3484
▁outlet	-3485
▁oxygen	-3486
▁period	-3487
▁picked	-3488
▁pushed	-3489
▁raised	-3490
▁rating	-3491
▁reduce	-3492
▁refuge	-3493
▁regist	-3494
▁return	-3495
▁rhythm	-3496
▁rivers	-3497
▁rocket	-3498
▁saturn	-3499
▁saving	-3500
▁scream	-3501
▁series	-3502
▁shaped	-3503
▁starts	-3504
▁symbol	-3505
▁thanks	-3506
▁valley	-3507
▁violin	-3508
▁walked	-3509
▁wheels	-3510
▁winter	-3511
ordinary	-3512
▁address	-3513
▁ammonia	-3514
▁anybody	-3515
▁bicycle	-3516
▁bottles	-3517
▁burning	-3518
▁central	-3519
▁choices	-3520
▁climate	-3521
▁columns	-3522
▁connect	-3523
▁correct	-3524
▁details	-3525
▁distrib	-3526
▁dropped	-3527
▁earlier	-3528
▁elected	-3529
▁excited	-3530
▁explore	-3531
▁feature	-3532
▁frankly	-3533
▁general	-3534
▁greater	-3535
▁hardest	-3536
▁harvest	-3537
▁herself	-3538
▁highest	-3539
▁holding	-3540
▁husband	-3541
▁islamic	-3542
▁keeping	-3543
▁killing	-3544
▁library	-3545
▁moments	-3546
▁morning	-3547
▁nervous	-3548
▁nuclear	-3549
▁partner	-3550
▁poverty	-3551
▁powered	-3552
▁private	-3553
▁provide	-3554
▁seventh	-3555
▁similar	-3556
▁sixteen	-3557
▁smaller	-3558
▁spreads	-3559
▁stretch	-3560
▁studied	-3561
▁summary	-3562
▁survive	-3563
▁sustain	-3564
▁teacher	-3565
▁trained	-3566
▁twitter	-3567
▁typical	-3568
▁warming	-3569
▁workers	-3570
ification	-3571
▁although	-3572
▁announce	-3573
▁appeared	-3574
▁becoming	-3575
▁behavior	-3576
▁brothers	-3577
▁campaign	-3578
▁channels	-3579
▁combined	-3580
▁concrete	-3581
▁convince	-3582
▁cultural	-3583
▁distance	-3584
▁economic	-3585
▁eighteen	-3586
▁emotions	-3587
▁enormous	-3588
▁entering	-3589
▁entirely	-3590
▁epidemic	-3591
▁examples	-3592
▁fighting	-3593
▁horrible	-3594
▁humanity	-3595
▁hydrogen	-3596
▁increase	-3597
▁independ	-3598
▁industry	-3599
▁injuries	-3600
▁internal	-3601
▁involved	-3602
▁landscap	-3603
▁lifetime	-3604
▁musician	-3605
▁negative	-3606
▁normally	-3607
▁notebook	-3608
▁oriented	-3609
▁particip	-3610
▁pointing	-3611
▁practice	-3612
▁previous	-3613
▁products	-3614
▁proposal	-3615
▁provoked	-3616
▁solution	-3617
▁speaking	-3618
▁specific	-3619
▁standing	-3620
▁surround	-3621
▁teaching	-3622
▁thirteen	-3623
▁ultimate	-3624
▁watching	-3625
▁whenever	-3626
▁zimbabwe	-3627
ertainment	-3628
▁apartment	-3629
▁audacious	-3630
▁awareness	-3631
▁brilliant	-3632
▁childhood	-3633
▁currently	-3634
▁designers	-3635
▁ecosystem	-3636
▁efficient	-3637
▁eliminate	-3638
▁emotional	-3639
▁financial	-3640
▁followers	-3641
▁footprint	-3642
▁headlines	-3643
▁hopefully	-3644
▁landscape	-3645
▁molecules	-3646
▁mountains	-3647
▁ourselves	-3648
▁paragraph	-3649
▁pollution	-3650
▁producing	-3651
▁professor	-3652
▁ridiculed	-3653
▁solutions	-3654
▁yesterday	-3655
▁activation	-3656
▁afterwards	-3657
▁background	-3658
▁contagious	-3659
▁continuous	-3660
▁definitely	-3661
▁expression	-3662
▁greenpeace	-3663
▁industrial	-3664
▁integrated	-3665
▁interviews	-3666
▁neurologic	-3667
▁photosynth	-3668
▁principles	-3669
▁productive	-3670
▁revolution	-3671
▁sculptures	-3672
▁successful	-3673
▁ultimately	-3674
▁university	-3675
▁vegetables	-3676
▁whiteboard	-3677
▁consciously	-3678
▁controllers	-3679
▁controlling	-3680
▁destructive	-3681
▁documentary	-3682
▁effectively	-3683
▁fundamental	-3684
▁innovations	-3685
▁interactive	-3686
▁observation	-3687
▁probability	-3688
▁applications	-3689
▁installation	-3690
▁particularly	-3691
▁technologies	-3692
▁transmission	-3693
▁architectural	-3694
▁computational	-3695
▁entertainment	-3696
▁extraordinary	-3697
▁relationships	-3698
af	-3699
bb	-3700
bi	-3701
bm	-3702
cd	-3703
dy	-3704
fl	-3705
ls	-3706
pa	-3707
rs	-3708
sp	-3709
wr	-3710
zz	-3711
▁q	-3712
ael	-3713
alk	-3714
ata	-3715
bie	-3716
chw	-3717
den	-3718
des	-3719
ema	-3720
ett	-3721
exp	-3722
gin	-3723
gth	-3724
hal	-3725
hed	-3726
hod	-3727
ino	-3728
itz	-3729
lew	-3730
lin	-3731
lta	-3732
lyn	-3733
mar	-3734
med	-3735
min	-3736
nda	-3737
nic	-3738
orc	-3739
oty	-3740
oub	-3741
par	-3742
rah	-3743
rap	-3744
raq	-3745
rix	-3746
sec	-3747
uls	-3748
ups	-3749
urp	-3750
uts	-3751
vin	-3752
xas	-3753
xic	-3754
▁hi	-3755
▁pa	-3756
▁ru	-3757
▁ur	-3758
▁ut	-3759
acas	-3760
acon	-3761
ader	-3762
adus	-3763
aked	-3764
amin	-3765
apse	-3766
atur	-3767
ball	-3768
bitr	-3769
cipl	-3770
cope	-3771
crip	-3772
cuss	-3773
dden	-3774
earl	-3775
edon	-3776
egal	-3777
ened	-3778
eral	-3779
erge	-3780
esia	-3781
esis	-3782
ette	-3783
gery	-3784
hand	-3785
hany	-3786
hern	-3787
hman	-3788
hold	-3789
iano	-3790
iers	-3791
ighs	-3792
ills	-3793
isco	-3794
isms	-3795
itic	-3796
itiz	-3797
itra	-3798
lass	-3799
mals	-3800
mark	-3801
mber	-3802
mite	-3803
more	-3804
oded	-3805
ogen	-3806
oint	-3807
omin	-3808
osen	-3809
oton	-3810
ownt	-3811
pair	-3812
quid	-3813
raid	-3814
rame	-3815
seen	-3816
soci	-3817
soft	-3818
stic	-3819
tell	-3820
tion	-3821
uary	-3822
ubes	-3823
udes	-3824
unal	-3825
unes	-3826
wall	-3827
wear	-3828
what	-3829
yard	-3830
▁ain	-3831
▁alt	-3832
▁atm	-3833
▁ben	-3834
▁bow	-3835
▁bug	-3836
▁bur	-3837
▁cad	-3838
▁din	-3839
▁div	-3840
▁dog	-3841
▁dry	-3842
▁due	-3843
▁eth	-3844
▁flu	-3845
▁fra	-3846
▁ger	-3847
▁hob	-3848
▁hol	-3849
▁hun	-3850
▁ibm	-3851
▁jan	-3852
▁jes	-3853
▁kal	-3854
▁ken	-3855
▁kil	-3856
▁lic	-3857
▁lie	-3858
▁lim	-3859
▁nan	-3860
▁nar	-3861
▁nav	-3862
▁ner	-3863
▁nic	-3864
▁obl	-3865
▁odd	-3866
▁pad	-3867
▁phr	-3868
▁pus	-3869
▁reb	-3870
▁ren	-3871
▁rub	-3872
▁sea	-3873
▁spo	-3874
▁suc	-3875
▁sus	-3876
▁swe	-3877
▁sym	-3878
▁tea	-3879
▁tom	-3880
▁tro	-3881
▁veg	-3882
▁ves	-3883
▁voc	-3884
▁wel	-3885
▁wis	-3886
agers	-3887
ances	-3888
angle	-3889
antic	-3890
arian	-3891
arily	-3892
arity	-3893
arium	-3894
assed	-3895
asure	-3896
atell	-3897
cence	-3898
cient	-3899
eding	-3900
ersed	-3901
esign	-3902
essed	-3903
groom	-3904
icals	-3905
idden	-3906
iding	-3907
inson	-3908
istic	-3909
licop	-3910
light	-3911
neath	-3912
nored	-3913
ometr	-3914
ouble	-3915
owers	-3916
phere	-3917
point	-3918
poles	-3919
ption	-3920
rayed	-3921
rench	-3922
thern	-3923
ulate	-3924
umbai	-3925
urses	-3926
venue	-3927
wined	-3928
ysurf	-3929
▁alph	-3930
▁ange	-3931
▁appl	-3932
▁arpa	-3933
▁arts	-3934
▁bath	-3935
▁boom	-3936
▁born	-3937
▁busy	-3938
▁cage	-3939
▁caps	-3940
▁card	-3941
▁cast	-3942
▁cave	-3943
▁cere	-3944
▁chap	-3945
▁chat	-3946
▁clip	-3947
▁club	-3948
▁cold	-3949
▁crew	-3950
▁cups	-3951
▁dens	-3952
▁depr	-3953
▁ears	-3954
▁edge	-3955
▁ends	-3956
▁epip	-3957
▁fant	-3958
▁farm	-3959
▁fash	-3960
▁fill	-3961
▁fine	-3962
▁flex	-3963
▁gall	-3964
▁gard	-3965
▁grat	-3966
▁guts	-3967
▁hair	-3968
▁holy	-3969
▁iraq	-3970
▁jail	-3971
▁jobs	-3972
▁kick	-3973
▁kiss	-3974
▁kite	-3975
▁kore	-3976
▁lady	-3977
▁late	-3978
▁laug	-3979
▁lawy	-3980
▁lens	-3981
▁magn	-3982
▁mart	-3983
▁ment	-3984
▁mich	-3985
▁mist	-3986
▁mode	-3987
▁mood	-3988
▁mort	-3989
▁near	-3990
▁ngos	-3991
▁none	-3992
▁nuts	-3993
▁orch	-3994
▁prep	-3995
▁prey	-3996
▁pron	-3997
▁pump	-3998
▁pure	-3999
▁puts	-4000
▁quit	-4001
▁race	-4002
▁repe	-4003
▁repl	-4004
▁ring	-4005
▁rope	-4006
▁rout	-4007
▁scan	-4008
▁scot	-4009
▁seat	-4010
▁shel	-4011
▁sled	-4012
▁sony	-4013
▁sout	-4014
▁spin	-4015
▁suff	-4016
▁swat	-4017
▁swed	-4018
▁text	-4019
▁trip	-4020
▁tube	-4021
▁vari	-4022
▁vent	-4023
▁vest	-4024
▁vict	-4025
▁wave	-4026
▁wear	-4027
▁wedd	-4028
▁whom	-4029
▁wild	-4030
▁wipe	-4031
▁yose	-4032
▁zone	-4033
▁zoom	-4034
abetes	-4035
allows	-4036
anding	-4037
ddenly	-4038
ertips	-4039
icking	-4040
idence	-4041
ighted	-4042
ionals	-4043
isible	-4044
isions	-4045
itable	-4046
iteria	-4047
liance	-4048
mother	-4049
ording	-4050
othing	-4051
oughly	-4052
rapped	-4053
ration	-4054
rogram	-4055
stance	-4056
urally	-4057
▁accel	-4058
▁added	-4059
▁ahead	-4060
▁andro	-4061
▁angry	-4062
▁asian	-4063
▁aspir	-4064
▁bills	-4065
▁black	-4066
▁bread	-4067
▁brown	-4068
▁bunch	-4069
▁candy	-4070
▁cards	-4071
▁catch	-4072
▁citiz	-4073
▁clips	-4074
▁cover	-4075
▁cruel	-4076
▁delta	-4077
▁domes	-4078
▁domin	-4079
▁downt	-4080
▁dying	-4081
▁encel	-4082
▁enemy	-4083
▁equal	-4084
▁faith	-4085
▁falls	-4086
▁fract	-4087
▁frame	-4088
▁games	-4089
▁gates	-4090
▁goals	-4091
▁gotta	-4092
▁habit	-4093
▁heads	-4094
▁hedon	-4095
▁honey	-4096
▁hotel	-4097
▁joyce	-4098
▁kelly	-4099
▁kevin	-4100
▁lakes	-4101
▁liked	-4102
▁limit	-4103
▁lingu	-4104
▁links	-4105
▁loves	-4106
▁magic	-4107
▁maint	-4108
▁mansp	-4109
▁mourn	-4110
▁moved	-4111
▁naked	-4112
▁named	-4113
▁offer	-4114
▁oprah	-4115
▁pearl	-4116
▁piano	-4117
▁print	-4118
▁proof	-4119
▁punch	-4120
▁pyram	-4121
▁recru	-4122
▁relax	-4123
▁roads	-4124
▁rural	-4125
▁satis	-4126
▁satur	-4127
▁screw	-4128
▁scrot	-4129
▁seeds	-4130
▁separ	-4131
▁shell	-4132
▁shift	-4133
▁sixth	-4134
▁sizes	-4135
▁slabs	-4136
▁solar	-4137
▁sorry	-4138
▁spark	-4139
▁spect	-4140
▁squat	-4141
▁squid	-4142
▁staff	-4143
▁stain	-4144
▁sters	-4145
▁stood	-4146
▁surge	-4147
▁teeth	-4148
▁texas	-4149
▁total	-4150
▁tough	-4151
▁tower	-4152
▁trade	-4153
▁trash	-4154
▁trees	-4155
▁truck	-4156
▁uncom	-4157
▁views	-4158
▁viral	-4159
▁voice	-4160
▁volum	-4161
▁wants	-4162
▁waste	-4163
▁weren	-4164
▁worry	-4165
▁worse	-4166
▁youth	-4167
▁zones	-4168
arkable	-4169
bitrary	-4170
ificial	-4171
itative	-4172
omantic	-4173
ossible	-4174
ression	-4175
ulating	-4176
▁action	-4177
▁afraid	-4178
▁anesth	-4179
▁approx	-4180
▁arrive	-4181
▁assess	-4182
▁associ	-4183
▁astron	-4184
▁author	-4185
▁banned	-4186
▁begins	-4187
▁beings	-4188
▁belief	-4189
▁biolum	-4190
▁bright	-4191
▁burned	-4192
▁button	-4193
▁caused	-4194
▁chosen	-4195
▁claims	-4196
▁clinic	-4197
▁compar	-4198
▁corpor	-4199
▁covers	-4200
▁credit	-4201
▁cycles	-4202
▁deeper	-4203
▁define	-4204
▁determ	-4205
▁dinner	-4206
▁dollar	-4207
▁eating	-4208
▁embarr	-4209
▁emerge	-4210
▁employ	-4211
▁engage	-4212
▁equals	-4213
▁essent	-4214
▁extent	-4215
▁famine	-4216
▁farmer	-4217
▁feeler	-4218
▁finger	-4219
▁forces	-4220
▁fortun	-4221
▁graves	-4222
▁groups	-4223
▁habits	-4224
▁hearts	-4225
▁helmet	-4226
▁indoor	-4227
▁insane	-4228
▁kaland	-4229
▁killer	-4230
▁laptop	-4231
▁latest	-4232
▁lights	-4233
▁liquid	-4234
▁louder	-4235
▁lowest	-4236
▁manias	-4237
▁mapped	-4238
▁masons	-4239
▁mating	-4240
▁matrix	-4241
▁method	-4242
▁mirror	-4243
▁missed	-4244
▁models	-4245
▁motion	-4246
▁mouths	-4247
▁mumbai	-4248
▁necess	-4249
▁needle	-4250
▁nurses	-4251
▁paragl	-4252
▁pencil	-4253
▁photos	-4254
▁placed	-4255
▁poland	-4256
▁preach	-4257
▁precip	-4258
▁prince	-4259
▁prolif	-4260
▁pursat	-4261
▁radios	-4262
▁random	-4263
▁rarely	-4264
▁remain	-4265
▁satell	-4266
▁search	-4267
▁shores	-4268
▁spells	-4269
▁spider	-4270
▁statue	-4271
▁stress	-4272
▁studio	-4273
▁surviv	-4274
▁talent	-4275
▁techni	-4276
▁trains	-4277
▁trials	-4278
▁unseen	-4279
▁valves	-4280
▁vessel	-4281
▁viewer	-4282
▁whales	-4283
▁winner	-4284
▁wisdom	-4285
▁wright	-4286
▁writer	-4287
irements	-4288
izations	-4289
ographer	-4290
ographic	-4291
ventions	-4292
ysurfing	-4293
▁ability	-4294
▁account	-4295
▁african	-4296
▁answers	-4297
▁anymore	-4298
▁attempt	-4299
▁augment	-4300
▁backing	-4301
▁bedroom	-4302
▁bombers	-4303
▁capable	-4304
▁caracas	-4305
▁centers	-4306
▁cheaper	-4307
▁clarity	-4308
▁compare	-4309
▁curious	-4310
▁cutting	-4311
▁dancers	-4312
▁describ	-4313
▁despair	-4314
▁devices	-4315
▁distant	-4316
▁drowned	-4317
▁effects	-4318
▁emotion	-4319
▁empathy	-4320
▁explain	-4321
▁factory	-4322
▁failure	-4323
▁fashion	-4324
▁focused	-4325
▁fortune	-4326
▁gravity	-4327
▁harness	-4328
▁helicop	-4329
▁helping	-4330
▁horizon	-4331
▁ignored	-4332
▁illegal	-4333
▁imaging	-4334
▁indians	-4335
▁invited	-4336
▁jumping	-4337
▁killers	-4338
▁lessons	-4339
▁luckily	-4340
▁managed	-4341
▁married	-4342
▁massive	-4343
▁michael	-4344
▁minimum	-4345
▁missile	-4346
▁moonies	-4347
▁muscles	-4348
▁options	-4349
▁payment	-4350
▁politic	-4351
▁prototy	-4352
▁pulling	-4353
▁pushing	-4354
▁refugee	-4355
▁remains	-4356
▁revenue	-4357
▁reverse	-4358
▁richard	-4359
▁rotates	-4360
▁roughly	-4361
▁service	-4362
▁shouldn	-4363
▁singing	-4364
▁speaker	-4365
▁strateg	-4366
▁studies	-4367
▁succeed	-4368
▁surgery	-4369
▁targets	-4370
▁tracked	-4371
▁trusted	-4372
▁village	-4373
▁violent	-4374
▁visible	-4375
▁washing	-4376
▁weavers	-4377
▁wedding	-4378
▁welcome	-4379
▁windows	-4380
▁winning	-4381
inescence	-4382
▁accepted	-4383
▁artistic	-4384
▁birthday	-4385
▁blogging	-4386
▁capacity	-4387
▁citizens	-4388
▁clinical	-4389
▁collabor	-4390
▁collapse	-4391
▁compared	-4392
▁confront	-4393
▁consumer	-4394
▁continue	-4395
▁converts	-4396
▁criteria	-4397
▁cultures	-4398
▁designed	-4399
▁diabetes	-4400
▁directed	-4401
▁director	-4402
▁dominant	-4403
▁download	-4404
▁downtown	-4405
▁epiphany	-4406
▁existing	-4407
▁expected	-4408
▁exponent	-4409
▁focusing	-4410
▁followed	-4411
▁friction	-4412
▁friendly	-4413
▁globally	-4414
▁hardware	-4415
▁homework	-4416
▁identify	-4417
▁incident	-4418
▁intended	-4419
▁juggling	-4420
▁laughing	-4421
▁miniatur	-4422
▁northern	-4423
▁official	-4424
▁operator	-4425
▁optometr	-4426
▁ordinary	-4427
▁parabola	-4428
▁particle	-4429
▁possibly	-4430
▁programs	-4431
▁properly	-4432
▁property	-4433
▁reaction	-4434
▁received	-4435
▁recycled	-4436
▁redesign	-4437
▁reducing	-4438
▁register	-4439
▁relative	-4440
▁releases	-4441
▁reported	-4442
▁robotics	-4443
▁selected	-4444
▁sleeping	-4445
▁somewhat	-4446
▁southern	-4447
▁standard	-4448
▁suddenly	-4449
▁supposed	-4450
▁survival	-4451
▁tadpoles	-4452
▁tedsters	-4453
▁trekking	-4454
▁tribunal	-4455
▁uploaded	-4456
▁yosemite	-4457
▁according	-4458
▁americans	-4459
▁animation	-4460
▁announced	-4461
▁appliance	-4462
▁arbitrary	-4463
▁attention	-4464
▁available	-4465
▁bodygroom	-4466
▁centuries	-4467
▁certainly	-4468
▁chemicals	-4469
▁chemistry	-4470
▁collected	-4471
▁collector	-4472
▁computers	-4473
▁consumers	-4474
▁continent	-4475
▁creatures	-4476
▁deprogram	-4477
▁designing	-4478
▁dimension	-4479
▁disappear	-4480
▁empowered	-4481
▁enceladus	-4482
▁encourage	-4483
▁estimates	-4484
▁extremely	-4485
▁formation	-4486
▁healthier	-4487
▁heartbeat	-4488
▁household	-4489
▁impressed	-4490
▁including	-4491
▁increased	-4492
▁injection	-4493
▁inspected	-4494
▁interface	-4495
▁invisible	-4496
▁linguists	-4497
▁microsoft	-4498
▁naturally	-4499
▁newsprint	-4500
▁organisms	-4501
▁paintings	-4502
▁pakistani	-4503
▁parkinson	-4504
▁realizing	-4505
▁religious	-4506
▁riverside	-4507
▁scientist	-4508
▁sculpture	-4509
▁secondary	-4510
▁sixteenth	-4511
▁somewhere	-4512
▁spaceship	-4513
▁stainless	-4514
▁structure	-4515
▁substance	-4516
▁surprised	-4517
▁technical	-4518
▁teenagers	-4519
▁tradition	-4520
▁transcend	-4521
▁transpare	-4522
▁treatment	-4523
▁typically	-4524
▁universal	-4525
▁witnessed	-4526
▁anesthesia	-4527
▁conditions	-4528
▁conference	-4529
▁directions	-4530
▁fingertips	-4531
▁freeflying	-4532
▁impossible	-4533
▁individual	-4534
▁innovation	-4535
▁innovative	-4536
▁inventions	-4537
▁landscapes	-4538
▁leadership	-4539
▁narratives	-4540
▁originally	-4541
▁perception	-4542
▁physically	-4543
▁previously	-4544
▁proportion	-4545
▁protection	-4546
▁receptacle	-4547
▁remarkable	-4548
▁skysurfing	-4549
▁temptation	-4550
▁transition	-4551
▁underneath	-4552
▁understood	-4553
▁communities	-4554
▁consumption	-4555
▁containment	-4556
▁disappeared	-4557
▁discovering	-4558
▁experienced	-4559
▁fascinating	-4560
▁grandmother	-4561
▁improvement	-4562
▁planetarium	-4563
▁potentially	-4564
▁preventable	-4565
▁underground	-4566
▁accomplished	-4567
▁construction	-4568
▁distribution	-4569
▁intelligence	-4570
▁measurements	-4571
▁mockingbirds	-4572
▁organization	-4573
▁requirements	-4574
▁civilizations	-4575
▁consciousness	-4576
▁professionals	-4577
▁proliferation	-4578
▁representation	-4579
▁weightlessness	-4580
▁bioluminescence	-4581
ek	-4582
ez	-4583
ij	-4584
nc	-4585
oe	-4586
afe	-4587
amb	-4588
bay	-4589
box	-4590
ckn	-4591
cue	-4592
gae	-4593
gra	-4594
hry	-4595
idi	-4596
iju	-4597
ils	-4598
imp	-4599
ca	-4600
ha	-4601
la	-4602
oh	-4603
py	-4604
sh	-4605
tc	-4606
vs	-4607
yr	-4608
ags	-4609
ams	-4610
apt	-4611
arp	-4612
dle	-4613
ees	-4614
hat	-4615
inc	-4616
ius	-4617
ker	-4618
may	-4619
ncy	-4620
nis	-4621
oon	-4622
oto	-4623
rax	-4624
rew	-4625
ruv	-4626
uns	-4627
unt	-4628
upt	-4629
wor	-4630
yal	-4631
zen	-4632
▁bf	-4633
▁ii	-4634
▁pc	-4635
▁pu	-4636
▁tu	-4637
aded	-4638
aint	-4639
anes	-4640
anta	-4641
apsh	-4642
arti	-4643
auts	-4644
avey	-4645
cdon	-4646
cery	-4647
cils	-4648
conn	-4649
dget	-4650
ects	-4651
erer	-4652
etti	-4653
fort	-4654
gedy	-4655
gths	-4656
hmed	-4657
ibet	-4658
igen	-4659
iler	-4660
illy	-4661
imal	-4662
itha	-4663
iver	-4664
life	-4665
nedy	-4666
olen	-4667
onna	-4668
onyt	-4669
oors	-4670
oots	-4671
oran	-4672
orge	-4673
ours	-4674
pers	-4675
pper	-4676
pril	-4677
quit	-4678
rain	-4679
reci	-4680
road	-4681
rose	-4682
sect	-4683
ship	-4684
uela	-4685
ulbs	-4686
urab	-4687
urse	-4688
usha	-4689
veil	-4690
viet	-4691
vill	-4692
yden	-4693
zing	-4694
▁abu	-4695
▁anc	-4696
▁apt	-4697
▁awa	-4698
▁bon	-4699
gl	-4700
wl	-4701
ama	-4702
ati	-4703
bro	-4704
bud	-4705
pan	-4706
pet	-4707
ses	-4708
▁bh	-4709
▁ip	-4710
abad	-4711
amer	-4712
buds	-4713
enes	-4714
gers	-4715
mans	-4716
onic	-4717
oric	-4718
phan	-4719
uing	-4720
yles	-4721
▁boo	-4722
▁ded	-4723
▁dot	-4724
▁etc	-4725
▁fab	-4726
▁fac	-4727
▁gro	-4728
▁hur	-4729
▁ign	-4730
▁ing	-4731
▁irs	-4732
▁isa	-4733
▁jer	-4734
▁jup	-4735
▁kar	-4736
▁lam	-4737
▁mac	-4738
▁mao	-4739
▁mim	-4740
▁mis	-4741
▁nab	-4742
▁nap	-4743
▁ngu	-4744
▁nok	-4745
▁nom	-4746
▁opi	-4747
▁pal	-4748
▁pil	-4749
▁poo	-4750
▁por	-4751
▁pou	-4752
▁toy	-4753
▁tur	-4754
▁tut	-4755
▁uae	-4756
▁und	-4757
▁usa	-4758
▁var	-4759
▁vit	-4760
▁vot	-4761
▁vul	-4762
▁wat	-4763
▁wax	-4764
about	-4765
acent	-4766
apore	-4767
appro	-4768
apsed	-4769
asive	-4770
astic	-4771
axies	-4772
berer	-4773
bersp	-4774
cisco	-4775
cknow	-4776
clock	-4777
cracy	-4778
dgets	-4779
duate	-4780
edded	-4781
ephal	-4782
erish	-4783
estra	-4784
flies	-4785
hetti	-4786
icksh	-4787
ifted	-4788
ights	-4789
ilton	-4790
impse	-4791
inion	-4792
inity	-4793
inter	-4794
itzer	-4795
ixels	-4796
miere	-4797
ndane	-4798
onest	-4799
qs	-4800
ua	-4801
alm	-4802
bel	-4803
gie	-4804
hol	-4805
pat	-4806
pid	-4807
ret	-4808
zac	-4809
zed	-4810
▁ye	-4811
aker	-4812
aria	-4813
aser	-4814
lled	-4815
onom	-4816
pond	-4817
sequ	-4818
tery	-4819
whel	-4820
▁gor	-4821
▁gov	-4822
▁mam	-4823
▁pum	-4824
▁rid	-4825
▁sha	-4826
abase	-4827
ators	-4828
cerpt	-4829
cohol	-4830
eless	-4831
fting	-4832
iview	-4833
maker	-4834
ously	-4835
pback	-4836
ports	-4837
tendo	-4838
teran	-4839
tured	-4840
ufact	-4841
umann	-4842
ungry	-4843
useum	-4844
ushed	-4845
ville	-4846
ycats	-4847
▁abre	-4848
▁ages	-4849
▁alma	-4850
▁asse	-4851
▁bart	-4852
▁belo	-4853
▁bent	-4854
▁bird	-4855
▁bite	-4856
▁blew	-4857
▁bowl	-4858
▁bush	-4859
▁carn	-4860
▁cath	-4861
▁clog	-4862
▁coca	-4863
▁code	-4864
▁cust	-4865
▁dece	-4866
▁dial	-4867
▁diam	-4868
▁dogs	-4869
▁doub	-4870
▁dude	-4871
▁ebay	-4872
▁evac	-4873
▁exer	-4874
▁fell	-4875
▁folk	-4876
▁ford	-4877
▁fran	-4878
▁fung	-4879
▁garb	-4880
▁geez	-4881
▁geys	-4882
▁gray	-4883
▁guns	-4884
▁gyre	-4885
▁hall	-4886
▁held	-4887
▁hier	-4888
▁hire	-4889
▁hits	-4890
▁hook	-4891
▁imit	-4892
▁inch	-4893
▁inev	-4894
▁init	-4895
▁ipcc	-4896
▁ital	-4897
▁jill	-4898
▁join	-4899
atio	-4900
eros	-4901
gage	-4902
ndon	-4903
port	-4904
quen	-4905
ques	-4906
rage	-4907
uild	-4908
▁cub	-4909
▁haw	-4910
▁ink	-4911
▁lag	-4912
▁tag	-4913
▁tri	-4914
▁upt	-4915
andem	-4916
dsour	-4917
erate	-4918
erred	-4919
esity	-4920
estro	-4921
inger	-4922
ivity	-4923
usion	-4924
▁bust	-4925
▁canv	-4926
▁cubs	-4927
▁feed	-4928
▁gear	-4929
▁goog	-4930
▁hadn	-4931
▁hide	-4932
▁hong	-4933
▁horm	-4934
▁june	-4935
▁jung	-4936
▁kidd	-4937
▁lank	-4938
▁lend	-4939
▁lies	-4940
▁limb	-4941
▁linz	-4942
▁load	-4943
▁loss	-4944
▁madr	-4945
▁mail	-4946
▁mead	-4947
▁meal	-4948
▁melt	-4949
▁mold	-4950
▁newt	-4951
▁nike	-4952
▁node	-4953
▁ohio	-4954
▁paid	-4955
▁pink	-4956
▁pour	-4957
▁purp	-4958
▁rach	-4959
▁radi	-4960
▁raqs	-4961
▁rays	-4962
▁reco	-4963
▁rice	-4964
▁runs	-4965
▁salv	-4966
▁semi	-4967
▁shit	-4968
▁shor	-4969
▁slot	-4970
▁snow	-4971
▁spee	-4972
▁stap	-4973
▁sten	-4974
▁suck	-4975
▁suns	-4976
▁susp	-4977
▁ther	-4978
▁thom	-4979
▁toes	-4980
▁tons	-4981
▁tuck	-4982
▁turb	-4983
▁ugly	-4984
▁unin	-4985
▁vast	-4986
▁virt	-4987
▁whoa	-4988
▁wide	-4989
▁wing	-4990
acters	-4991
affold	-4992
aganda	-4993
alling	-4994
anging	-4995
apshot	-4996
arctic	-4997
ashmir	-4998
atures	-4999
asp	-5000
dog	-5001
iac	-5002
iev	-5003
izz	-5004
acks	-5005
alia	-5006
ania	-5007
apor	-5008
cium	-5009
eine	-5010
enez	-5011
fast	-5012
mine	-5013
opod	-5014
rend	-5015
sole	-5016
▁que	-5017
▁sex	-5018
▁sri	-5019
▁unw	-5020
▁ver	-5021
▁via	-5022
alore	-5023
ashes	-5024
conds	-5025
erves	-5026
otine	-5027
stage	-5028
▁agre	-5029
▁coat	-5030
▁east	-5031
▁golf	-5032
▁hasn	-5033
▁hobb	-5034
▁loan	-5035
▁moms	-5036
▁obst	-5037
▁pond	-5038
▁pref	-5039
▁prem	-5040
▁suit	-5041
▁tact	-5042
acific	-5043
bridge	-5044
broker	-5045
chwald	-5046
cycled	-5047
ercial	-5048
estone	-5049
ffeine	-5050
ickers	-5051
iences	-5052
ijuana	-5053
imited	-5054
inters	-5055
ishing	-5056
itchen	-5057
itudes	-5058
izzard	-5059
lining	-5060
manent	-5061
market	-5062
nostic	-5063
omeday	-5064
ommend	-5065
onesia	-5066
orsesh	-5067
ospher	-5068
phones	-5069
ramble	-5070
ructed	-5071
secure	-5072
stream	-5073
tellig	-5074
twined	-5075
uality	-5076
uitive	-5077
upting	-5078
urably	-5079
urence	-5080
vision	-5081
ycling	-5082
▁aband	-5083
▁abreu	-5084
▁admir	-5085
▁agent	-5086
▁ahmed	-5087
▁algae	-5088
▁alive	-5089
▁alpha	-5090
▁antib	-5091
▁april	-5092
▁argue	-5093
▁arose	-5094
▁atoms	-5095
▁avian	-5096
▁awful	-5097
▁bacon	-5098
▁beast	-5099
▁ee	-5100
assa	-5101
eped	-5102
nces	-5103
odge	-5104
ogue	-5105
oret	-5106
veli	-5107
▁mix	-5108
anges	-5109
estor	-5110
itals	-5111
itars	-5112
rease	-5113
stals	-5114
▁cure	-5115
▁fiss	-5116
▁grid	-5117
▁hars	-5118
▁lets	-5119
▁loop	-5120
▁pigs	-5121
▁reci	-5122
▁vint	-5123
▁writ	-5124
acular	-5125
anical	-5126
apital	-5127
assing	-5128
atches	-5129
cience	-5130
enties	-5131
urance	-5132
▁belly	-5133
▁binds	-5134
▁birke	-5135
▁blogs	-5136
▁bones	-5137
▁burns	-5138
▁calam	-5139
▁capab	-5140
▁cared	-5141
▁caves	-5142
▁chair	-5143
▁chalk	-5144
▁chant	-5145
▁chart	-5146
▁chose	-5147
▁click	-5148
▁cliff	-5149
▁cloth	-5150
▁cloud	-5151
▁codes	-5152
▁coinc	-5153
▁concl	-5154
▁congo	-5155
▁copyr	-5156
▁crabs	-5157
▁craft	-5158
▁crane	-5159
▁crude	-5160
▁curls	-5161
▁davey	-5162
▁dedic	-5163
▁delay	-5164
▁doors	-5165
▁dried	-5166
▁drops	-5167
▁drumm	-5168
▁drunk	-5169
▁eaten	-5170
▁edges	-5171
▁eiger	-5172
▁enhan	-5173
▁enter	-5174
▁evacu	-5175
▁fails	-5176
▁fence	-5177
▁floor	-5178
▁flown	-5179
▁forth	-5180
▁fulla	-5181
▁fungi	-5182
▁gehry	-5183
▁giant	-5184
▁gonna	-5185
▁grace	-5186
▁grade	-5187
▁grasp	-5188
▁grass	-5189
▁guard	-5190
▁guide	-5191
▁hello	-5192
▁heros	-5193
▁hired	-5194
▁horse	-5195
▁hyper	-5196
▁impot	-5197
▁ineff	-5198
▁isaac	-5199
meg	-5200
adow	-5201
berg	-5202
pert	-5203
wise	-5204
▁fib	-5205
▁flo	-5206
▁ski	-5207
▁zip	-5208
ertil	-5209
etics	-5210
etric	-5211
mates	-5212
rated	-5213
ubber	-5214
▁grab	-5215
▁idol	-5216
▁mark	-5217
▁pike	-5218
▁rain	-5219
▁reve	-5220
▁sets	-5221
▁sket	-5222
▁spag	-5223
▁unac	-5224
iances	-5225
osable	-5226
perate	-5227
ulated	-5228
▁belie	-5229
▁brian	-5230
▁cents	-5231
▁dates	-5232
▁finds	-5233
▁graph	-5234
▁keeps	-5235
▁knife	-5236
▁knock	-5237
▁koran	-5238
▁lands	-5239
▁locks	-5240
▁louis	-5241
▁magaz	-5242
▁malaw	-5243
▁manip	-5244
▁march	-5245
▁marry	-5246
▁mcdon	-5247
▁miner	-5248
▁mines	-5249
▁multi	-5250
▁nails	-5251
▁nanot	-5252
▁nerdy	-5253
▁nokia	-5254
▁notes	-5255
▁novel	-5256
▁nurse	-5257
▁orbit	-5258
▁outer	-5259
▁owner	-5260
▁panel	-5261
▁paran	-5262
▁party	-5263
▁plays	-5264
▁poets	-5265
▁polar	-5266
▁ponyt	-5267
▁pouch	-5268
▁pound	-5269
▁prete	-5270
▁prior	-5271
▁prope	-5272
▁prost	-5273
▁prove	-5274
▁pumps	-5275
▁quant	-5276
▁quote	-5277
▁radio	-5278
▁rates	-5279
▁ratio	-5280
▁rearr	-5281
▁reass	-5282
▁redef	-5283
▁renew	-5284
▁resol	-5285
▁revel	-5286
▁risky	-5287
▁roger	-5288
▁route	-5289
▁royal	-5290
▁sadly	-5291
▁sales	-5292
▁sanct	-5293
▁santa	-5294
▁saved	-5295
▁scene	-5296
▁scope	-5297
▁score	-5298
▁seize	-5299
▁ts	-5300
ctor	-5301
▁vac	-5302
eenth	-5303
iency	-5304
ifice	-5305
inced	-5306
▁calm	-5307
▁crab	-5308
▁dome	-5309
▁edit	-5310
▁jaws	-5311
▁soil	-5312
▁sons	-5313
▁toys	-5314
idered	-5315
▁alarm	-5316
▁award	-5317
▁boats	-5318
▁bucks	-5319
▁categ	-5320
▁clash	-5321
▁craig	-5322
▁feels	-5323
▁films	-5324
▁kills	-5325
▁ninth	-5326
▁regul	-5327
▁sells	-5328
▁sharp	-5329
▁ships	-5330
▁shirt	-5331
▁shoes	-5332
▁shops	-5333
▁skies	-5334
▁solid	-5335
▁spain	-5336
▁spend	-5337
▁spoke	-5338
▁spook	-5339
▁stren	-5340
▁stuck	-5341
▁sucks	-5342
▁sugar	-5343
▁suits	-5344
▁sunny	-5345
▁sweet	-5346
▁teles	-5347
▁tenth	-5348
▁tests	-5349
▁threw	-5350
▁thumb	-5351
▁tibet	-5352
▁tiger	-5353
▁titan	-5354
▁toxic	-5355
▁track	-5356
▁traum	-5357
▁trick	-5358
▁tubes	-5359
▁types	-5360
▁unexp	-5361
▁unple	-5362
▁upper	-5363
▁urban	-5364
▁urged	-5365
▁usual	-5366
▁venez	-5367
▁vinci	-5368
▁visit	-5369
▁watts	-5370
▁whose	-5371
▁worth	-5372
▁woven	-5373
▁zeros	-5374
erglass	-5375
faction	-5376
idental	-5377
ilation	-5378
isation	-5379
ivation	-5380
manship	-5381
mendous	-5382
ography	-5383
othesis	-5384
patient	-5385
phanage	-5386
ractive	-5387
reciate	-5388
respond	-5389
writing	-5390
▁acknow	-5391
▁agenda	-5392
▁amazon	-5393
▁anthem	-5394
▁arctic	-5395
▁argent	-5396
▁arrest	-5397
▁arusha	-5398
▁assemb	-5399
▁awards	-5400
▁barbie	-5401
▁basket	-5402
▁basque	-5403
▁beside	-5404
▁bharti	-5405
▁binary	-5406
▁bought	-5407
▁brands	-5408
▁bridge	-5409
▁brings	-5410
▁bucket	-5411
▁burrow	-5412
▁buying	-5413
▁canada	-5414
▁candid	-5415
▁career	-5416
▁carved	-5417
▁casual	-5418
▁caught	-5419
▁cephal	-5420
▁cereal	-5421
▁charge	-5422
▁chitra	-5423
▁christ	-5424
▁clocks	-5425
▁closes	-5426
▁colors	-5427
▁columb	-5428
▁cradle	-5429
▁custom	-5430
▁deaths	-5431
▁democr	-5432
▁depart	-5433
▁desert	-5434
▁devast	-5435
▁dismay	-5436
▁divers	-5437
▁durban	-5438
▁editor	-5439
▁effort	-5440
▁embody	-5441
▁encode	-5442
▁entrop	-5443
▁estate	-5444
▁ethnic	-5445
▁exists	-5446
▁explos	-5447
▁fairly	-5448
▁fertil	-5449
▁filled	-5450
▁filmed	-5451
▁forced	-5452
▁forest	-5453
▁former	-5454
▁france	-5455
▁french	-5456
▁fright	-5457
▁frozen	-5458
▁funded	-5459
▁garage	-5460
▁garden	-5461
▁geolog	-5462
▁george	-5463
▁german	-5464
▁gorill	-5465
▁grades	-5466
▁hanson	-5467
▁hayden	-5468
▁height	-5469
▁helped	-5470
▁heroes	-5471
▁hidden	-5472
▁hoping	-5473
▁hunger	-5474
▁hungry	-5475
▁hypnot	-5476
▁iconic	-5477
▁infant	-5478
▁intent	-5479
▁iphone	-5480
▁island	-5481
▁itunes	-5482
▁jesuit	-5483
▁johnny	-5484
▁jonest	-5485
▁juggle	-5486
▁kicked	-5487
▁kinder	-5488
▁labore	-5489
▁latent	-5490
▁lawyer	-5491
▁lehman	-5492
▁levels	-5493
▁lifted	-5494
▁linked	-5495
▁liveli	-5496
▁london	-5497
▁lovely	-5498
▁mainly	-5499
▁manner	-5500
▁margin	-5501
▁mashed	-5502
▁masses	-5503
▁motorc	-5504
▁museum	-5505
▁nabati	-5506
▁narrow	-5507
▁native	-5508
▁networ	-5509
▁newton	-5510
▁nights	-5511
▁nutmeg	-5512
▁opened	-5513
▁orange	-5514
▁pandem	-5515
▁patent	-5516
▁phrase	-5517
▁pilots	-5518
▁pixels	-5519
▁planes	-5520
▁player	-5521
▁plenty	-5522
▁poison	-5523
▁poured	-5524
▁powers	-5525
▁preced	-5526
▁prefer	-5527
▁prozac	-5528
▁recipe	-5529
▁refuse	-5530
▁remind	-5531
▁replic	-5532
▁rescue	-5533
▁review	-5534
▁rotate	-5535
▁rubble	-5536
▁rupert	-5537
▁scenes	-5538
▁seized	-5539
▁seller	-5540
▁shapes	-5541
▁shirts	-5542
▁shoots	-5543
▁signal	-5544
▁signed	-5545
▁societ	-5546
▁solves	-5547
▁soviet	-5548
▁specif	-5549
▁speech	-5550
▁spoken	-5551
▁square	-5552
▁squirt	-5553
▁stands	-5554
▁stayed	-5555
▁steril	-5556
▁stolen	-5557
▁stones	-5558
▁stores	-5559
▁strips	-5560
▁struck	-5561
▁summit	-5562
▁surely	-5563
▁sweden	-5564
▁swings	-5565
▁tadema	-5566
▁tennis	-5567
▁theory	-5568
▁thirds	-5569
▁thrash	-5570
▁traces	-5571
▁transl	-5572
▁trends	-5573
▁uganda	-5574
▁unless	-5575
▁unlock	-5576
▁unsafe	-5577
▁unsign	-5578
▁unveil	-5579
▁upside	-5580
▁values	-5581
▁versus	-5582
▁voting	-5583
▁vulner	-5584
▁washed	-5585
▁wasted	-5586
▁waters	-5587
▁weekly	-5588
▁weighs	-5589
▁wisely	-5590
▁wooden	-5591
▁yellow	-5592
aminated	-5593
atically	-5594
bererana	-5595
berspace	-5596
ceptable	-5597
cription	-5598
gressive	-5599
itioners	-5600
orseshoe	-5601
ospheric	-5602
rendered	-5603
wardship	-5604
▁abandon	-5605
▁actions	-5606
▁alcohol	-5607
▁amounts	-5608
▁analyze	-5609
▁ancient	-5610
▁angeles	-5611
▁anthrax	-5612
▁applies	-5613
▁aptamer	-5614
▁arrival	-5615
▁attacks	-5616
▁austria	-5617
▁automat	-5618
▁battery	-5619
▁beloved	-5620
▁benefit	-5621
▁besides	-5622
▁biology	-5623
▁blessed	-5624
▁boiling	-5625
▁borders	-5626
▁budgets	-5627
▁calcium	-5628
▁calling	-5629
▁capture	-5630
▁cardiac	-5631
▁careful	-5632
▁chapter	-5633
▁cherish	-5634
▁circles	-5635
▁clients	-5636
▁clogged	-5637
▁closing	-5638
▁compass	-5639
▁compete	-5640
▁compose	-5641
▁concent	-5642
▁consequ	-5643
▁contest	-5644
▁contrib	-5645
▁council	-5646
▁crashes	-5647
▁craving	-5648
▁crucial	-5649
▁cymatic	-5650
▁dangers	-5651
▁dealing	-5652
▁deliver	-5653
▁density	-5654
▁depends	-5655
▁discipl	-5656
▁discuss	-5657
▁earbuds	-5658
▁economy	-5659
▁efforts	-5660
▁enjoyed	-5661
▁entered	-5662
▁equally	-5663
▁equator	-5664
▁excerpt	-5665
▁eyewear	-5666
▁failing	-5667
▁farther	-5668
▁females	-5669
▁fingers	-5670
▁flowers	-5671
▁flowing	-5672
▁folding	-5673
▁forcing	-5674
▁foreign	-5675
▁forever	-5676
▁forming	-5677
▁futures	-5678
▁garbage	-5679
▁genetic	-5680
▁gentler	-5681
▁glimpse	-5682
▁grander	-5683
▁grocery	-5684
▁guitars	-5685
▁habitat	-5686
▁heavily	-5687
▁hitting	-5688
▁hobbies	-5689
▁hormone	-5690
▁humming	-5691
▁immense	-5692
▁inappro	-5693
▁indoors	-5694
▁influen	-5695
▁initial	-5696
▁injured	-5697
▁insides	-5698
▁inspire	-5699
▁january	-5700
▁journal	-5701
▁judging	-5702
▁jupiter	-5703
▁kashmir	-5704
▁kennedy	-5705
▁kidding	-5706
▁kiloton	-5707
▁kissing	-5708
▁kitchen	-5709
▁leaving	-5710
▁letting	-5711
▁license	-5712
▁maestro	-5713
▁magical	-5714
▁mammals	-5715
▁manager	-5716
▁matters	-5717
▁medical	-5718
▁meeting	-5719
▁memetic	-5720
▁mention	-5721
▁microsc	-5722
▁missing	-5723
▁monitor	-5724
▁mothers	-5725
▁mundane	-5726
▁nations	-5727
▁nowhere	-5728
▁obesity	-5729
▁opiates	-5730
▁opinion	-5731
▁optical	-5732
▁origami	-5733
▁pacific	-5734
▁parking	-5735
▁philips	-5736
▁poorest	-5737
▁pouring	-5738
▁precise	-5739
▁printer	-5740
▁promise	-5741
▁protect	-5742
▁protest	-5743
▁provoke	-5744
▁purpose	-5745
▁pyramid	-5746
▁quarter	-5747
▁raising	-5748
▁ratings	-5749
▁rebuild	-5750
▁recruit	-5751
▁reduced	-5752
▁refined	-5753
▁regions	-5754
▁replace	-5755
▁reports	-5756
▁request	-5757
▁respect	-5758
▁respond	-5759
▁russert	-5760
▁scrotal	-5761
▁seattle	-5762
▁selling	-5763
▁sending	-5764
▁session	-5765
▁sevitha	-5766
▁shelter	-5767
▁shipped	-5768
▁shorter	-5769
▁shuttle	-5770
▁signing	-5771
▁sisters	-5772
▁solving	-5773
▁someday	-5774
▁sources	-5775
▁sprayed	-5776
▁staying	-5777
▁steeped	-5778
▁strands	-5779
▁studios	-5780
▁surgeon	-5781
▁tactics	-5782
▁tedster	-5783
▁tension	-5784
▁theoret	-5785
▁tragedy	-5786
▁trouble	-5787
▁tucking	-5788
▁uniview	-5789
▁valleys	-5790
▁veteran	-5791
▁victims	-5792
▁visuals	-5793
▁wearing	-5794
▁weekday	-5795
▁weekend	-5796
▁whaling	-5797
▁wonders	-5798
▁wrapped	-5799
affolding	-5800
ibilities	-5801
▁accounts	-5802
▁addition	-5803
▁affected	-5804
▁aircraft	-5805
▁allowing	-5806
▁ancestor	-5807
▁androids	-5808
▁archives	-5809
▁arteries	-5810
▁aspirate	-5811
▁attached	-5812
▁backyard	-5813
▁birdsong	-5814
▁blizzard	-5815
▁buchwald	-5816
▁caffeine	-5817
▁canadian	-5818
▁captured	-5819
▁cassette	-5820
▁climbers	-5821
▁clothing	-5822
▁colorful	-5823
▁compiled	-5824
▁composed	-5825
▁composer	-5826
▁congress	-5827
▁constant	-5828
▁contract	-5829
▁covering	-5830
▁crystals	-5831
▁database	-5832
▁daylight	-5833
▁december	-5834
▁decrease	-5835
▁depended	-5836
▁designer	-5837
▁dialogue	-5838
▁diameter	-5839
▁drawings	-5840
▁election	-5841
▁embedded	-5842
▁engineer	-5843
▁erupting	-5844
▁estimate	-5845
▁exercise	-5846
▁facebook	-5847
▁features	-5848
▁finalist	-5849
▁forehead	-5850
▁fraction	-5851
▁galaxies	-5852
▁graduate	-5853
▁grafting	-5854
▁guessing	-5855
▁hedonism	-5856
▁humpback	-5857
▁identity	-5858
▁imagined	-5859
▁imitates	-5860
▁insecure	-5861
▁interven	-5862
▁invasive	-5863
▁investig	-5864
▁kalandar	-5865
▁landings	-5866
▁laurence	-5867
▁listened	-5868
▁madrassa	-5869
▁magazine	-5870
▁maintain	-5871
▁majority	-5872
▁manufact	-5873
▁mcdonald	-5874
▁measures	-5875
▁memories	-5876
▁mentally	-5877
▁ministry	-5878
▁minority	-5879
▁momentum	-5880
▁murdered	-5881
▁navigate	-5882
▁nepalese	-5883
▁nicotine	-5884
▁nineties	-5885
▁nintendo	-5886
▁occurred	-5887
▁overwhel	-5888
▁passions	-5889
▁patients	-5890
▁pleasure	-5891
▁policies	-5892
▁ponytail	-5893
▁precipit	-5894
▁premiere	-5895
▁prepared	-5896
▁prepping	-5897
▁preserve	-5898
▁prevents	-5899
▁produced	-5900
▁profiles	-5901
▁progress	-5902
▁prostate	-5903
▁proteins	-5904
▁quarters	-5905
▁religion	-5906
▁repeated	-5907
▁requires	-5908
▁resisted	-5909
▁romantic	-5910
▁rotating	-5911
▁saturday	-5912
▁schumann	-5913
▁scramble	-5914
▁separate	-5915
▁services	-5916
▁smallest	-5917
▁snapshot	-5918
▁squatter	-5919
▁stencils	-5920
▁stopping	-5921
▁strategy	-5922
▁supplies	-5923
▁swallows	-5924
▁switches	-5925
▁theremin	-5926
▁thrilled	-5927
▁throwing	-5928
▁tomorrow	-5929
▁treating	-5930
▁twenties	-5931
▁vacation	-5932
▁weekends	-5933
▁wondered	-5934
▁writings	-5935
apitalized	-5936
telligible	-5937
▁achieving	-5938
▁agreement	-5939
▁ahmedabad	-5940
▁antarctic	-5941
▁audiences	-5942
▁australia	-5943
▁autograph	-5944
▁backwards	-5945
▁bangalore	-5946
▁batteries	-5947
▁borrowing	-5948
▁breakfast	-5949
▁breathing	-5950
▁carbonate	-5951
▁carefully	-5952
▁challenge	-5953
▁collapsed	-5954
▁colleague	-5955
▁collision	-5956
▁committed	-5957
▁companies	-5958
▁complaint	-5959
▁composers	-5960
▁computing	-5961
▁confident	-5962
▁connected	-5963
▁converted	-5964
▁convinced	-5965
▁corporate	-5966
▁crowdsour	-5967
▁decisions	-5968
▁declining	-5969
▁democracy	-5970
▁depressed	-5971
▁described	-5972
▁desperate	-5973
▁dispersed	-5974
▁displaced	-5975
▁donations	-5976
▁ecologist	-5977
▁economics	-5978
▁educating	-5979
▁emergency	-5980
▁employees	-5981
▁engineers	-5982
▁evolution	-5983
▁expanding	-5984
▁fantastic	-5985
▁favorably	-5986
▁fifteenth	-5987
▁fireflies	-5988
▁firsthand	-5989
▁fractures	-5990
▁francisco	-5991
▁functions	-5992
▁generated	-5993
▁gentlemen	-5994
▁graspable	-5995
▁groupings	-5996
▁harvested	-5997
▁horseshoe	-5998
▁hospitals	-5999
▁improvise	-6000
▁incidence	-6001
▁indonesia	-6002
▁inspiring	-6003
▁instantly	-6004
▁institute	-6005
▁intention	-6006
▁interconn	-6007
▁intuitive	-6008
▁jonestown	-6009
▁limestone	-6010
▁magnitude	-6011
▁manspaces	-6012
▁marijuana	-6013
▁miniature	-6014
▁movements	-6015
▁narrative	-6016
▁neighbors	-6017
▁obstacles	-6018
▁operating	-6019
▁orchestra	-6020
▁organized	-6021
▁orphanage	-6022
▁otherwise	-6023
▁paperwork	-6024
▁passports	-6025
▁perfectly	-6026
▁performed	-6027
▁permanent	-6028
▁plaything	-6029
▁positions	-6030
▁practical	-6031
▁predators	-6032
▁premature	-6033
▁pressures	-6034
▁prevented	-6035
▁projector	-6036
▁promoting	-6037
▁prototype	-6038
▁radiation	-6039
▁reactions	-6040
▁realistic	-6041
▁recommend	-6042
▁recycling	-6043
▁reduction	-6044
▁regularly	-6045
▁resonance	-6046
▁resonates	-6047
▁returning	-6048
▁sacrifice	-6049
▁satellite	-6050
▁screaming	-6051
▁sensitive	-6052
▁sentience	-6053
▁seventies	-6054
▁shirtless	-6055
▁singapore	-6056
▁spaghetti	-6057
▁splinters	-6058
▁standards	-6059
▁strangely	-6060
▁supported	-6061
▁survivors	-6062
▁teammates	-6063
▁telephone	-6064
▁telescope	-6065
▁therefore	-6066
▁traveling	-6067
▁undermine	-6068
▁unlimited	-6069
▁venezuela	-6070
▁visualize	-6071
▁wondering	-6072
▁accidental	-6073
▁additional	-6074
▁admiration	-6075
▁affordable	-6076
▁aggressive	-6077
▁apartments	-6078
▁appliances	-6079
▁appreciate	-6080
▁artificial	-6081
▁assessment	-6082
▁astronauts	-6083
▁biological	-6084
▁categories	-6085
▁cephalopod	-6086
▁challenges	-6087
▁characters	-6088
▁collective	-6089
▁collectors	-6090
▁coloration	-6091
▁commercial	-6092
▁comparison	-6093
▁concerning	-6094
▁confronted	-6095
▁connection	-6096
▁considered	-6097
▁constantly	-6098
▁controller	-6099
▁converting	-6100
▁corrective	-6101
▁correspond	-6102
▁cyberspace	-6103
▁department	-6104
▁depression	-6105
▁determined	-6106
▁diagnostic	-6107
▁disappoint	-6108
▁disposable	-6109
▁distracted	-6110
▁downcycled	-6111
▁efficiency	-6112
▁electronic	-6113
▁encouraged	-6114
▁engagement	-6115
▁everywhere	-6116
▁explaining	-6117
▁fiberglass	-6118
▁generating	-6119
▁geographic	-6120
▁historians	-6121
▁hypothesis	-6122
▁importance	-6123
▁increasing	-6124
▁inevitable	-6125
▁influences	-6126
▁irrigation	-6127
▁livelihood	-6128
▁management	-6129
▁measurably	-6130
▁obligation	-6131
▁outpatient	-6132
▁pakistanis	-6133
▁paraglider	-6134
▁peacefully	-6135
▁personally	-6136
▁playground	-6137
▁politician	-6138
▁pretending	-6139
▁processing	-6140
▁pronounced	-6141
▁propaganda	-6142
▁psychology	-6143
▁randomness	-6144
▁reassuring	-6145
▁registered	-6146
▁renewables	-6147
▁represents	-6148
▁resistance	-6149
▁roundabout	-6150
▁situations	-6151
▁solidified	-6152
▁spacecraft	-6153
▁standpoint	-6154
▁supporting	-6155
▁surrounded	-6156
▁techniques	-6157
▁television	-6158
▁tremendous	-6159
▁unexpected	-6160
▁unpleasant	-6161
▁vegetarian	-6162
▁volumetric	-6163
▁washington	-6164
▁achievement	-6165
▁acknowledge	-6166
▁advertising	-6167
▁appropriate	-6168
▁association	-6169
▁atmospheric	-6170
▁authorities	-6171
▁circulation	-6172
▁collaborate	-6173
▁complaining	-6174
▁composition	-6175
▁constructed	-6176
▁conventions	-6177
▁deprivation	-6178
▁devastating	-6179
▁development	-6180
▁dimensioned	-6181
▁embarrassed	-6182
▁emotionally	-6183
▁essentially	-6184
▁experiments	-6185
▁exploration	-6186
▁fortunately	-6187
▁frightening	-6188
▁functioning	-6189
▁generations	-6190
▁genetically	-6191
▁handwriting	-6192
▁helicopters	-6193
▁importantly	-6194
▁independent	-6195
▁individuals	-6196
▁ineffective	-6197
▁institution	-6198
▁interaction	-6199
▁intertwined	-6200
▁measurement	-6201
▁miniaturize	-6202
▁necessarily	-6203
▁optometrist	-6204
▁perceptions	-6205
▁personality	-6206
▁photosynths	-6207
▁programming	-6208
▁regulations	-6209
▁researchers	-6210
▁scaffolding	-6211
▁specialized	-6212
▁spectacular	-6213
▁stewardship	-6214
▁stockbroker	-6215
▁surrendered	-6216
▁tembererana	-6217
▁traffickers	-6218
▁transformed	-6219
▁ventilation	-6220
▁alternatives	-6221
▁broadcasting	-6222
▁capabilities	-6223
▁complexities	-6224
▁consequences	-6225
▁conservation	-6226
▁experiencing	-6227
▁independence	-6228
▁integrations	-6229
▁intelligible	-6230
▁laboratories	-6231
▁photographed	-6232
▁photographer	-6233
▁presentation	-6234
▁preservation	-6235
▁productivity	-6236
▁professional	-6237
▁quantitative	-6238
▁refrigerator	-6239
▁registration	-6240
▁satisfaction	-6241
▁specifically	-6242
▁surroundings	-6243
▁technologist	-6244
▁transparency	-6245
▁unacceptable	-6246
▁unsignalized	-6247
▁automatically	-6248
▁communication	-6249
▁documentation	-6250
▁exponentially	-6251
▁gratification	-6252
▁improvisation	-6253
▁inappropriate	-6254
▁installations	-6255
▁international	-6256
▁intersections	-6257
▁manufacturing	-6258
▁practitioners	-6259
▁significantly	-6260
▁statistically	-6261
▁technological	-6262
▁theoretically	-6263
▁uncapitalized	-6264
▁visualization	-6265
▁contemporaries	-6266
▁identification	-6267
▁unintelligible	-6268
aeh	-6269
ecd	-6270
hai	-6271
oka	-6272
ovs	-6273
aehr	-6274
afro	-6275
aoka	-6276
biot	-6277
esla	-6278
flix	-6279
flow	-6280
glob	-6281
grad	-6282
hatt	-6283
loto	-6284
oker	-6285
ovsk	-6286
quez	-6287
ubla	-6288
walk	-6289
yrat	-6290
▁cnc	-6291
▁koh	-6292
▁ruf	-6293
▁ugh	-6294
adata	-6295
afrol	-6296
ahidi	-6297
aires	-6298
alibr	-6299
pret	-6300
time	-6301
▁sni	-6302
amboo	-6303
anesh	-6304
backs	-6305
balls	-6306
bulbs	-6307
cribe	-6308
cuits	-6309
erers	-6310
ernic	-6311
forms	-6312
grade	-6313
hatma	-6314
haust	-6315
ipino	-6316
lexes	-6317
lleys	-6318
lotov	-6319
ludes	-6320
minal	-6321
odgep	-6322
oturf	-6323
oubad	-6324
ovsky	-6325
ptoms	-6326
quenc	-6327
reepy	-6328
riage	-6329
ridge	-6330
rodes	-6331
romat	-6332
ronda	-6333
sects	-6334
ships	-6335
swana	-6336
uette	-6337
walls	-6338
wlers	-6339
ximum	-6340
zania	-6341
▁arvs	-6342
▁axes	-6343
▁benz	-6344
▁bonn	-6345
▁bubb	-6346
▁bunk	-6347
▁buzz	-6348
▁cows	-6349
▁cruz	-6350
▁cycl	-6351
▁eiff	-6352
▁erst	-6353
▁frag	-6354
▁galv	-6355
▁gamb	-6356
▁garn	-6357
▁ghet	-6358
▁gyps	-6359
▁haze	-6360
▁hipp	-6361
▁homo	-6362
▁hopk	-6363
▁hunk	-6364
▁jami	-6365
▁judg	-6366
▁junk	-6367
▁karn	-6368
▁lamp	-6369
▁lizz	-6370
▁lobb	-6371
▁mesh	-6372
▁narc	-6373
▁paul	-6374
▁pesh	-6375
▁puke	-6376
▁puss	-6377
▁puzz	-6378
▁riot	-6379
▁soup	-6380
▁sync	-6381
▁troj	-6382
▁trop	-6383
▁tsun	-6384
▁tuch	-6385
▁turk	-6386
▁unwr	-6387
▁vasc	-6388
▁vert	-6389
ackson	-6390
anghai	-6391
aptive	-6392
awatts	-6393
biotic	-6394
ceiver	-6395
chwitz	-6396
cipher	-6397
cromed	-6398
ealing	-6399
alde	-6400
erns	-6401
hyde	-6402
maid	-6403
pocr	-6404
adays	-6405
affir	-6406
ipend	-6407
while	-6408
▁mike	-6409
▁sexy	-6410
▁unma	-6411
ecdote	-6412
emeral	-6413
enberg	-6414
enders	-6415
engths	-6416
eridge	-6417
ermans	-6418
finger	-6419
gantly	-6420
global	-6421
handle	-6422
igenix	-6423
iguous	-6424
imeter	-6425
iosity	-6426
ipened	-6427
iscipl	-6428
itydog	-6429
killed	-6430
leader	-6431
metric	-6432
mitted	-6433
ndency	-6434
odesic	-6435
ogenic	-6436
olumne	-6437
onomic	-6438
petual	-6439
ploded	-6440
pocrit	-6441
polate	-6442
rammar	-6443
rapist	-6444
rients	-6445
rubber	-6446
ryonic	-6447
shadow	-6448
taking	-6449
uaries	-6450
ulsion	-6451
untary	-6452
vember	-6453
verely	-6454
▁adams	-6455
▁aesth	-6456
▁alike	-6457
▁altog	-6458
▁altru	-6459
▁amino	-6460
▁angel	-6461
▁angle	-6462
▁arias	-6463
▁avert	-6464
▁baehr	-6465
▁beeth	-6466
▁blows	-6467
▁blunt	-6468
▁boxes	-6469
▁brook	-6470
▁cerem	-6471
▁cheek	-6472
▁claim	-6473
▁craze	-6474
▁crews	-6475
▁dhruv	-6476
▁diego	-6477
▁eager	-6478
▁essay	-6479
▁evils	-6480
▁fatal	-6481
▁fatty	-6482
▁ferns	-6483
▁flags	-6484
▁fluid	-6485
▁froze	-6486
▁galap	-6487
▁gallo	-6488
▁gears	-6489
▁gravy	-6490
▁hairs	-6491
▁halls	-6492
▁harsh	-6493
▁holes	-6494
▁holoc	-6495
▁homer	-6496
▁homin	-6497
▁hooks	-6498
▁hurts	-6499
greg	-6500
▁awk	-6501
▁ghi	-6502
andhi	-6503
exper	-6504
inkle	-6505
lynes	-6506
phoid	-6507
uctor	-6508
▁asta	-6509
▁astr	-6510
▁burt	-6511
▁rims	-6512
▁unex	-6513
▁zanf	-6514
ifying	-6515
ueling	-6516
urtles	-6517
▁asthm	-6518
▁autom	-6519
▁inbox	-6520
▁inlet	-6521
▁italy	-6522
▁jerse	-6523
▁jesus	-6524
▁judic	-6525
▁jungf	-6526
▁kilow	-6527
▁kubla	-6528
▁lacks	-6529
▁lapse	-6530
▁laser	-6531
▁lobby	-6532
▁macro	-6533
▁mercy	-6534
▁merit	-6535
▁merry	-6536
▁miser	-6537
▁mixes	-6538
▁mosch	-6539
▁nobel	-6540
▁nodes	-6541
▁obama	-6542
▁paddy	-6543
▁piled	-6544
▁pills	-6545
▁poppy	-6546
▁porco	-6547
▁proxy	-6548
▁psalm	-6549
▁queue	-6550
▁rainy	-6551
▁ringt	-6552
▁rubin	-6553
▁rufus	-6554
▁sadua	-6555
▁salad	-6556
▁scrap	-6557
▁scrub	-6558
▁seism	-6559
▁shelf	-6560
▁sleek	-6561
▁snipp	-6562
▁sorce	-6563
▁spray	-6564
▁suspe	-6565
▁sweep	-6566
▁telep	-6567
▁tiles	-6568
▁tires	-6569
▁tours	-6570
▁tribe	-6571
▁tsung	-6572
▁tutor	-6573
▁unbel	-6574
▁uneth	-6575
▁unwra	-6576
▁utero	-6577
▁vague	-6578
▁vitro	-6579
▁voted	-6580
▁votes	-6581
▁wires	-6582
▁zamin	-6583
▁zanes	-6584
alously	-6585
chasing	-6586
ctangle	-6587
develop	-6588
emption	-6589
ernicus	-6590
gitydog	-6591
gregate	-6592
ievably	-6593
inement	-6594
ingency	-6595
isphere	-6596
markets	-6597
marking	-6598
ogenous	-6599
aha	-6600
ahn	-6601
twe	-6602
zwe	-6603
arah	-6604
code	-6605
ounc	-6606
ungu	-6607
▁awe	-6608
amaha	-6609
irton	-6610
lades	-6611
monic	-6612
monst	-6613
ribut	-6614
urzwe	-6615
zungu	-6616
▁bagp	-6617
▁bags	-6618
▁kahn	-6619
▁ladd	-6620
▁laws	-6621
▁lung	-6622
▁rani	-6623
anners	-6624
ergman	-6625
hahidi	-6626
ladesh	-6627
olored	-6628
weight	-6629
▁allah	-6630
▁crawl	-6631
▁doses	-6632
▁facil	-6633
▁gasol	-6634
▁lemon	-6635
▁occas	-6636
▁panor	-6637
▁pulls	-6638
▁sarah	-6639
▁scrib	-6640
▁sides	-6641
▁smold	-6642
▁treeh	-6643
▁unsur	-6644
▁yards	-6645
astruct	-6646
gressed	-6647
isingly	-6648
oricksh	-6649
orywall	-6650
quitoes	-6651
reshman	-6652
ributes	-6653
riction	-6654
ronounc	-6655
rubbery	-6656
science	-6657
stances	-6658
tweiler	-6659
ucified	-6660
uggling	-6661
urzweil	-6662
uthiers	-6663
uvering	-6664
veraged	-6665
▁abroad	-6666
▁achiev	-6667
▁agency	-6668
▁alarms	-6669
▁arises	-6670
▁assets	-6671
▁astero	-6672
▁awaits	-6673
▁azungu	-6674
▁baking	-6675
▁beaten	-6676
▁beetho	-6677
▁biling	-6678
▁blader	-6679
▁bodily	-6680
▁borden	-6681
▁border	-6682
▁bosses	-6683
▁bowing	-6684
▁briefc	-6685
▁canvas	-6686
▁carpet	-6687
▁castle	-6688
▁catast	-6689
▁cathed	-6690
▁cattle	-6691
▁chains	-6692
▁charts	-6693
▁cranky	-6694
▁creepy	-6695
▁crises	-6696
▁cruise	-6697
▁crying	-6698
▁deadly	-6699
oils	-6700
amped	-6701
books	-6702
foils	-6703
iliar	-6704
rooms	-6705
▁irim	-6706
▁loud	-6707
▁soto	-6708
culiar	-6709
ederal	-6710
houses	-6711
panied	-6712
roomed	-6713
▁advan	-6714
▁laund	-6715
▁linus	-6716
▁melts	-6717
▁morse	-6718
▁motiv	-6719
▁steam	-6720
▁steve	-6721
▁ultra	-6722
amiliar	-6723
ampeded	-6724
chouses	-6725
▁arabic	-6726
▁degrad	-6727
▁denser	-6728
▁depend	-6729
▁deploy	-6730
▁devils	-6731
▁dhruvi	-6732
▁dispro	-6733
▁divide	-6734
▁divine	-6735
▁double	-6736
▁doubts	-6737
▁drench	-6738
▁driver	-6739
▁eiffel	-6740
▁epigen	-6741
▁evapor	-6742
▁extend	-6743
▁fabric	-6744
▁facade	-6745
▁fences	-6746
▁fitted	-6747
▁fixing	-6748
▁flamed	-6749
▁flirts	-6750
▁folder	-6751
▁galile	-6752
▁gallup	-6753
▁garnie	-6754
▁geezer	-6755
▁glaser	-6756
▁gloria	-6757
▁golden	-6758
▁googly	-6759
▁grandi	-6760
▁grayed	-6761
▁grazed	-6762
▁gypsum	-6763
▁hallel	-6764
▁harsha	-6765
▁herbie	-6766
▁hiding	-6767
▁hilton	-6768
▁holoca	-6769
▁homage	-6770
▁hyster	-6771
▁impuls	-6772
▁inclin	-6773
▁injury	-6774
▁karnat	-6775
▁knocks	-6776
▁korean	-6777
▁league	-6778
▁lenses	-6779
▁linger	-6780
▁lizzie	-6781
▁losses	-6782
▁madame	-6783
▁maggie	-6784
▁malawi	-6785
▁malign	-6786
▁marsal	-6787
▁martyr	-6788
▁melted	-6789
▁mended	-6790
▁milton	-6791
▁motive	-6792
▁multim	-6793
▁muscle	-6794
▁myster	-6795
▁nested	-6796
▁observ	-6797
▁obsole	-6798
▁occurs	-6799
ewel	-6800
heat	-6801
ocol	-6802
ophy	-6803
xury	-6804
ewart	-6805
ewild	-6806
gency	-6807
ocide	-6808
upied	-6809
upine	-6810
uxury	-6811
▁boob	-6812
▁bury	-6813
▁dumb	-6814
▁geoc	-6815
▁rumb	-6816
anteed	-6817
cripts	-6818
ealist	-6819
leseed	-6820
omised	-6821
osophy	-6822
umbent	-6823
▁absor	-6824
▁bushy	-6825
▁freel	-6826
▁freem	-6827
▁frequ	-6828
▁jewel	-6829
▁lifto	-6830
▁toolk	-6831
▁washy	-6832
atizing	-6833
ccupied	-6834
discipl	-6835
introdu	-6836
rentice	-6837
roduced	-6838
romised	-6839
thewild	-6840
urgency	-6841
▁backup	-6842
▁copies	-6843
▁delive	-6844
▁encout	-6845
▁exceed	-6846
▁gently	-6847
▁geocod	-6848
▁luxury	-6849
▁packed	-6850
▁palace	-6851
▁peshaw	-6852
▁peyrat	-6853
▁predic	-6854
▁predis	-6855
▁priest	-6856
▁primed	-6857
▁prints	-6858
▁prison	-6859
▁promot	-6860
▁queues	-6861
▁quills	-6862
▁regret	-6863
▁reheat	-6864
▁remove	-6865
▁reused	-6866
▁reveal	-6867
▁ricksh	-6868
▁rolled	-6869
▁rotted	-6870
▁rushed	-6871
▁russia	-6872
▁salads	-6873
▁sanity	-6874
▁satisf	-6875
▁scotts	-6876
▁screws	-6877
▁seemed	-6878
▁sentim	-6879
▁sequel	-6880
▁settle	-6881
▁shadow	-6882
▁shocks	-6883
▁shortw	-6884
▁sights	-6885
▁silent	-6886
▁silver	-6887
▁skirts	-6888
▁snails	-6889
▁sparks	-6890
▁spiral	-6891
▁spooky	-6892
▁starve	-6893
▁stocks	-6894
▁stored	-6895
▁storms	-6896
▁strata	-6897
▁stripe	-6898
▁stupid	-6899
bird	-6900
hony	-6901
murs	-6902
roof	-6903
cules	-6904
onium	-6905
oscul	-6906
ossal	-6907
phony	-6908
proof	-6909
▁foss	-6910
▁penh	-6911
▁penn	-6912
▁sunr	-6913
olites	-6914
ophony	-6915
▁epith	-6916
▁estab	-6917
▁eston	-6918
▁feeds	-6919
▁opium	-6920
▁penel	-6921
▁phony	-6922
▁resta	-6923
▁spots	-6924
▁therm	-6925
▁vocab	-6926
allowed	-6927
mitting	-6928
ouncing	-6929
▁checks	-6930
▁cheery	-6931
▁colony	-6932
▁drawer	-6933
▁empire	-6934
▁evolve	-6935
▁fossil	-6936
▁lemurs	-6937
▁lifebo	-6938
▁noises	-6939
▁styles	-6940
▁submar	-6941
▁sucked	-6942
▁suffoc	-6943
▁suicid	-6944
▁supers	-6945
▁tablea	-6946
▁tailed	-6947
▁tenths	-6948
▁termin	-6949
▁thighs	-6950
▁thomas	-6951
▁thresh	-6952
▁titles	-6953
▁trauma	-6954
▁triage	-6955
▁tribal	-6956
▁tribes	-6957
▁tricks	-6958
▁triple	-6959
▁truing	-6960
▁tuchus	-6961
▁typing	-6962
▁uncles	-6963
▁unders	-6964
▁unique	-6965
▁unsure	-6966
▁unsurp	-6967
▁uptown	-6968
▁vastly	-6969
▁veggie	-6970
▁victim	-6971
▁vitruv	-6972
▁waging	-6973
▁walden	-6974
▁walker	-6975
▁widely	-6976
▁witter	-6977
▁workah	-6978
▁writes	-6979
▁yamaha	-6980
▁yields	-6981
acophony	-6982
afrolics	-6983
aldehyde	-6984
alibrate	-6985
chanical	-6986
cromedia	-6987
ealistic	-6988
erleader	-6989
esterday	-6990
euvering	-6991
ferences	-6992
harmonic	-6993
haustion	-6994
idescent	-6995
imulated	-6996
iography	-6997
iseconds	-6998
isioning	-6999
chio	-7000
mble	-7001
onym	-7002
scow	-7003
xgen	-7004
▁rio	-7005
cchio	-7006
ontal	-7007
rable	-7008
scape	-7009
yxgen	-7010
▁feds	-7011
ending	-7012
ienced	-7013
ogging	-7014
onymus	-7015
▁audio	-7016
▁chief	-7017
▁condi	-7018
▁dunes	-7019
▁grief	-7020
▁holds	-7021
▁kidna	-7022
▁picks	-7023
▁squaw	-7024
▁wider	-7025
etrable	-7026
rocchio	-7027
venging	-7028
▁marble	-7029
▁moscow	-7030
▁oyxgen	-7031
▁poorly	-7032
▁raging	-7033
▁relief	-7034
▁sensib	-7035
▁squawk	-7036
▁straps	-7037
▁unused	-7038
▁volume	-7039
ensitive	-7040
ivatives	-7041
ladeshis	-7042
lynesian	-7043
misphere	-7044
occupied	-7045
orcupine	-7046
osculate	-7047
oubadour	-7048
phemeral	-7049
pronounc	-7050
quencies	-7051
rastruct	-7052
romantic	-7053
secution	-7054
standing	-7055
ulsating	-7056
umpsters	-7057
▁absence	-7058
▁acceler	-7059
▁advised	-7060
▁arguing	-7061
▁aspects	-7062
▁astaire	-7063
▁autonom	-7064
▁awkward	-7065
▁baggage	-7066
▁bagpipe	-7067
▁ballard	-7068
▁bangles	-7069
▁banking	-7070
▁barking	-7071
▁beaches	-7072
▁bedside	-7073
▁beliefs	-7074
▁benzene	-7075
▁bergman	-7076
▁blowing	-7077
▁bombing	-7078
▁bonnier	-7079
▁boombox	-7080
▁bowling	-7081
▁breatht	-7082
▁busiest	-7083
▁buzzing	-7084
▁cadence	-7085
▁camping	-7086
▁cancers	-7087
▁capsule	-7088
▁casting	-7089
▁chances	-7090
▁classed	-7091
▁classes	-7092
▁classic	-7093
▁cleaner	-7094
▁cleanse	-7095
▁closest	-7096
▁colleag	-7097
▁colored	-7098
▁combine	-7099
aik	-7100
ika	-7101
brid	-7102
bris	-7103
gged	-7104
irlp	-7105
rika	-7106
uels	-7107
▁dye	-7108
chaik	-7109
unchy	-7110
▁barb	-7111
▁defi	-7112
▁eats	-7113
▁hotd	-7114
▁tiev	-7115
▁valu	-7116
▁virg	-7117
ivalit	-7118
otonin	-7119
▁eyesp	-7120
▁fuels	-7121
▁lotta	-7122
▁lowly	-7123
▁memes	-7124
▁rival	-7125
▁splat	-7126
▁troph	-7127
atchels	-7128
ectured	-7129
irlpool	-7130
ivalito	-7131
omising	-7132
rikaans	-7133
▁anglic	-7134
▁barbar	-7135
▁buyers	-7136
▁cheese	-7137
▁circle	-7138
▁circum	-7139
▁dances	-7140
▁danish	-7141
▁debris	-7142
▁ganges	-7143
▁hotdig	-7144
▁hotels	-7145
▁hybrid	-7146
▁memory	-7147
▁scared	-7148
▁southw	-7149
▁splits	-7150
▁tchaik	-7151
▁temple	-7152
▁tempor	-7153
▁trophy	-7154
idential	-7155
ountered	-7156
▁bragged	-7157
▁cellars	-7158
▁charged	-7159
▁cleared	-7160
▁comfort	-7161
▁conclus	-7162
▁condoms	-7163
▁console	-7164
▁consume	-7165
▁convert	-7166
▁courses	-7167
▁credent	-7168
▁cruelty	-7169
▁crunchy	-7170
▁cycling	-7171
▁cyclone	-7172
▁dealers	-7173
▁decimal	-7174
▁declass	-7175
▁deepest	-7176
▁defense	-7177
▁defused	-7178
▁demonst	-7179
▁deserts	-7180
▁deserve	-7181
▁digging	-7182
▁dispers	-7183
▁dressed	-7184
▁drummed	-7185
▁dynamic	-7186
▁educate	-7187
▁emulate	-7188
▁enemies	-7189
▁entropy	-7190
▁ethical	-7191
▁evolves	-7192
▁extrace	-7193
▁eyespot	-7194
▁falling	-7195
▁farmers	-7196
▁fellows	-7197
▁filitra	-7198
▁filling	-7199
airs	-7200
enny	-7201
lene	-7202
pora	-7203
tiet	-7204
▁ern	-7205
▁psi	-7206
ierce	-7207
orpor	-7208
othed	-7209
sling	-7210
tieth	-7211
tling	-7212
ugene	-7213
wives	-7214
▁cyan	-7215
▁moth	-7216
▁redd	-7217
▁utop	-7218
aspora	-7219
itches	-7220
leneck	-7221
stairs	-7222
▁booth	-7223
▁clear	-7224
▁doubt	-7225
▁faded	-7226
▁flair	-7227
▁flier	-7228
▁gyres	-7229
▁jenny	-7230
▁redid	-7231
▁trend	-7232
▁wired	-7233
▁witch	-7234
iercely	-7235
mingway	-7236
▁achary	-7237
▁dining	-7238
▁ernest	-7239
▁eugene	-7240
▁paying	-7241
▁propon	-7242
▁reddit	-7243
▁scales	-7244
▁sector	-7245
▁spring	-7246
▁ticket	-7247
▁traded	-7248
▁uptake	-7249
▁utopia	-7250
entacles	-7251
▁acharya	-7252
▁calming	-7253
▁cocaine	-7254
▁cyanide	-7255
▁farming	-7256
▁fishing	-7257
▁fissure	-7258
▁floated	-7259
▁freeman	-7260
▁frubber	-7261
▁furries	-7262
▁galapag	-7263
▁galileo	-7264
▁gallons	-7265
▁gallows	-7266
▁garniez	-7267
▁germans	-7268
▁glorify	-7269
▁glowing	-7270
▁golfing	-7271
▁gorilla	-7272
▁grammar	-7273
▁groomed	-7274
▁hangers	-7275
▁hanging	-7276
▁happier	-7277
▁harvard	-7278
▁hawking	-7279
▁herbert	-7280
▁holiest	-7281
▁hominem	-7282
▁hopkins	-7283
▁impacts	-7284
▁inexper	-7285
▁insects	-7286
▁instrum	-7287
▁invaded	-7288
▁involve	-7289
▁italian	-7290
▁jackson	-7291
▁jogging	-7292
▁joining	-7293
▁juggler	-7294
▁jungles	-7295
▁justify	-7296
▁laborer	-7297
▁lankans	-7298
▁largely	-7299
olyn	-7300
▁jee	-7301
▁lah	-7302
anese	-7303
ffiti	-7304
wired	-7305
▁aval	-7306
▁eyeb	-7307
▁hamb	-7308
▁harm	-7309
▁jeez	-7310
▁khan	-7311
▁laid	-7312
agoric	-7313
anches	-7314
banese	-7315
itiful	-7316
yoming	-7317
▁chips	-7318
▁costs	-7319
▁drain	-7320
▁droid	-7321
▁flips	-7322
▁initi	-7323
▁joint	-7324
▁modic	-7325
▁murdo	-7326
▁obese	-7327
▁penis	-7328
▁quake	-7329
▁releg	-7330
▁risks	-7331
▁safer	-7332
▁stays	-7333
magoric	-7334
ughters	-7335
ummings	-7336
▁avalan	-7337
▁biomet	-7338
▁bomber	-7339
▁drople	-7340
▁esther	-7341
▁gandhi	-7342
▁hambur	-7343
▁intake	-7344
▁joints	-7345
▁lahore	-7346
▁messia	-7347
▁mixers	-7348
▁respon	-7349
▁breaker	-7350
▁carolyn	-7351
▁charity	-7352
▁circled	-7353
▁conflic	-7354
▁conserv	-7355
▁distort	-7356
▁distric	-7357
▁emerges	-7358
▁eyebrow	-7359
▁harangu	-7360
▁harmful	-7361
▁lending	-7362
▁lengths	-7363
▁liquidy	-7364
▁mahatma	-7365
▁manhatt	-7366
▁markets	-7367
▁marries	-7368
▁matches	-7369
▁matured	-7370
▁maximum	-7371
▁meadows	-7372
▁mermaid	-7373
▁messiah	-7374
▁methods	-7375
▁miracle	-7376
▁mirrors	-7377
▁mistake	-7378
▁misused	-7379
▁modeled	-7380
▁modicum	-7381
▁molotov	-7382
▁moschen	-7383
▁murdoch	-7384
▁narciss	-7385
▁neglect	-7386
▁netflix	-7387
▁offices	-7388
▁onstage	-7389
▁onwards	-7390
▁opening	-7391
▁opposed	-7392
▁orville	-7393
▁outrage	-7394
▁packets	-7395
▁patches	-7396
▁pathway	-7397
▁permiss	-7398
▁photosh	-7399
auc	-7400
ava	-7401
ksw	-7402
ungs	-7403
urbs	-7404
xins	-7405
apted	-7406
aucom	-7407
kswag	-7408
liant	-7409
liers	-7410
otten	-7411
▁broo	-7412
▁bugs	-7413
▁crop	-7414
▁java	-7415
▁latv	-7416
▁ridd	-7417
▁teri	-7418
▁wake	-7419
asonal	-7420
aucoma	-7421
gotten	-7422
namics	-7423
▁immun	-7424
▁lungs	-7425
▁rains	-7426
▁toten	-7427
▁unnam	-7428
▁untid	-7429
▁waist	-7430
ptember	-7431
▁brooks	-7432
▁edited	-7433
▁grains	-7434
▁grandk	-7435
▁immers	-7436
▁immort	-7437
▁latvia	-7438
▁toxins	-7439
▁untidy	-7440
▁zanfon	-7441
ertainty	-7442
kswagens	-7443
ognitive	-7444
▁adapted	-7445
▁blister	-7446
▁bottled	-7447
▁climber	-7448
▁emerged	-7449
▁genomes	-7450
▁microse	-7451
▁phrases	-7452
▁picking	-7453
▁pitched	-7454
▁pitches	-7455
▁planned	-7456
▁pleased	-7457
▁polling	-7458
▁popping	-7459
▁portion	-7460
▁postman	-7461
▁pretend	-7462
▁pricked	-7463
▁primacy	-7464
▁profile	-7465
▁propell	-7466
▁pursuit	-7467
▁puzzles	-7468
▁rachell	-7469
▁ranging	-7470
▁ranking	-7471
▁reached	-7472
▁receive	-7473
▁records	-7474
▁recycle	-7475
▁refrain	-7476
▁refused	-7477
▁relaxed	-7478
▁reminds	-7479
▁repeats	-7480
▁replies	-7481
▁reserve	-7482
▁restaur	-7483
▁resting	-7484
▁restore	-7485
▁retreat	-7486
▁returns	-7487
▁revered	-7488
▁riddled	-7489
▁rocking	-7490
▁rosling	-7491
▁routine	-7492
▁rumbles	-7493
▁satisfy	-7494
▁scratch	-7495
▁scribed	-7496
▁scrotum	-7497
▁searing	-7498
▁seminal	-7499
awa	-7500
law	-7501
moir	-7502
sled	-7503
ushi	-7504
▁caf	-7505
▁hmo	-7506
▁jaw	-7507
▁paw	-7508
▁vet	-7509
grown	-7510
naiss	-7511
ucked	-7512
utawa	-7513
▁cafe	-7514
▁cola	-7515
▁curt	-7516
▁devi	-7517
▁hush	-7518
▁ingr	-7519
▁irre	-7520
▁laps	-7521
▁meme	-7522
▁veil	-7523
▁vein	-7524
arship	-7525
boards	-7526
cution	-7527
icient	-7528
ilroad	-7529
▁assum	-7530
▁brush	-7531
▁colom	-7532
▁curry	-7533
▁foods	-7534
▁landm	-7535
▁mahal	-7536
▁mouse	-7537
▁parad	-7538
▁param	-7539
▁paris	-7540
▁pluck	-7541
▁pores	-7542
▁slept	-7543
▁stilt	-7544
▁strap	-7545
▁sushi	-7546
ecution	-7547
redient	-7548
▁client	-7549
▁colomb	-7550
▁curric	-7551
▁curtis	-7552
▁curved	-7553
▁extens	-7554
▁fucked	-7555
▁gravit	-7556
▁ingrid	-7557
▁irrele	-7558
▁memoir	-7559
▁mutawa	-7560
▁outlaw	-7561
▁parall	-7562
▁plucky	-7563
▁reiter	-7564
▁risked	-7565
▁rounds	-7566
▁spouse	-7567
iciently	-7568
olarship	-7569
ructions	-7570
▁assumpt	-7571
▁breathe	-7572
▁explode	-7573
▁extract	-7574
▁filming	-7575
▁glories	-7576
▁hassled	-7577
▁irrelev	-7578
▁landing	-7579
▁optimal	-7580
▁paramet	-7581
▁renaiss	-7582
▁sensing	-7583
▁shaking	-7584
▁shallow	-7585
▁shaving	-7586
▁shifted	-7587
▁shutter	-7588
▁shyness	-7589
▁sighted	-7590
▁skilled	-7591
▁skitter	-7592
▁skydive	-7593
▁slipped	-7594
▁slowing	-7595
▁smallpo	-7596
▁smiling	-7597
▁smushed	-7598
▁snippet	-7599
pi	-7600
bor	-7601
osm	-7602
abin	-7603
fest	-7604
hasa	-7605
iell	-7606
rael	-7607
uned	-7608
▁cro	-7609
▁exh	-7610
▁jun	-7611
▁mig	-7612
▁npi	-7613
▁nul	-7614
▁oun	-7615
▁ray	-7616
▁rib	-7617
▁sab	-7618
▁uph	-7619
ielle	-7620
union	-7621
▁brew	-7622
▁cosm	-7623
▁exop	-7624
▁gour	-7625
▁haun	-7626
▁holl	-7627
▁host	-7628
▁labs	-7629
▁migr	-7630
▁pean	-7631
▁phen	-7632
▁spar	-7633
▁spig	-7634
▁spit	-7635
▁urge	-7636
▁abuse	-7637
▁await	-7638
▁breed	-7639
▁brent	-7640
▁cabin	-7641
▁court	-7642
▁crops	-7643
▁exhib	-7644
▁exopl	-7645
▁inade	-7646
▁lhasa	-7647
▁plent	-7648
▁saber	-7649
▁sight	-7650
▁stats	-7651
▁tries	-7652
▁tuned	-7653
▁brewed	-7654
▁galvan	-7655
▁harbor	-7656
▁haunts	-7657
▁hosted	-7658
▁intens	-7659
▁israel	-7660
▁junior	-7661
▁lagoon	-7662
▁nuland	-7663
▁ounces	-7664
▁peanut	-7665
▁phenom	-7666
▁spigot	-7667
▁uphill	-7668
▁vielle	-7669
▁wallet	-7670
▁applied	-7671
▁attract	-7672
▁breeder	-7673
▁courtes	-7674
▁exhibit	-7675
▁exoplan	-7676
▁federal	-7677
▁gourmet	-7678
▁holland	-7679
▁inadequ	-7680
▁migrant	-7681
▁reunion	-7682
▁ripened	-7683
▁sorcere	-7684
▁spanked	-7685
▁sparked	-7686
▁sparkly	-7687
▁spheres	-7688
▁spoiled	-7689
▁spooked	-7690
▁spotted	-7691
▁squirts	-7692
▁staples	-7693
▁stealth	-7694
▁steamed	-7695
▁sterile	-7696
▁stewart	-7697
▁stipend	-7698
▁stocked	-7699
ifi	-7700
odg	-7701
zig	-7702
amos	-7703
ando	-7704
aret	-7705
odgy	-7706
ulia	-7707
▁amm	-7708
▁arv	-7709
▁enl	-7710
▁fod	-7711
▁vas	-7712
ander	-7713
garet	-7714
icted	-7715
ilege	-7716
ipzig	-7717
nando	-7718
oding	-7719
ousin	-7720
stand	-7721
tered	-7722
▁bull	-7723
▁chic	-7724
▁dood	-7725
▁teem	-7726
▁wifi	-7727
ousing	-7728
urbing	-7729
▁ammun	-7730
▁arise	-7731
▁enlar	-7732
▁julia	-7733
▁lined	-7734
▁overt	-7735
▁shard	-7736
▁subse	-7737
▁vasco	-7738
▁wrist	-7739
▁alamos	-7740
▁bindis	-7741
▁chicag	-7742
▁coding	-7743
▁cousin	-7744
▁draped	-7745
▁fodder	-7746
▁genius	-7747
▁headed	-7748
▁locked	-7749
▁muslin	-7750
▁peaked	-7751
▁stodgy	-7752
▁verses	-7753
▁wander	-7754
urturing	-7755
▁bullets	-7756
▁chicago	-7757
▁doodles	-7758
▁hateful	-7759
▁housing	-7760
▁lateral	-7761
▁leipzig	-7762
▁overtak	-7763
▁recover	-7764
▁strains	-7765
▁stromat	-7766
▁suburbs	-7767
▁sunrise	-7768
▁sunsets	-7769
▁swedish	-7770
▁switzer	-7771
▁symbols	-7772
▁teeming	-7773
▁teenage	-7774
▁terrain	-7775
▁terrest	-7776
▁ticking	-7777
▁timbers	-7778
▁tipping	-7779
▁titanic	-7780
▁toolkit	-7781
▁toothed	-7782
▁touches	-7783
▁tractor	-7784
▁transpo	-7785
▁trapped	-7786
▁treehug	-7787
▁tricked	-7788
▁trinity	-7789
▁tsunami	-7790
▁turtles	-7791
▁tutored	-7792
▁typhoid	-7793
▁uncompr	-7794
▁unnamed	-7795
▁unsurpr	-7796
▁uploads	-7797
▁variant	-7798
▁variety	-7799
ckt	-7800
dul	-7801
geb	-7802
olk	-7803
ula	-7804
ulf	-7805
live	-7806
mers	-7807
oler	-7808
thur	-7809
▁bul	-7810
▁hen	-7811
▁nad	-7812
bound	-7813
erson	-7814
gebra	-7815
ulent	-7816
▁anch	-7817
▁bulg	-7818
▁clas	-7819
▁conc	-7820
▁cook	-7821
▁dike	-7822
▁fauc	-7823
▁gulf	-7824
▁heck	-7825
▁joys	-7826
▁kolk	-7827
▁logo	-7828
▁mand	-7829
▁nada	-7830
▁outf	-7831
▁peps	-7832
▁reck	-7833
▁sale	-7834
▁wore	-7835
ronics	-7836
▁abdul	-7837
▁cockt	-7838
▁grabb	-7839
▁harry	-7840
▁henry	-7841
▁karan	-7842
▁logic	-7843
▁olive	-7844
▁pepsi	-7845
▁reply	-7846
▁seams	-7847
▁shant	-7848
▁silly	-7849
▁smile	-7850
▁turke	-7851
▁wishy	-7852
actions	-7853
anation	-7854
bounded	-7855
essness	-7856
grounds	-7857
reation	-7858
streams	-7859
uration	-7860
▁anchor	-7861
▁arthur	-7862
▁clasps	-7863
▁faucet	-7864
▁geyser	-7865
▁lesser	-7866
▁outfit	-7867
▁phases	-7868
▁shanty	-7869
▁turkey	-7870
▁worker	-7871
olerance	-7872
▁algebra	-7873
▁amongst	-7874
▁android	-7875
▁bitches	-7876
▁brother	-7877
▁channel	-7878
▁concert	-7879
▁empower	-7880
▁formula	-7881
▁grabbed	-7882
▁kolkata	-7883
▁mandate	-7884
▁opulent	-7885
▁orchard	-7886
▁reckons	-7887
▁vessels	-7888
▁vintage	-7889
▁virgins	-7890
▁visited	-7891
▁weaving	-7892
▁weights	-7893
▁wheelch	-7894
▁wrinkle	-7895
▁yielded	-7896
▁zanfona	-7897
▁zooming	-7898
affirming	-7899
che	-7900
cle	-7901
die	-7902
ely	-7903
▁ba	-7904
▁jc	-7905
anth	-7906
asub	-7907
aven	-7908
bags	-7909
icil	-7910
ilut	-7911
pter	-7912
uine	-7913
wing	-7914
▁baj	-7915
▁cha	-7916
▁chl	-7917
▁gir	-7918
▁lew	-7919
▁orn	-7920
▁rus	-7921
▁sph	-7922
▁wol	-7923
antas	-7924
aokao	-7925
itish	-7926
racle	-7927
uster	-7928
▁cham	-7929
▁chau	-7930
▁dirt	-7931
▁dish	-7932
▁dive	-7933
▁dust	-7934
▁este	-7935
▁neur	-7936
▁till	-7937
▁trim	-7938
▁wolf	-7939
bidden	-7940
earing	-7941
iluted	-7942
rupter	-7943
▁chlad	-7944
▁detro	-7945
▁dusty	-7946
▁girlf	-7947
▁lewis	-7948
▁recap	-7949
▁russe	-7950
▁sicil	-7951
▁skype	-7952
▁sphin	-7953
anthrop	-7954
asubram	-7955
ctarian	-7956
▁benign	-7957
▁blamed	-7958
▁chladn	-7959
▁dishes	-7960
▁esteem	-7961
▁gaokao	-7962
▁girlfr	-7963
▁heaven	-7964
▁jitish	-7965
▁joyful	-7966
▁neuron	-7967
▁oracle	-7968
▁ornith	-7969
▁paints	-7970
▁	-7971
e	-7972
t	-7973
a	-7974
o	-7975
i	-7976
n	-7977
s	-7978
h	-7979
r	-7980
l	-7981
d	-7982
u	-7983
c	-7984
y	-7985
m	-7986
w	-7987
g	-7988
f	-7989
p	-7990
b	-7991
v	-7992
k	-7993
'	-7994
j	-7995
x	-7996
z	-7997
q	-7998
