t
a
th
i
w
the
s
##re
o
##in
##nd
##ou
##at
##er
b
c
m
h
f
and
##ing
p
##en
to
##on
d
##an
y
##ll
##es
##or
l
of
in
##is
##ed
you
g
##ar
##it
n
that
we
##om
##ve
it
##as
is
##ic
##ow
wh
##al
##le
##us
e
be
on
##ut
##et
this
##ot
##ion
##ld
##ent
so
re
ha
##ct
##ver
##ay
##ro
##ig
for
he
st
##se
##all
##ke
##id
##ch
##ly
##st
##ir
##ra
##ur
do
li
##ce
##im
go
an
se
u
can
was
##ith
sh
k
ab
they
j
with
##ally
are
##am
my
have
##ht
mo
##op
##ad
##out
##ter
##oo
##ill
wor
ne
what
##very
all
r
me
##ome
one
but
about
as
at
ch
##ight
##ust
fr
##il
##ould
##ge
##th
##ation
us
like
##ear
##ant
pro
##ck
not
##ere
there
ma
##ers
##ive
or
tw
your
con
##ul
com
##ess
##ol
now
v
just
##pp
##and
al
from
##ure
bec
de
##if
##ous
out
##od
##um
int
these
sp
##ie
here
##ind
te
year
##un
##ook
##art
very
##use
##our
pl
ex
if
##est
pe
##ect
up
##ause
some
##ab
##qu
en
##red
our
see
because
##ate
kn
##os
##ist
##ort
##ound
##her
##ild
tim
##ich
##one
thing
when
going
ar
tr
get
two
know
im
##ty
by
##king
##ople
act
people
##ies
how
them
##ide
le
##ity
than
who
look
which
##nt
##ually
world
##ag
##el
will
##ong
fa
had
##em
##iv
##ci
##ine
##ap
##oug
##ard
su
sa
into
thin
##ame
bu
comp
then
##ain
more
##og
##ree
time
were
pre
actually
##hing
years
their
af
ta
every
##ib
new
would
##ast
po
##ment
want
##ack
##iz
really
##age
##reat
has
##irst
##omet
way
cont
man
first
##ven
work
##itt
no
right
##ip
ag
per
think
don
##so
ro
three
##ans
cl
tal
somet
##ia
##ore
##ite
fe
mu
##ions
##ousand
could
thousand
##ose
qu
she
make
un
his
also
##ry
##ach
am
say
##own
co
hu
much
##ud
dis
back
well
where
over
##ang
got
##ff
##ough
##are
did
five
need
show
##ys
##ass
been
something
##ire
exp
##ittle
little
things
gu
##nder
build
ph
##ence
##ndred
hundred
##te
##ice
start
##ater
let
##ep
##ss
day
imp
##ign
##ical
lif
good
most
child
lo
tra
##ody
four
##ix
##lf
happ
##ea
##ple
##way
pr
any
call
##ces
after
##ens
##ish
bl
##enty
too
prob
real
said
those
##co
##int
only
##pt
##act
sc
down
thank
##ars
##ick
##fere
bra
ind
put
use
tell
##urn
##ace
##als
wr
big
cou
lot
##other
kind
##ue
##ase
##ics
##ves
gr
##ther
off
##ade
##orm
br
fo
sy
##ance
her
why
id
take
inter
##vel
##cent
dif
under
##ving
life
##pl
##ub
##ange
res
doing
##ood
##ool
##olog
eight
##ren
##ject
ted
thr
come
part
talk
thir
##du
##ber
##ower
app
inf
mar
six
spe
should
##xt
bet
made
##wn
##lem
##ult
em
##ible
gen
does
being
differe
##cc
##ary
##day
long
building
ad
sm
##able
ins
mus
##illion
##ob
##get
hum
own
even
great
other
twenty
children
##ory
ago
find
tech
##ations
around
through
##ph
##self
##vent
##ated
##ting
mat
may
##ition
techn
##ak
##ids
bas
des
end
fif
many
called
problem
##ile
bel
dec
fact
next
stud
different
##erg
gl
fam
sch
##ug
##ied
##igh
cr
##stem
eng
him
old
pos
imag
brain
point
power
percent
##ft
##les
ra
##ning
art
try
turn
creat
##ac
##pe
##nds
min
sim
##ather
##thing
lear
##ily
fl
##fore
car
inc
##ought
same
sort
again
##ian
##ock
##ope
##ious
rec
str
last
##ically
today
school
system
technolog
##ize
##ved
ok
##ress
didn
pers
went
human
music
contro
import
##ful
##ric
dr
##lect
##vers
dat
still
before
started
##kes
##ram
ten
able
comm
form
inst
change
another
##ail
##een
bo
cam
wee
working
important
##ord
##per
##tty
ke
ob
sk
##ates
##ieve
##ized
##ness
##ular
##ways
nat
##ating
##ction
live
took
quest
sound
pretty
underst
##lic
##cial
##ents
ear
mon
data
home
news
seco
count
##ps
##ise
##its
giv
gra
rem
body
came
guys
kids
less
learn
produ
happen
person
##ng
z
##ath
##ict
##ors
##ull
leg
top
wom
anim
high
mean
plan
week
energ
times
water
always
better
thirty
technology
understand
##be
pop
##erest
feel
hard
play
chang
found
young
comput
energy
million
##ial
##iss
##body
##lish
ent
fly
fut
pie
run
sci
sur
coll
forty
future
project
thought
interest
##ash
##ave
##ced
ac
vi
stu
##velop
hand
hope
sign
vide
never
seven
comple
design
##der
##llow
##teen
##ward
beg
bot
cons
dire
each
hour
idea
okay
used
allow
trans
develop
##ert
##ific
##ourn
eff
few
mom
nin
reg
book
exam
head
poss
month
small
##ds
##ale
##ety
ey
##atch
##cing
##ined
air
fil
fin
pol
vis
cour
phot
song
using
whole
inside
##ms
##ts
##ark
##bot
##ell
##ets
##ger
sl
##ross
fun
wal
kill
move
sing
soon
elect
fifty
stuff
second
believe
looking
question
##ons
##ual
op
##ered
##ines
##ings
##read
##ural
##ures
cre
gre
hel
war
##ccess
give
grow
stop
##gether
journ
maybe
place
robot
story
course
father
together
##ked
oh
##angu
##arch
##cept
##tern
env
guy
lar
num
rel
ser
sol
away
ever
frie
nine
seen
stre
supp
doesn
india
minut
coming
wanted
control
success
##ey
##iew
##ner
##ote
##ages
##alth
##less
##ogra
##ware
bus
cra
eas
inv
its
ref
sub
##ience
doll
pass
pict
pres
room
wind
exper
gener
heart
langu
means
might
piece
intern
##ket
##nce
##ron
di
sw
##ably
##iron
##ital
##oney
att
bad
loc
pub
rep
##ility
care
lead
mind
name
told
earth
later
light
plast
commun
direct
follow
trying
##ironment
english
example
talking
computer
everything
environment
##eas
##row
ed
wo
##aces
##cess
##gram
##ists
map
##ately
##ative
##ected
##iness
cent
done
face
help
perf
read
rese
bring
##ational
family
health
letter
matter
country
##az
##pr
##ru
##ead
##urd
da
ge
##aper
##ever
##gest
##ince
bit
cal
cor
equ
far
hal
iss
job
oil
pat
uni
##iting
days
goes
left
love
pain
teach
video
across
inform
market
mother
simple
dollars
getting
nothing
research
thinking
##oy
##ken
##sel
##ump
el
ho
##ials
##ided
##ield
##ract
bre
col
cur
dev
met
set
##ution
doct
film
food
half
hear
phys
says
self
##ograph
begin
hours
money
plant
watch
number
information
##aw
##gr
##mo
##na
##yc
##ape
##cus
##eah
##hip
##ilt
##led
##res
##uck
##ush
ca
ve
##ient
ext
lab
med
par
##ories
##uring
glob
side
spec
step
yeah
afric
makes
couple
effect
enough
living
animals
complex
program
possible
interesting
##hm
##ank
##aps
##cer
##ork
ev
ty
##bers
##iter
##ouse
##vern
##ween
bir
sle
yes
##ities
city
goal
land
lives
stand
while
become
create
govern
looked
between
decided
imagine
minutes
picture
plastic
process
thousands
##bs
##li
##aut
##lec
wa
##ason
##ease
##ense
##eric
##ited
##pped
##side
aud
bro
det
sev
ter
unt
##cking
amaz
bott
expl
keep
lego
list
mach
once
viol
##ertain
dance
disco
level
local
looks
mater
molec
popul
space
americ
moment
nature
partic
taking
content
disease
journey
anything
probably
basically
government
##uc
##eel
##idd
##ins
##nam
##ten
##here
##icro
##imes
##omes
##outh
##urdy
dig
imm
opp
ple
sky
##ember
##ister
clim
fire
full
insp
past
port
##selves
block
built
comes
focus
house
ideas
micro
quick
sleep
woman
women
africa
images
happens
science
someone
business
internet
students
everybody
##av
##gs
##ks
##elt
##jor
##nts
##ted
##uit
##une
av
##ream
##ught
acc
age
bab
beh
dra
dro
mod
org
saf
vol
##acter
##verse
##vious
##wards
bill
char
conf
cult
dist
felt
hist
jump
mess
miss
ones
open
rele
beaut
blood
break
happy
major
quite
reach
third
became
entire
invent
making
amazing
instead
product
seventy
language
realized
remember
sometimes
##no
##ane
##ero
##ese
##han
hy
##ries
add
aff
bom
eye
har
ris
##atics
##ments
##ument
arch
cost
else
free
mass
mill
moon
stay
such
view
displ
glass
image
older
organ
until
write
incred
listen
longer
myself
result
scient
wonder
learned
perform
yourself
##cr
##sw
##ake
##con
##cre
##era
##erv
##ips
##iti
##ues
##ule
##umm
##vor
bi
jo
la
##elve
##iban
##iful
##ired
##itch
ach
cle
cut
dna
pay
red
sat
tre
##ining
##ional
##istan
##pping
cars
cool
orig
prof
prop
soft
trad
true
favor
given
green
leave
paper
phone
scale
since
store
takes
weeks
during
having
months
public
robots
seeing
single
street
twelve
created
express
fifteen
natural
present
taliban
controll
everyone
personal
developed
photograph
##cy
##lt
##lu
##me
##ny
##air
##ene
##ier
##irc
##oke
##oth
##por
##ube
##uro
##uth
cy
ps
##ales
##ives
##ling
##ming
##ring
##ured
ask
che
hot
men
pet
spl
tem
##ature
##ident
##ortun
anal
answ
burn
cell
circ
deal
deep
fail
fall
feet
main
math
meas
must
prov
save
stat
sure
zero
along
appro
genes
guess
heard
issue
order
south
taken
turns
works
wrong
camera
device
eighty
flying
friend
giving
global
ninety
places
planet
worked
certain
digital
display
message
outside
species
universe
##br
##ik
##els
##ged
##irl
##ned
es
##ared
##ator
##ians
##ival
##most
##oose
##ount
##unch
buy
cap
dan
def
doc
eat
low
mem
mob
pot
sit
val
vir
win
yet
##itect
##iving
died
easy
eyes
flow
foot
grou
line
meet
pare
pick
poor
prot
push
resp
rich
road
sens
ways
##cially
##itical
famil
moder
ninet
pages
sense
shows
sixty
state
##ability
behind
couldn
detail
doctor
impact
marrow
office
origin
please
record
syring
weight
billion
friends
obvious
parents
prevent
quickly
running
special
support
usually
changing
happened
software
whatever
architect
beautiful
beginning
buildings
population
themselves
##io
##sc
##ble
##ief
##ien
##ife
##ond
##ont
##osp
##ute
##ych
##ames
##ased
##cket
##ging
##ices
##ider
##unte
##work
bar
emb
kid
squ
##cious
##ering
##etnam
##iddle
##itive
##nding
##ready
best
clos
cond
dark
espe
fore
girl
hold
luck
sell
soci
spea
stra
summ
wasn
carry
clock
force
haiti
impro
large
newsp
often
psych
shape
share
wheel
white
words
##itional
almost
bigger
choose
contin
mobile
portra
rather
reason
sevent
within
already
changed
growing
machine
reality
telling
vietnam
volunte
audience
complete
favorite
millions
community
countries
marketing
materials
wonderful
especially
experience
particular
##bo
##lo
##of
##ats
##bir
##cks
##cul
##eds
##ina
##ium
##ony
##orn
##oss
##ots
##rab
##ude
##urs
##yle
ep
##ases
##haps
##hood
##ites
##land
##load
##ones
arr
cym
dim
emp
est
exc
fig
hit
mag
mil
nor
oth
pen
saw
sun
##allow
##aster
##ision
##ledge
##quake
baby
bone
camp
dang
draw
educ
emot
gets
grew
inno
inte
page
post
redu
rest
surv
test
word
##ground
##itting
among
brand
climb
dream
front
hands
labor
night
study
yield
##ference
allows
compet
engine
finish
itself
killed
middle
needed
others
plants
potent
proper
recent
spread
feeling
finding
history
passion
pattern
perhaps
physics
serious
stories
document
movement
earthquake
incredible
##ew
##app
##arr
##asa
##eed
##gen
##nik
##umb
##ury
##cret
##enth
##full
##ghan
##idic
##ised
##line
##part
##rent
##rodu
##ters
##tube
abs
cop
del
enc
fre
hip
hiv
hor
key
net
nut
oce
opt
pak
tru
typ
web
##alist
##ellig
##ether
##fully
##inary
##itten
##izing
##ronic
##utnik
##where
boys
crow
evol
gent
gone
hosp
huge
lots
meat
prim
safe
size
tool
vers
wait
##ection
##ective
alone
asked
based
books
const
extra
field
fight
group
innov
press
short
smoke
wrote
##ization
afghan
answer
common
compan
consum
dimens
forget
modern
points
report
saying
secret
showed
social
videos
vision
visual
##ckingbir
america
biggest
changes
culture
profess
society
sputnik
statist
strange
subject
youtube
intellig
national
nineteen
pakistan
problems
projects
starting
happening
questions
completely
mockingbir
##he
##hy
##mb
##oc
##to
##up
##bit
##ein
##har
##iar
##ift
##ior
##joy
##mit
##ogn
##oud
##ove
##ped
##ply
##und
ir
##ardo
##book
##iger
##inst
##ived
##ouge
##ples
##room
##ules
##used
##ustr
die
ele
god
ice
lin
mel
mor
mot
rot
ste
ton
ult
wit
##ables
##conom
##ences
##erous
##ither
##ouses
##rical
##vered
aids
arab
base
both
conn
drop
heav
leon
mars
mult
nasa
norm
peak
pole
risk
scre
shut
spot
walk
##atives
##ources
areas
avail
aware
basis
began
birth
death
einst
enjoy
exact
gurdy
hurdy
incre
influ
known
liter
media
model
names
offic
oppos
pract
react
rouge
speed
stage
talks
terms
traff
truly
truth
affect
animal
anyone
artist
compos
concer
contem
conver
corner
econom
except
famous
issues
object
possib
region
simply
##ervation
achieve
brought
convers
current
install
measure
schools
seconds
whether
writing
written
creating
cymatics
directly
einstein
electric
fourteen
hundreds
inspired
interact
learning
leonardo
powerful
signific
teachers
violence
character
dangerous
knowledge
languages
obviously
electrical
generation
performance
##ah
##we
##ann
##bab
##bon
##cil
##edi
##how
##iet
##lam
##man
##mon
##not
##ode
##old
##osy
##rib
##ton
##ung
dy
##ades
##ains
##ants
##apan
##ards
##ashy
##etic
##face
##hmer
##ides
##ighb
##ivil
##ouch
##ruct
##ture
##view
##wide
##yond
ann
ant
arm
ass
bag
cho
chr
dam
fem
fit
fix
gas
hon
inj
lad
los
occ
pan
sad
tot
uns
won
##apers
##asons
##ially
##ieved
##imate
##ising
##olute
##ounds
aren
blue
case
diag
fing
fort
fund
game
gave
legs
nose
oper
park
plus
poem
poet
pull
requ
ship
sick
suic
team
type
wall
wife
york
##ensive
##ention
##ressed
##ughter
##vering
above
apart
below
china
civil
clean
close
colle
crowd
gives
islam
japan
khmer
kinds
needs
peace
sahar
speak
spent
tried
wings
altern
asking
bacter
beyond
bottle
calcul
carbon
disapp
easily
either
eleven
flight
ground
indeed
integr
landsc
mister
mostly
neighb
notice
online
pieces
recogn
repres
resist
rights
spaces
strong
supply
window
##ortunity
allowed
collect
experim
forward
glasses
introdu
largest
letters
musical
popular
publish
realize
somehow
splashy
student
syringe
witness
absolute
approach
communic
homeless
positive
reaching
recently
tracking
training
contempor
molecular
complexity
developing
competition
opportunity
photography
significant
traditional
conversation
##eg
##ex
##hi
##zy
##anf
##bod
##cel
##gre
##ify
##ims
##ink
##ism
##oid
##oun
##uct
##uel
##ugg
##urb
##urt
aw
dh
##aged
##atic
##enef
##iant
##icle
##inci
##iple
##nded
##plic
##resh
##ster
##ulpt
##uses
##ycle
adj
ast
aug
aut
bal
bat
bed
box
boy
dep
fro
fur
hig
isn
lat
lay
lea
non
rad
son
sug
tar
unc
unf
ups
##ality
##board
##bsite
##eared
##ified
##opath
##print
##uries
##urope
aver
cass
comb
conv
coun
cris
dead
diff
disp
drug
fish
harv
heat
lose
male
maps
mash
onto
prom
roof
rule
sent
shot
site
situ
skyd
stem
tied
tune
vall
wish
##owered
##utions
activ
apple
beach
benef
birds
board
broad
cells
class
color
email
exist
faces
fires
funny
grand
heavy
homes
ident
invol
minds
pants
parag
peter
polic
range
seems
signs
solve
songs
sorts
spell
treat
trust
veget
##ematics
anyway
attack
blocks
cambod
cities
damage
europe
facial
higher
houses
immedi
indian
lifest
manage
minute
sculpt
states
target
united
becomes
century
chronic
company
complic
creates
dancing
doctors
exactly
gentlem
interse
laborat
meaning
mission
objects
organic
perfect
respons
saharan
showing
sitting
suicide
univers
walking
website
without
##ationship
bacteria
critical
daughter
familiar
hospital
machines
material
molecule
opposite
original
physical
released
trillion
conscious
direction
education
effective
following
invention
literally
portraits
potential
reference
resources
volunteer
absolutely
difference
newspapers
production
psychopath
scientists
statistics
dimensional
electricity
mathematics
mockingbird
relationship
understanding
##dd
##de
##ee
##ii
##ma
##ns
##po
##wh
##xy
x
##ads
##aff
##cra
##end
##ery
##ext
##ges
##ggs
##ike
##ime
##iny
##ios
##mer
##tle
##uss
##zhe
##zil
ec
ri
sn
tv
##amed
##arly
##bert
##cked
##ctop
##form
##head
##iced
##icks
##idge
##imer
##iven
##lies
##miss
##oura
arg
ate
bod
cat
fol
gal
joy
lap
law
led
log
lou
mov
neg
ran
rev
san
tip
tor
wes
wii
##allen
##alone
##aries
##aring
##ental
##ested
##grees
##gress
##icult
##iforn
##illed
##inite
##ipped
##oming
##orrow
##owing
##phone
##veral
ball
bear
beat
bike
bits
bomb
chem
clin
copy
date
demo
eggs
evil
fair
fear
gene
hell
incl
jugg
mine
nice
note
pair
phil
poll
rate
rock
send
sequ
shap
shop
spir
star
teen
trek
trib
user
uses
wood
##anford
##ctopus
##ipment
##itions
##others
##teenth
accom
adult
airpl
alzhe
bears
bombs
brief
cause
corre
crank
crazy
cross
effic
embra
emerg
final
forms
frank
fresh
instr
kites
knows
least
lucky
mason
neuro
occur
parts
pitch
plane
proud
raise
ready
relig
round
shown
steel
stick
table
tools
touch
train
value
virus
##hmallow
##ifornia
##imately
adjust
applic
babies
brazil
cancer
cannot
causes
center
closer
crisis
dreams
format
geomet
histor
humans
inject
larger
launch
leader
likely
melody
owners
passes
played
poetry
police
pounds
recept
screen
sensor
shared
sister
sphere
strand
struct
summer
taught
though
travel
turned
upload
abalone
artists
average
challen
contain
context
degrees
encoura
figured
finally
further
healthy
himself
improve
justice
leaders
network
noticed
octopus
patient
playing
produce
putting
quality
reflect
regular
results
several
streets
tonight
torture
traffic
turning
version
western
younger
american
bringing
calculus
cambodia
confined
consider
creature
darkness
detailed
disaster
experien
families
finished
function
multiple
neighbor
pictures
position
somebody
stanford
unfortun
wingsuit
alzheimer
concerned
difficult
equipment
introduce
lifestyle
political
published
represent
skydiving
worldwide
california
discovered
scientific
vietnamese
complicated
expressions
immediately
marshmallow
possibility
architecture
availability
contemporary
unfortunately
##ae
##ax
##ef
##fu
##hn
##ne
##ri
##ta
##ze
##acy
##ami
##ana
##ari
##asc
##dro
##edd
##esh
##eth
##flu
##ibr
##ini
##ipe
##irt
##let
##lly
##log
##met
##oes
##oor
##que
##ral
##rop
##thm
##top
##unk
##vid
ax
er
gh
ig
ng
ug
##abol
##aced
##acle
##ateg
##band
##cast
##ches
##edom
##ency
##ibly
##idem
##iled
##ires
##irts
##ison
##itor
##ivid
##like
##mill
##oked
##ored
##ores
##osal
##reme
##rest
##uled
##uous
##vert
##ysis
ang
ban
bob
cla
cyc
dad
fan
fat
gar
hom
hyp
ill
jud
mal
mir
mit
obs
ord
pra
ret
rhy
sal
scr
sil
sou
tad
van
veh
##aling
##antly
##crete
##eases
##ement
##icked
##iling
##inese
##istry
##itary
##itter
##itude
##lines
##lying
##ology
##oting
##ounce
##ource
##plant
##plish
##rared
##rible
##riger
##sters
##ycled
area
bang
bank
blog
cand
cats
cred
depe
diet
door
dots
fold
foll
gold
grav
hang
hate
jets
john
knew
libr
lost
mini
narr
pred
priv
purs
rise
russ
seem
sees
serv
shed
skin
sold
tele
term
tide
tiny
tofu
tree
upon
warm
##aining
##ctions
##iction
##ightly
##ormous
##ounced
##terday
##ubator
avoid
barry
basic
broke
camps
canad
cases
chann
check
chris
colum
compl
david
delhi
earli
early
event
exped
fixed
haven
hydro
leads
lived
loses
loved
males
meant
miles
mount
moves
movie
ocean
persp
photo
plain
prize
quiet
reson
reuse
ridic
rooms
rules
scans
slide
style
super
tempt
worst
##fluidic
##initely
##ivalent
##mission
##olution
##oration
##plicity
##ruction
##ulation
active
actual
afford
analog
appear
attach
bodies
bottom
broken
chance
deeply
driven
empath
epidem
expect
fellow
female
fields
fourth
growth
immune
jumped
lesson
marine
medium
moving
normal
oceans
pocket
policy
praise
princi
remote
rising
robert
safety
select
sooner
sounds
source
spirit
string
switch
temper
topics
unlike
useful
wouldn
##ological
affects
against
arrived
balance
cassini
chinese
circuit
clearly
college
confron
contact
counter
decades
diagram
drawing
driving
embrace
england
evolved
extreme
freedom
hearing
however
imagery
individ
mapping
masonry
members
numbers
parabol
percept
posture
primary
reading
reasons
release
stopped
suggest
surface
systems
totally
towards
vehicle
waiting
willing
airplane
analysis
anywhere
believed
benefits
billions
blocking
climbing
creative
decision
discover
diseases
exciting
follower
generate
geometry
greatest
infected
infrared
invented
japanese
location
military
neurolog
painting
patterns
plastics
portrait
pressure
refriger
sequence
slightly
spending
syringes
thoughts
windmill
broadcast
condition
discovery
expensive
gentleman
happiness
incubator
infection
influence
interview
listening
newspaper
officials
president
recognize
seriously
seventeen
situation
transform
accomplish
businesses
controlled
equivalent
eventually
expedition
experiment
incredibly
instrument
interested
journalist
laboratory
passionate
simplicity
transplant
volunteers
weightless
afghanistan
alternative
communicate
engineering
intelligent
perspective
populations
responsible
temperature
intersection
microfluidic
neighborhood
psychopathic
environmental
##ai
##cl
##go
##mi
##ok
'
##ald
##aws
##ays
##cip
##dom
##egg
##ele
##erm
##eys
##ias
##iff
##iod
##ler
##lex
##mir
##nth
##oms
##ows
##pal
##pea
##pol
##pri
##ray
##tch
##uge
##urf
au
gy
py
vo
zo
##abet
##ager
##ague
##aign
##ails
##akes
##anda
##atts
##back
##beat
##bits
##ceed
##cend
##cers
##cise
##come
##crib
##ctic
##empt
##erve
##esth
##eter
##fact
##ffee
##iest
##ilar
##iles
##imin
##imum
##ingu
##ises
##izes
##lear
##mbol
##mend
##odes
##olum
##omat
##omed
##orts
##osed
##pare
##ping
##ploy
##raph
##rely
##ried
##sure
##tend
##ties
##uals
##uits
##zens
adv
asp
bes
bic
cas
cru
cry
ess
hey
hop
hus
ine
irr
mad
mer
mos
nuc
oxy
pig
shy
sor
tit
tow
unl
wea
zim
##acity
##acles
##aging
##aking
##asant
##ascin
##asing
##avior
##babwe
##craft
##elebr
##ening
##epend
##etime
##ients
##igate
##itted
##monia
##ograp
##onent
##oring
##ounts
##owned
##peace
##round
##urban
##ustry
##verty
adam
alar
alth
anth
ants
arms
asia
auda
auth
axis
bind
bord
boss
chip
coal
deli
desk
dest
disc
drag
drum
enem
fast
file
flat
gift
glor
gore
hans
hole
hurt
icon
iron
kept
leds
lone
mirr
murd
musc
nerv
pack
path
plug
prol
quar
rand
rece
role
sacr
sand
seed
slab
soul
span
ster
sust
tape
tens
tick
vibr
vill
vote
west
wire
wise
wond
##agious
##alized
##ancial
##ession
##iented
##ipping
##ortion
##osynth
##priate
##racted
##teries
abegg
achie
admit
analy
apply
austr
blind
bound
breat
brill
comic
daily
drive
drugs
dynam
ecosy
ended
estim
faced
fifth
folks
freef
frogs
fully
genet
girls
globe
honor
horiz
likes
loads
lower
mania
match
medic
metal
minor
moral
mouth
nepal
north
orion
paint
plans
poems
price
prote
serve
shall
shbab
shock
smart
steps
stock
storm
surpr
tells
theme
topic
twice
users
walks
walls
weeke
##amental
##eration
##igation
##ilities
##iminate
##itation
##ologist
##ructive
##ustrial
accept
adults
advert
amount
august
beauty
borrow
brains
breaks
celebr
choice
coffee
collab
cracks
decade
decide
dozens
easier
enable
ensure
facing
factor
failed
fascin
faster
figure
gather
gotten
highly
honest
improv
includ
infect
inspir
instit
invest
invite
joined
ladies
leaves
legacy
namely
nation
nobody
outlet
oxygen
period
picked
pushed
raised
rating
reduce
refuge
regist
return
rhythm
rivers
rocket
saturn
saving
scream
series
shaped
starts
symbol
thanks
valley
violin
walked
wheels
winter
##ordinary
address
ammonia
anybody
bicycle
bottles
burning
central
choices
climate
columns
connect
correct
details
distrib
dropped
earlier
elected
excited
explore
feature
frankly
general
greater
hardest
harvest
herself
highest
holding
husband
islamic
keeping
killing
library
moments
morning
nervous
nuclear
partner
poverty
powered
private
provide
seventh
similar
sixteen
smaller
spreads
stretch
studied
summary
survive
sustain
teacher
trained
twitter
typical
warming
workers
##ification
although
announce
appeared
becoming
behavior
brothers
campaign
channels
combined
concrete
convince
cultural
distance
economic
eighteen
emotions
enormous
entering
entirely
epidemic
examples
fighting
horrible
humanity
hydrogen
increase
independ
industry
injuries
internal
involved
landscap
lifetime
musician
negative
normally
notebook
oriented
particip
pointing
practice
previous
products
proposal
provoked
solution
speaking
specific
standing
surround
teaching
thirteen
ultimate
watching
whenever
zimbabwe
##ertainment
apartment
audacious
awareness
brilliant
childhood
currently
designers
ecosystem
efficient
eliminate
emotional
financial
followers
footprint
headlines
hopefully
landscape
molecules
mountains
ourselves
paragraph
pollution
producing
professor
ridiculed
solutions
yesterday
activation
afterwards
background
contagious
continuous
definitely
expression
greenpeace
industrial
integrated
interviews
neurologic
photosynth
principles
productive
revolution
sculptures
successful
ultimately
university
vegetables
whiteboard
consciously
controllers
controlling
destructive
documentary
effectively
fundamental
innovations
interactive
observation
probability
applications
installation
particularly
technologies
transmission
architectural
computational
entertainment
extraordinary
relationships
##af
##bb
##bi
##bm
##cd
##dy
##fl
##ls
##pa
##rs
##sp
##wr
##zz
q
##ael
##alk
##ata
##bie
##chw
##den
##des
##ema
##ett
##exp
##gin
##gth
##hal
##hed
##hod
##ino
##itz
##lew
##lin
##lta
##lyn
##mar
##med
##min
##nda
##nic
##orc
##oty
##oub
##par
##rah
##rap
##raq
##rix
##sec
##uls
##ups
##urp
##uts
##vin
##xas
##xic
hi
pa
ru
ur
ut
##acas
##acon
##ader
##adus
##aked
##amin
##apse
##atur
##ball
##bitr
##cipl
##cope
##crip
##cuss
##dden
##earl
##edon
##egal
##ened
##eral
##erge
##esia
##esis
##ette
##gery
##hand
##hany
##hern
##hman
##hold
##iano
##iers
##ighs
##ills
##isco
##isms
##itic
##itiz
##itra
##lass
##mals
##mark
##mber
##mite
##more
##oded
##ogen
##oint
##omin
##osen
##oton
##ownt
##pair
##quid
##raid
##rame
##seen
##soci
##soft
##stic
##tell
##tion
##uary
##ubes
##udes
##unal
##unes
##wall
##wear
##what
##yard
ain
alt
atm
ben
bow
bug
bur
cad
din
div
dog
dry
due
eth
flu
fra
ger
hob
hol
hun
ibm
jan
jes
kal
ken
kil
lic
lie
lim
nan
nar
nav
ner
nic
obl
odd
pad
phr
pus
reb
ren
rub
sea
spo
suc
sus
swe
sym
tea
tom
tro
veg
ves
voc
wel
wis
##agers
##ances
##angle
##antic
##arian
##arily
##arity
##arium
##assed
##asure
##atell
##cence
##cient
##eding
##ersed
##esign
##essed
##groom
##icals
##idden
##iding
##inson
##istic
##licop
##light
##neath
##nored
##ometr
##ouble
##owers
##phere
##point
##poles
##ption
##rayed
##rench
##thern
##ulate
##umbai
##urses
##venue
##wined
##ysurf
alph
ange
appl
arpa
arts
bath
boom
born
busy
cage
caps
card
cast
cave
cere
chap
chat
clip
club
cold
crew
cups
dens
depr
ears
edge
ends
epip
fant
farm
fash
fill
fine
flex
gall
gard
grat
guts
hair
holy
iraq
jail
jobs
kick
kiss
kite
kore
lady
late
laug
lawy
lens
magn
mart
ment
mich
mist
mode
mood
mort
near
ngos
none
nuts
orch
prep
prey
pron
pump
pure
puts
quit
race
repe
repl
ring
rope
rout
scan
scot
seat
shel
sled
sony
sout
spin
suff
swat
swed
text
trip
tube
vari
vent
vest
vict
wave
wear
wedd
whom
wild
wipe
yose
zone
zoom
##abetes
##allows
##anding
##ddenly
##ertips
##icking
##idence
##ighted
##ionals
##isible
##isions
##itable
##iteria
##liance
##mother
##ording
##othing
##oughly
##rapped
##ration
##rogram
##stance
##urally
accel
added
ahead
andro
angry
asian
aspir
bills
black
bread
brown
bunch
candy
cards
catch
citiz
clips
cover
cruel
delta
domes
domin
downt
dying
encel
enemy
equal
faith
falls
fract
frame
games
gates
goals
gotta
habit
heads
hedon
honey
hotel
joyce
kelly
kevin
lakes
liked
limit
lingu
links
loves
magic
maint
mansp
mourn
moved
naked
named
offer
oprah
pearl
piano
print
proof
punch
pyram
recru
relax
roads
rural
satis
satur
screw
scrot
seeds
separ
shell
shift
sixth
sizes
slabs
solar
sorry
spark
spect
squat
squid
staff
stain
sters
stood
surge
teeth
texas
total
tough
tower
trade
trash
trees
truck
uncom
views
viral
voice
volum
wants
waste
weren
worry
worse
youth
zones
##arkable
##bitrary
##ificial
##itative
##omantic
##ossible
##ression
##ulating
action
afraid
anesth
approx
arrive
assess
associ
astron
author
banned
begins
beings
belief
biolum
bright
burned
button
caused
chosen
claims
clinic
compar
corpor
covers
credit
cycles
deeper
define
determ
dinner
dollar
eating
embarr
emerge
employ
engage
equals
essent
extent
famine
farmer
feeler
finger
forces
fortun
graves
groups
habits
hearts
helmet
indoor
insane
kaland
killer
laptop
latest
lights
liquid
louder
lowest
manias
mapped
masons
mating
matrix
method
mirror
missed
models
motion
mouths
mumbai
necess
needle
nurses
paragl
pencil
photos
placed
poland
preach
precip
prince
prolif
pursat
radios
random
rarely
remain
satell
search
shores
spells
spider
statue
stress
studio
surviv
talent
techni
trains
trials
unseen
valves
vessel
viewer
whales
winner
wisdom
wright
writer
##irements
##izations
##ographer
##ographic
##ventions
##ysurfing
ability
account
african
answers
anymore
attempt
augment
backing
bedroom
bombers
capable
caracas
centers
cheaper
clarity
compare
curious
cutting
dancers
describ
despair
devices
distant
drowned
effects
emotion
empathy
explain
factory
failure
fashion
focused
fortune
gravity
harness
helicop
helping
horizon
ignored
illegal
imaging
indians
invited
jumping
killers
lessons
luckily
managed
married
massive
michael
minimum
missile
moonies
muscles
options
payment
politic
prototy
pulling
pushing
refugee
remains
revenue
reverse
richard
rotates
roughly
service
shouldn
singing
speaker
strateg
studies
succeed
surgery
targets
tracked
trusted
village
violent
visible
washing
weavers
wedding
welcome
windows
winning
##inescence
accepted
artistic
birthday
blogging
capacity
citizens
clinical
collabor
collapse
compared
confront
consumer
continue
converts
criteria
cultures
designed
diabetes
directed
director
dominant
download
downtown
epiphany
existing
expected
exponent
focusing
followed
friction
friendly
globally
hardware
homework
identify
incident
intended
juggling
laughing
miniatur
northern
official
operator
optometr
ordinary
parabola
particle
possibly
programs
properly
property
reaction
received
recycled
redesign
reducing
register
relative
releases
reported
robotics
selected
sleeping
somewhat
southern
standard
suddenly
supposed
survival
tadpoles
tedsters
trekking
tribunal
uploaded
yosemite
according
americans
animation
announced
appliance
arbitrary
attention
available
bodygroom
centuries
certainly
chemicals
chemistry
collected
collector
computers
consumers
continent
creatures
deprogram
designing
dimension
disappear
empowered
enceladus
encourage
estimates
extremely
formation
healthier
heartbeat
household
impressed
including
increased
injection
inspected
interface
invisible
linguists
microsoft
naturally
newsprint
organisms
paintings
pakistani
parkinson
realizing
religious
riverside
scientist
sculpture
secondary
sixteenth
somewhere
spaceship
stainless
structure
substance
surprised
technical
teenagers
tradition
transcend
transpare
treatment
typically
universal
witnessed
anesthesia
conditions
conference
directions
fingertips
freeflying
impossible
individual
innovation
innovative
inventions
landscapes
leadership
narratives
originally
perception
physically
previously
proportion
protection
receptacle
remarkable
skysurfing
temptation
transition
underneath
understood
communities
consumption
containment
disappeared
discovering
experienced
fascinating
grandmother
improvement
planetarium
potentially
preventable
underground
accomplished
construction
distribution
intelligence
measurements
mockingbirds
organization
requirements
civilizations
consciousness
professionals
proliferation
representation
weightlessness
bioluminescence
##ek
##ez
##ij
##nc
##oe
##afe
##amb
##bay
##box
##ckn
##cue
##gae
##gra
##hry
##idi
##iju
##ils
##imp
##ca
##ha
##la
##oh
##py
##sh
##tc
##vs
##yr
##ags
##ams
##apt
##arp
##dle
##ees
##hat
##inc
##ius
##ker
##may
##ncy
##nis
##oon
##oto
##rax
##rew
##ruv
##uns
##unt
##upt
##wor
##yal
##zen
bf
ii
pc
pu
tu
##aded
##aint
##anes
##anta
##apsh
##arti
##auts
##avey
##cdon
##cery
##cils
##conn
##dget
##ects
##erer
##etti
##fort
##gedy
##gths
##hmed
##ibet
##igen
##iler
##illy
##imal
##itha
##iver
##life
##nedy
##olen
##onna
##onyt
##oors
##oots
##oran
##orge
##ours
##pers
##pper
##pril
##quit
##rain
##reci
##road
##rose
##sect
##ship
##uela
##ulbs
##urab
##urse
##usha
##veil
##viet
##vill
##yden
##zing
abu
anc
apt
awa
bon
##gl
##wl
##ama
##ati
##bro
##bud
##pan
##pet
##ses
bh
ip
##abad
##amer
##buds
##enes
##gers
##mans
##onic
##oric
##phan
##uing
##yles
boo
ded
dot
etc
fab
fac
gro
hur
ign
ing
irs
isa
jer
jup
kar
lam
mac
mao
mim
mis
nab
nap
ngu
nok
nom
opi
pal
pil
poo
por
pou
toy
tur
tut
uae
und
usa
var
vit
vot
vul
wat
wax
##about
##acent
##apore
##appro
##apsed
##asive
##astic
##axies
##berer
##bersp
##cisco
##cknow
##clock
##cracy
##dgets
##duate
##edded
##ephal
##erish
##estra
##flies
##hetti
##icksh
##ifted
##ights
##ilton
##impse
##inion
##inity
##inter
##itzer
##ixels
##miere
##ndane
##onest
##qs
##ua
##alm
##bel
##gie
##hol
##pat
##pid
##ret
##zac
##zed
ye
##aker
##aria
##aser
##lled
##onom
##pond
##sequ
##tery
##whel
gor
gov
mam
pum
rid
sha
##abase
##ators
##cerpt
##cohol
##eless
##fting
##iview
##maker
##ously
##pback
##ports
##tendo
##teran
##tured
##ufact
##umann
##ungry
##useum
##ushed
##ville
##ycats
abre
ages
alma
asse
bart
belo
bent
bird
bite
blew
bowl
bush
carn
cath
clog
coca
code
cust
dece
dial
diam
dogs
doub
dude
ebay
evac
exer
fell
folk
ford
fran
fung
garb
geez
geys
gray
guns
gyre
hall
held
hier
hire
hits
hook
imit
inch
inev
init
ipcc
ital
jill
join
##atio
##eros
##gage
##ndon
##port
##quen
##ques
##rage
##uild
cub
haw
ink
lag
tag
tri
upt
##andem
##dsour
##erate
##erred
##esity
##estro
##inger
##ivity
##usion
bust
canv
cubs
feed
gear
goog
hadn
hide
hong
horm
june
jung
kidd
lank
lend
lies
limb
linz
load
loss
madr
mail
mead
meal
melt
mold
newt
nike
node
ohio
paid
pink
pour
purp
rach
radi
raqs
rays
reco
rice
runs
salv
semi
shit
shor
slot
snow
spee
stap
sten
suck
suns
susp
ther
thom
toes
tons
tuck
turb
ugly
unin
vast
virt
whoa
wide
wing
##acters
##affold
##aganda
##alling
##anging
##apshot
##arctic
##ashmir
##atures
##asp
##dog
##iac
##iev
##izz
##acks
##alia
##ania
##apor
##cium
##eine
##enez
##fast
##mine
##opod
##rend
##sole
que
sex
sri
unw
ver
via
##alore
##ashes
##conds
##erves
##otine
##stage
agre
coat
east
golf
hasn
hobb
loan
moms
obst
pond
pref
prem
suit
tact
##acific
##bridge
##broker
##chwald
##cycled
##ercial
##estone
##ffeine
##ickers
##iences
##ijuana
##imited
##inters
##ishing
##itchen
##itudes
##izzard
##lining
##manent
##market
##nostic
##omeday
##ommend
##onesia
##orsesh
##ospher
##phones
##ramble
##ructed
##secure
##stream
##tellig
##twined
##uality
##uitive
##upting
##urably
##urence
##vision
##ycling
aband
abreu
admir
agent
ahmed
algae
alive
alpha
antib
april
argue
arose
atoms
avian
awful
bacon
beast
ee
##assa
##eped
##nces
##odge
##ogue
##oret
##veli
mix
##anges
##estor
##itals
##itars
##rease
##stals
cure
fiss
grid
hars
lets
loop
pigs
reci
vint
writ
##acular
##anical
##apital
##assing
##atches
##cience
##enties
##urance
belly
binds
birke
blogs
bones
burns
calam
capab
cared
caves
chair
chalk
chant
chart
chose
click
cliff
cloth
cloud
codes
coinc
concl
congo
copyr
crabs
craft
crane
crude
curls
davey
dedic
delay
doors
dried
drops
drumm
drunk
eaten
edges
eiger
enhan
enter
evacu
fails
fence
floor
flown
forth
fulla
fungi
gehry
giant
gonna
grace
grade
grasp
grass
guard
guide
hello
heros
hired
horse
hyper
impot
ineff
isaac
##meg
##adow
##berg
##pert
##wise
fib
flo
ski
zip
##ertil
##etics
##etric
##mates
##rated
##ubber
grab
idol
mark
pike
rain
reve
sets
sket
spag
unac
##iances
##osable
##perate
##ulated
belie
brian
cents
dates
finds
graph
keeps
knife
knock
koran
lands
locks
louis
magaz
malaw
manip
march
marry
mcdon
miner
mines
multi
nails
nanot
nerdy
nokia
notes
novel
nurse
orbit
outer
owner
panel
paran
party
plays
poets
polar
ponyt
pouch
pound
prete
prior
prope
prost
prove
pumps
quant
quote
radio
rates
ratio
rearr
reass
redef
renew
resol
revel
risky
roger
route
royal
sadly
sales
sanct
santa
saved
scene
scope
score
seize
ts
##ctor
vac
##eenth
##iency
##ifice
##inced
calm
crab
dome
edit
jaws
soil
sons
toys
##idered
alarm
award
boats
bucks
categ
clash
craig
feels
films
kills
ninth
regul
sells
sharp
ships
shirt
shoes
shops
skies
solid
spain
spend
spoke
spook
stren
stuck
sucks
sugar
suits
sunny
sweet
teles
tenth
tests
threw
thumb
tibet
tiger
titan
toxic
track
traum
trick
tubes
types
unexp
unple
upper
urban
urged
usual
venez
vinci
visit
watts
whose
worth
woven
zeros
##erglass
##faction
##idental
##ilation
##isation
##ivation
##manship
##mendous
##ography
##othesis
##patient
##phanage
##ractive
##reciate
##respond
##writing
acknow
agenda
amazon
anthem
arctic
argent
arrest
arusha
assemb
awards
barbie
basket
basque
beside
bharti
binary
bought
brands
bridge
brings
bucket
burrow
buying
canada
candid
career
carved
casual
caught
cephal
cereal
charge
chitra
christ
clocks
closes
colors
columb
cradle
custom
deaths
democr
depart
desert
devast
dismay
divers
durban
editor
effort
embody
encode
entrop
estate
ethnic
exists
explos
fairly
fertil
filled
filmed
forced
forest
former
france
french
fright
frozen
funded
garage
garden
geolog
george
german
gorill
grades
hanson
hayden
height
helped
heroes
hidden
hoping
hunger
hungry
hypnot
iconic
infant
intent
iphone
island
itunes
jesuit
johnny
jonest
juggle
kicked
kinder
labore
latent
lawyer
lehman
levels
lifted
linked
liveli
london
lovely
mainly
manner
margin
mashed
masses
motorc
museum
nabati
narrow
native
networ
newton
nights
nutmeg
opened
orange
pandem
patent
phrase
pilots
pixels
planes
player
plenty
poison
poured
powers
preced
prefer
prozac
recipe
refuse
remind
replic
rescue
review
rotate
rubble
rupert
scenes
seized
seller
shapes
shirts
shoots
signal
signed
societ
solves
soviet
specif
speech
spoken
square
squirt
stands
stayed
steril
stolen
stones
stores
strips
struck
summit
surely
sweden
swings
tadema
tennis
theory
thirds
thrash
traces
transl
trends
uganda
unless
unlock
unsafe
unsign
unveil
upside
values
versus
voting
vulner
washed
wasted
waters
weekly
weighs
wisely
wooden
yellow
##aminated
##atically
##bererana
##berspace
##ceptable
##cription
##gressive
##itioners
##orseshoe
##ospheric
##rendered
##wardship
abandon
actions
alcohol
amounts
analyze
ancient
angeles
anthrax
applies
aptamer
arrival
attacks
austria
automat
battery
beloved
benefit
besides
biology
blessed
boiling
borders
budgets
calcium
calling
capture
cardiac
careful
chapter
cherish
circles
clients
clogged
closing
compass
compete
compose
concent
consequ
contest
contrib
council
crashes
craving
crucial
cymatic
dangers
dealing
deliver
density
depends
discipl
discuss
earbuds
economy
efforts
enjoyed
entered
equally
equator
excerpt
eyewear
failing
farther
females
fingers
flowers
flowing
folding
forcing
foreign
forever
forming
futures
garbage
genetic
gentler
glimpse
grander
grocery
guitars
habitat
heavily
hitting
hobbies
hormone
humming
immense
inappro
indoors
influen
initial
injured
insides
inspire
january
journal
judging
jupiter
kashmir
kennedy
kidding
kiloton
kissing
kitchen
leaving
letting
license
maestro
magical
mammals
manager
matters
medical
meeting
memetic
mention
microsc
missing
monitor
mothers
mundane
nations
nowhere
obesity
opiates
opinion
optical
origami
pacific
parking
philips
poorest
pouring
precise
printer
promise
protect
protest
provoke
purpose
pyramid
quarter
raising
ratings
rebuild
recruit
reduced
refined
regions
replace
reports
request
respect
respond
russert
scrotal
seattle
selling
sending
session
sevitha
shelter
shipped
shorter
shuttle
signing
sisters
solving
someday
sources
sprayed
staying
steeped
strands
studios
surgeon
tactics
tedster
tension
theoret
tragedy
trouble
tucking
uniview
valleys
veteran
victims
visuals
wearing
weekday
weekend
whaling
wonders
wrapped
##affolding
##ibilities
accounts
addition
affected
aircraft
allowing
ancestor
androids
archives
arteries
aspirate
attached
backyard
birdsong
blizzard
buchwald
caffeine
canadian
captured
cassette
climbers
clothing
colorful
compiled
composed
composer
congress
constant
contract
covering
crystals
database
daylight
december
decrease
depended
designer
dialogue
diameter
drawings
election
embedded
engineer
erupting
estimate
exercise
facebook
features
finalist
forehead
fraction
galaxies
graduate
grafting
guessing
hedonism
humpback
identity
imagined
imitates
insecure
interven
invasive
investig
kalandar
landings
laurence
listened
madrassa
magazine
maintain
majority
manufact
mcdonald
measures
memories
mentally
ministry
minority
momentum
murdered
navigate
nepalese
nicotine
nineties
nintendo
occurred
overwhel
passions
patients
pleasure
policies
ponytail
precipit
premiere
prepared
prepping
preserve
prevents
produced
profiles
progress
prostate
proteins
quarters
religion
repeated
requires
resisted
romantic
rotating
saturday
schumann
scramble
separate
services
smallest
snapshot
squatter
stencils
stopping
strategy
supplies
swallows
switches
theremin
thrilled
throwing
tomorrow
treating
twenties
vacation
weekends
wondered
writings
##apitalized
##telligible
achieving
agreement
ahmedabad
antarctic
audiences
australia
autograph
backwards
bangalore
batteries
borrowing
breakfast
breathing
carbonate
carefully
challenge
collapsed
colleague
collision
committed
companies
complaint
composers
computing
confident
connected
converted
convinced
corporate
crowdsour
decisions
declining
democracy
depressed
described
desperate
dispersed
displaced
donations
ecologist
economics
educating
emergency
employees
engineers
evolution
expanding
fantastic
favorably
fifteenth
fireflies
firsthand
fractures
francisco
functions
generated
gentlemen
graspable
groupings
harvested
horseshoe
hospitals
improvise
incidence
indonesia
inspiring
instantly
institute
intention
interconn
intuitive
jonestown
limestone
magnitude
manspaces
marijuana
miniature
movements
narrative
neighbors
obstacles
operating
orchestra
organized
orphanage
otherwise
paperwork
passports
perfectly
performed
permanent
plaything
positions
practical
predators
premature
pressures
prevented
projector
promoting
prototype
radiation
reactions
realistic
recommend
recycling
reduction
regularly
resonance
resonates
returning
sacrifice
satellite
screaming
sensitive
sentience
seventies
shirtless
singapore
spaghetti
splinters
standards
strangely
supported
survivors
teammates
telephone
telescope
therefore
traveling
undermine
unlimited
venezuela
visualize
wondering
accidental
additional
admiration
affordable
aggressive
apartments
appliances
appreciate
artificial
assessment
astronauts
biological
categories
cephalopod
challenges
characters
collective
collectors
coloration
commercial
comparison
concerning
confronted
connection
considered
constantly
controller
converting
corrective
correspond
cyberspace
department
depression
determined
diagnostic
disappoint
disposable
distracted
downcycled
efficiency
electronic
encouraged
engagement
everywhere
explaining
fiberglass
generating
geographic
historians
hypothesis
importance
increasing
inevitable
influences
irrigation
livelihood
management
measurably
obligation
outpatient
pakistanis
paraglider
peacefully
personally
playground
politician
pretending
processing
pronounced
propaganda
psychology
randomness
reassuring
registered
renewables
represents
resistance
roundabout
situations
solidified
spacecraft
standpoint
supporting
surrounded
techniques
television
tremendous
unexpected
unpleasant
vegetarian
volumetric
washington
achievement
acknowledge
advertising
appropriate
association
atmospheric
authorities
circulation
collaborate
complaining
composition
constructed
conventions
deprivation
devastating
development
dimensioned
embarrassed
emotionally
essentially
experiments
exploration
fortunately
frightening
functioning
generations
genetically
handwriting
helicopters
importantly
independent
individuals
ineffective
institution
interaction
intertwined
measurement
miniaturize
necessarily
optometrist
perceptions
personality
photosynths
programming
regulations
researchers
scaffolding
specialized
spectacular
stewardship
stockbroker
surrendered
tembererana
traffickers
transformed
ventilation
alternatives
broadcasting
capabilities
complexities
consequences
conservation
experiencing
independence
integrations
intelligible
laboratories
photographed
photographer
presentation
preservation
productivity
professional
quantitative
refrigerator
registration
satisfaction
specifically
surroundings
technologist
transparency
unacceptable
unsignalized
automatically
communication
documentation
exponentially
gratification
improvisation
inappropriate
installations
international
intersections
manufacturing
practitioners
significantly
statistically
technological
theoretically
uncapitalized
visualization
contemporaries
identification
unintelligible
##aeh
##ecd
##hai
##oka
##ovs
##aehr
##afro
##aoka
##biot
##esla
##flix
##flow
##glob
##grad
##hatt
##loto
##oker
##ovsk
##quez
##ubla
##walk
##yrat
cnc
koh
ruf
ugh
##adata
##afrol
##ahidi
##aires
##alibr
##pret
##time
sni
##amboo
##anesh
##backs
##balls
##bulbs
##cribe
##cuits
##erers
##ernic
##forms
##grade
##hatma
##haust
##ipino
##lexes
##lleys
##lotov
##ludes
##minal
##odgep
##oturf
##oubad
##ovsky
##ptoms
##quenc
##reepy
##riage
##ridge
##rodes
##romat
##ronda
##sects
##ships
##swana
##uette
##walls
##wlers
##ximum
##zania
arvs
axes
benz
bonn
bubb
bunk
buzz
cows
cruz
cycl
eiff
erst
frag
galv
gamb
garn
ghet
gyps
haze
hipp
homo
hopk
hunk
jami
judg
junk
karn
lamp
lizz
lobb
mesh
narc
paul
pesh
puke
puss
puzz
riot
soup
sync
troj
trop
tsun
tuch
turk
unwr
vasc
vert
##ackson
##anghai
##aptive
##awatts
##biotic
##ceiver
##chwitz
##cipher
##cromed
##ealing
##alde
##erns
##hyde
##maid
##pocr
##adays
##affir
##ipend
##while
mike
sexy
unma
##ecdote
##emeral
##enberg
##enders
##engths
##eridge
##ermans
##finger
##gantly
##global
##handle
##igenix
##iguous
##imeter
##iosity
##ipened
##iscipl
##itydog
##killed
##leader
##metric
##mitted
##ndency
##odesic
##ogenic
##olumne
##onomic
##petual
##ploded
##pocrit
##polate
##rammar
##rapist
##rients
##rubber
##ryonic
##shadow
##taking
##uaries
##ulsion
##untary
##vember
##verely
adams
aesth
alike
altog
altru
amino
angel
angle
arias
avert
baehr
beeth
blows
blunt
boxes
brook
cerem
cheek
claim
craze
crews
dhruv
diego
eager
essay
evils
fatal
fatty
ferns
flags
fluid
froze
galap
gallo
gears
gravy
hairs
halls
harsh
holes
holoc
homer
homin
hooks
hurts
##greg
awk
ghi
##andhi
##exper
##inkle
##lynes
##phoid
##uctor
asta
astr
burt
rims
unex
zanf
##ifying
##ueling
##urtles
asthm
autom
inbox
inlet
italy
jerse
jesus
judic
jungf
kilow
kubla
lacks
lapse
laser
lobby
macro
mercy
merit
merry
miser
mixes
mosch
nobel
nodes
obama
paddy
piled
pills
poppy
porco
proxy
psalm
queue
rainy
ringt
rubin
rufus
sadua
salad
scrap
scrub
seism
shelf
sleek
snipp
sorce
spray
suspe
sweep
telep
tiles
tires
tours
tribe
tsung
tutor
unbel
uneth
unwra
utero
vague
vitro
voted
votes
wires
zamin
zanes
##alously
##chasing
##ctangle
##develop
##emption
##ernicus
##gitydog
##gregate
##ievably
##inement
##ingency
##isphere
##markets
##marking
##ogenous
##aha
##ahn
##twe
##zwe
##arah
##code
##ounc
##ungu
awe
##amaha
##irton
##lades
##monic
##monst
##ribut
##urzwe
##zungu
bagp
bags
kahn
ladd
laws
lung
rani
##anners
##ergman
##hahidi
##ladesh
##olored
##weight
allah
crawl
doses
facil
gasol
lemon
occas
panor
pulls
sarah
scrib
sides
smold
treeh
unsur
yards
##astruct
##gressed
##isingly
##oricksh
##orywall
##quitoes
##reshman
##ributes
##riction
##ronounc
##rubbery
##science
##stances
##tweiler
##ucified
##uggling
##urzweil
##uthiers
##uvering
##veraged
abroad
achiev
agency
alarms
arises
assets
astero
awaits
azungu
baking
beaten
beetho
biling
blader
bodily
borden
border
bosses
bowing
briefc
canvas
carpet
castle
catast
cathed
cattle
chains
charts
cranky
creepy
crises
cruise
crying
deadly
##oils
##amped
##books
##foils
##iliar
##rooms
irim
loud
soto
##culiar
##ederal
##houses
##panied
##roomed
advan
laund
linus
melts
morse
motiv
steam
steve
ultra
##amiliar
##ampeded
##chouses
arabic
degrad
denser
depend
deploy
devils
dhruvi
dispro
divide
divine
double
doubts
drench
driver
eiffel
epigen
evapor
extend
fabric
facade
fences
fitted
fixing
flamed
flirts
folder
galile
gallup
garnie
geezer
glaser
gloria
golden
googly
grandi
grayed
grazed
gypsum
hallel
harsha
herbie
hiding
hilton
holoca
homage
hyster
impuls
inclin
injury
karnat
knocks
korean
league
lenses
linger
lizzie
losses
madame
maggie
malawi
malign
marsal
martyr
melted
mended
milton
motive
multim
muscle
myster
nested
observ
obsole
occurs
##ewel
##heat
##ocol
##ophy
##xury
##ewart
##ewild
##gency
##ocide
##upied
##upine
##uxury
boob
bury
dumb
geoc
rumb
##anteed
##cripts
##ealist
##leseed
##omised
##osophy
##umbent
absor
bushy
freel
freem
frequ
jewel
lifto
toolk
washy
##atizing
##ccupied
##discipl
##introdu
##rentice
##roduced
##romised
##thewild
##urgency
backup
copies
delive
encout
exceed
gently
geocod
luxury
packed
palace
peshaw
peyrat
predic
predis
priest
primed
prints
prison
promot
queues
quills
regret
reheat
remove
reused
reveal
ricksh
rolled
rotted
rushed
russia
salads
sanity
satisf
scotts
screws
seemed
sentim
sequel
settle
shadow
shocks
shortw
sights
silent
silver
skirts
snails
sparks
spiral
spooky
starve
stocks
stored
storms
strata
stripe
stupid
##bird
##hony
##murs
##roof
##cules
##onium
##oscul
##ossal
##phony
##proof
foss
penh
penn
sunr
##olites
##ophony
epith
estab
eston
feeds
opium
penel
phony
resta
spots
therm
vocab
##allowed
##mitting
##ouncing
checks
cheery
colony
drawer
empire
evolve
fossil
lemurs
lifebo
noises
styles
submar
sucked
suffoc
suicid
supers
tablea
tailed
tenths
termin
thighs
thomas
thresh
titles
trauma
triage
tribal
tribes
tricks
triple
truing
tuchus
typing
uncles
unders
unique
unsure
unsurp
uptown
vastly
veggie
victim
vitruv
waging
walden
walker
widely
witter
workah
writes
yamaha
yields
##acophony
##afrolics
##aldehyde
##alibrate
##chanical
##cromedia
##ealistic
##erleader
##esterday
##euvering
##ferences
##harmonic
##haustion
##idescent
##imulated
##iography
##iseconds
##isioning
##chio
##mble
##onym
##scow
##xgen
rio
##cchio
##ontal
##rable
##scape
##yxgen
feds
##ending
##ienced
##ogging
##onymus
audio
chief
condi
dunes
grief
holds
kidna
picks
squaw
wider
##etrable
##rocchio
##venging
marble
moscow
oyxgen
poorly
raging
relief
sensib
squawk
straps
unused
volume
##ensitive
##ivatives
##ladeshis
##lynesian
##misphere
##occupied
##orcupine
##osculate
##oubadour
##phemeral
##pronounc
##quencies
##rastruct
##romantic
##secution
##standing
##ulsating
##umpsters
absence
acceler
advised
arguing
aspects
astaire
autonom
awkward
baggage
bagpipe
ballard
bangles
banking
barking
beaches
bedside
beliefs
benzene
bergman
blowing
bombing
bonnier
boombox
bowling
breatht
busiest
buzzing
cadence
camping
cancers
capsule
casting
chances
classed
classes
classic
cleaner
cleanse
closest
colleag
colored
combine
##aik
##ika
##brid
##bris
##gged
##irlp
##rika
##uels
dye
##chaik
##unchy
barb
defi
eats
hotd
tiev
valu
virg
##ivalit
##otonin
eyesp
fuels
lotta
lowly
memes
rival
splat
troph
##atchels
##ectured
##irlpool
##ivalito
##omising
##rikaans
anglic
barbar
buyers
cheese
circle
circum
dances
danish
debris
ganges
hotdig
hotels
hybrid
memory
scared
southw
splits
tchaik
temple
tempor
trophy
##idential
##ountered
bragged
cellars
charged
cleared
comfort
conclus
condoms
console
consume
convert
courses
credent
cruelty
crunchy
cycling
cyclone
dealers
decimal
declass
deepest
defense
defused
demonst
deserts
deserve
digging
dispers
dressed
drummed
dynamic
educate
emulate
enemies
entropy
ethical
evolves
extrace
eyespot
falling
farmers
fellows
filitra
filling
##airs
##enny
##lene
##pora
##tiet
ern
psi
##ierce
##orpor
##othed
##sling
##tieth
##tling
##ugene
##wives
cyan
moth
redd
utop
##aspora
##itches
##leneck
##stairs
booth
clear
doubt
faded
flair
flier
gyres
jenny
redid
trend
wired
witch
##iercely
##mingway
achary
dining
ernest
eugene
paying
propon
reddit
scales
sector
spring
ticket
traded
uptake
utopia
##entacles
acharya
calming
cocaine
cyanide
farming
fishing
fissure
floated
freeman
frubber
furries
galapag
galileo
gallons
gallows
garniez
germans
glorify
glowing
golfing
gorilla
grammar
groomed
hangers
hanging
happier
harvard
hawking
herbert
holiest
hominem
hopkins
impacts
inexper
insects
instrum
invaded
involve
italian
jackson
jogging
joining
juggler
jungles
justify
laborer
lankans
largely
##olyn
jee
lah
##anese
##ffiti
##wired
aval
eyeb
hamb
harm
jeez
khan
laid
##agoric
##anches
##banese
##itiful
##yoming
chips
costs
drain
droid
flips
initi
joint
modic
murdo
obese
penis
quake
releg
risks
safer
stays
##magoric
##ughters
##ummings
avalan
biomet
bomber
drople
esther
gandhi
hambur
intake
joints
lahore
messia
mixers
respon
breaker
carolyn
charity
circled
conflic
conserv
distort
distric
emerges
eyebrow
harangu
harmful
lending
lengths
liquidy
mahatma
manhatt
markets
marries
matches
matured
maximum
meadows
mermaid
messiah
methods
miracle
mirrors
mistake
misused
modeled
modicum
molotov
moschen
murdoch
narciss
neglect
netflix
offices
onstage
onwards
opening
opposed
orville
outrage
packets
patches
pathway
permiss
photosh
##auc
##ava
##ksw
##ungs
##urbs
##xins
##apted
##aucom
##kswag
##liant
##liers
##otten
broo
bugs
crop
java
latv
ridd
teri
wake
##asonal
##aucoma
##gotten
##namics
immun
lungs
rains
toten
unnam
untid
waist
##ptember
brooks
edited
grains
grandk
immers
immort
latvia
toxins
untidy
zanfon
##ertainty
##kswagens
##ognitive
adapted
blister
bottled
climber
emerged
genomes
microse
phrases
picking
pitched
pitches
planned
pleased
polling
popping
portion
postman
pretend
pricked
primacy
profile
propell
pursuit
puzzles
rachell
ranging
ranking
reached
receive
records
recycle
refrain
refused
relaxed
reminds
repeats
replies
reserve
restaur
resting
restore
retreat
returns
revered
riddled
rocking
rosling
routine
rumbles
satisfy
scratch
scribed
scrotum
searing
seminal
##awa
##law
##moir
##sled
##ushi
caf
hmo
jaw
paw
vet
##grown
##naiss
##ucked
##utawa
cafe
cola
curt
devi
hush
ingr
irre
laps
meme
veil
vein
##arship
##boards
##cution
##icient
##ilroad
assum
brush
colom
curry
foods
landm
mahal
mouse
parad
param
paris
pluck
pores
slept
stilt
strap
sushi
##ecution
##redient
client
colomb
curric
curtis
curved
extens
fucked
gravit
ingrid
irrele
memoir
mutawa
outlaw
parall
plucky
reiter
risked
rounds
spouse
##iciently
##olarship
##ructions
assumpt
breathe
explode
extract
filming
glories
hassled
irrelev
landing
optimal
paramet
renaiss
sensing
shaking
shallow
shaving
shifted
shutter
shyness
sighted
skilled
skitter
skydive
slipped
slowing
smallpo
smiling
smushed
snippet
##pi
##bor
##osm
##abin
##fest
##hasa
##iell
##rael
##uned
cro
exh
jun
mig
npi
nul
oun
ray
rib
sab
uph
##ielle
##union
brew
cosm
exop
gour
haun
holl
host
labs
migr
pean
phen
spar
spig
spit
urge
abuse
await
breed
brent
cabin
court
crops
exhib
exopl
inade
lhasa
plent
saber
sight
stats
tries
tuned
brewed
galvan
harbor
haunts
hosted
intens
israel
junior
lagoon
nuland
ounces
peanut
phenom
spigot
uphill
vielle
wallet
applied
attract
breeder
courtes
exhibit
exoplan
federal
gourmet
holland
inadequ
migrant
reunion
ripened
sorcere
spanked
sparked
sparkly
spheres
spoiled
spooked
spotted
squirts
staples
stealth
steamed
sterile
stewart
stipend
stocked
##ifi
##odg
##zig
##amos
##ando
##aret
##odgy
##ulia
amm
arv
enl
fod
vas
##ander
##garet
##icted
##ilege
##ipzig
##nando
##oding
##ousin
##stand
##tered
bull
chic
dood
teem
wifi
##ousing
##urbing
ammun
arise
enlar
julia
lined
overt
shard
subse
vasco
wrist
alamos
bindis
chicag
coding
cousin
draped
fodder
genius
headed
locked
muslin
peaked
stodgy
verses
wander
##urturing
bullets
chicago
doodles
hateful
housing
lateral
leipzig
overtak
recover
strains
stromat
suburbs
sunrise
sunsets
swedish
switzer
symbols
teeming
teenage
terrain
terrest
ticking
timbers
tipping
titanic
toolkit
toothed
touches
tractor
transpo
trapped
treehug
tricked
trinity
tsunami
turtles
tutored
typhoid
uncompr
unnamed
unsurpr
uploads
variant
variety
##ckt
##dul
##geb
##olk
##ula
##ulf
##live
##mers
##oler
##thur
bul
hen
nad
##bound
##erson
##gebra
##ulent
anch
bulg
clas
conc
cook
dike
fauc
gulf
heck
joys
kolk
logo
mand
nada
outf
peps
reck
sale
wore
##ronics
abdul
cockt
grabb
harry
henry
karan
logic
olive
pepsi
reply
seams
shant
silly
smile
turke
wishy
##actions
##anation
##bounded
##essness
##grounds
##reation
##streams
##uration
anchor
arthur
clasps
faucet
geyser
lesser
outfit
phases
shanty
turkey
worker
##olerance
algebra
amongst
android
bitches
brother
channel
concert
empower
formula
grabbed
kolkata
mandate
opulent
orchard
reckons
vessels
vintage
virgins
visited
weaving
weights
wheelch
wrinkle
yielded
zanfona
zooming
##affirming
##che
##cle
##die
##ely
ba
jc
##anth
##asub
##aven
##bags
##icil
##ilut
##pter
##uine
##wing
baj
cha
chl
gir
lew
orn
rus
sph
wol
##antas
##aokao
##itish
##racle
##uster
cham
chau
dirt
dish
dive
dust
este
neur
till
trim
wolf
##bidden
##earing
##iluted
##rupter
chlad
detro
dusty
girlf
lewis
recap
russe
sicil
skype
sphin
##anthrop
##asubram
##ctarian
benign
blamed
chladn
dishes
esteem
gaokao
girlfr
heaven
jitish
joyful
neuron
oracle
ornith
paints
▁
##e
##t
##a
##o
##i
##n
##s
##h
##r
##l
##d
##u
##c
##y
##m
##w
##g
##f
##p
##b
##v
##k
##'
##j
##x
##z
##q
