<unk>	0
<s>	0
▁the	-3.12865
▁yeah	-3.54198
▁uh	-3.60595
▁i	-3.71422
▁you	-3.81909
▁to	-3.84496
▁and	-3.87322
▁a	-3.89533
▁it	-3.90456
▁we	-4.07328
▁that	-4.10075
▁so	-4.13805
▁of	-4.28429
▁um	-4.3861
▁is	-4.41798
▁it's	-4.50393
▁okay	-4.57806
▁but	-4.59589
▁in	-4.72433
▁mm	-4.78018
▁like	-4.8078
▁be	-4.81471
▁for	-4.85734
▁this	-4.87396
▁think	-4.93876
▁on	-4.94406
▁can	-4.94866
▁if	-4.96481
▁or	-5.11287
▁well	-5.12203
▁that's	-5.124
▁what	-5.13326
▁hmm	-5.15999
▁one	-5.20229
▁not	-5.23339
▁no	-5.25543
▁do	-5.27694
▁with	-5.28775
▁are	-5.32007
▁then	-5.33
▁know	-5.33813
▁don't	-5.50786
▁right	-5.58801
▁they	-5.59291
▁remote	-5.60704
▁as	-5.6518
▁would	-5.65927
▁oh	-5.73601
▁about	-5.74987
▁at	-5.75646
▁there	-5.76935
▁maybe	-5.79823
▁all	-5.79952
▁something	-5.81386
▁was	-5.81737
▁some	-5.81913
▁because	-5.82265
▁more	-5.90306
▁use	-5.93219
▁mean	-5.94808
▁could	-5.95109
▁should	-5.96118
▁d	-5.97496
▁will	-5.98686
▁which	-5.99995
▁want	-6.01429
▁your	-6.02342
▁control	-6.04029
▁buttons	-6.06868
▁two	-6.07434
▁s	-6.07605
▁i'm	-6.08004
▁how	-6.1014
▁make	-6.1049
▁go	-6.11254
▁thing	-6.11431
▁yes	-6.11491
▁an	-6.14736
▁really	-6.15042
▁our	-6.15595
▁we're	-6.18027
▁c	-6.2065
▁up	-6.22349
▁also	-6.24347
▁l	-6.25157
▁from	-6.25225
▁gonna	-6.25225
▁see	-6.26111
▁good	-6.26935
▁t	-6.27073
▁say	-6.28185
▁need	-6.28676
▁get	-6.30733
▁people	-6.30805
▁here	-6.32907
▁now	-6.37479
▁when	-6.38326
▁kind	-6.38869
▁got	-6.44056
▁things	-6.46375
▁my	-6.46711
▁button	-6.47048
▁time	-6.47641
▁look	-6.4875
▁design	-6.49353
▁them	-6.52244
▁out	-6.5431
▁put	-6.56605
▁other	-6.57444
▁th	-6.57538
▁different	-6.61261
▁these	-6.61749
▁actually	-6.62632
▁sort	-6.63226
▁w	-6.63325
▁'cause	-6.64725
▁has	-6.6676
▁you're	-6.67897
▁much	-6.6968
▁f	-6.69785
▁bit	-6.70958
▁only	-6.71172
▁going	-6.72578
▁too	-6.74781
▁sure	-6.74893
▁m	-6.76014
▁there's	-6.79221
▁meeting	-6.80864
▁where	-6.81577
▁little	-6.82055
▁three	-6.82295
▁yep	-6.83018
▁way	-6.83746
▁new	-6.8709
▁by	-6.87595
▁point	-6.87975
▁idea	-6.88613
▁any	-6.88741
▁than	-6.88741
▁probably	-6.899
▁work	-6.92524
▁first	-6.92658
▁into	-6.94133
▁might	-6.94811
▁screen	-6.96457
▁user	-6.96596
▁had	-6.97151
▁were	-6.9743
▁still	-6.9757
▁me	-6.98272
▁they're	-6.98695
▁same	-6.99262
▁we'll	-6.99833
▁alright	-7.01274
▁those	-7.02295
▁did	-7.0497
▁take	-7.05272
▁i'll	-7.05423
▁lot	-7.06182
▁p	-7.06487
▁guess	-7.0664
▁channel	-7.09278
▁most	-7.10068
▁does	-7.11343
▁back	-7.11665
▁let's	-7.11665
▁down	-7.12636
▁colour	-7.13452
▁recognition	-7.13781
▁easy	-7.15606
▁stuff	-7.15774
▁speech	-7.19884
▁r	-7.20234
▁y	-7.20234
▁basically	-7.20939
▁doesn't	-7.21116
▁huh	-7.21116
▁us	-7.22183
▁rubber	-7.23988
▁four	-7.25456
▁important	-7.26012
▁find	-7.26198
▁again	-7.27888
▁can't	-7.28458
▁doing	-7.28649
▁'kay	-7.29031
▁problem	-7.29223
▁functions	-7.30381
▁off	-7.31553
▁ah	-7.3175
▁interface	-7.33337
▁simple	-7.33337
▁sorry	-7.35767
▁true	-7.35972
▁why	-7.37211
▁product	-7.37837
▁used	-7.37837
▁chip	-7.38256
▁scroll	-7.39312
▁he	-7.39525
▁minutes	-7.39738
▁said	-7.4038
▁big	-7.41458
▁n	-7.41458
▁didn't	-7.41893
▁each	-7.43209
▁course	-7.43651
▁come	-7.43873
▁their	-7.43873
▁market	-7.44319
▁looking	-7.44542
▁b	-7.45667
▁already	-7.46576
▁information	-7.47264
▁start	-7.47956
▁case	-7.48187
▁controls	-7.48187
▁done	-7.49825
▁better	-7.50061
▁anything	-7.51011
▁colours	-7.5125
▁wanna	-7.5173
▁using	-7.52939
▁cost	-7.53427
▁nice	-7.54904
▁another	-7.56657
▁change	-7.56657
▁keep	-7.5691
▁part	-7.5844
▁what's	-7.59214
▁through	-7.59474
▁menu	-7.59995
▁last	-7.60781
▁whole	-7.60781
▁try	-7.61045
▁who	-7.61309
▁pretty	-7.63448
▁been	-7.63718
▁cool	-7.6399
▁before	-7.64535
▁thought	-7.64535
▁display	-7.64808
▁twenty	-7.64808
▁looks	-7.65083
▁shape	-7.65083
▁end	-7.65358
▁working	-7.65634
▁dunno	-7.66466
▁feel	-7.66466
▁power	-7.66466
▁anyway	-7.66745
▁isn't	-7.66745
▁function	-7.67305
▁possible	-7.67305
▁many	-7.68435
▁battery	-7.70154
▁hand	-7.70154
▁basic	-7.70734
▁presentation	-7.73684
▁between	-7.75497
▁line	-7.75497
▁plastic	-7.75802
▁else	-7.76108
▁able	-7.76416
▁number	-7.76724
▁special	-7.77343
▁push	-7.77654
▁fancy	-7.78279
▁g	-7.79224
▁after	-7.80498
▁data	-7.80819
▁thinking	-7.81464
▁enough	-7.82113
▁less	-7.8244
▁long	-7.85425
▁small	-7.86101
▁whether	-7.86101
▁yellow	-7.86101
▁always	-7.8644
▁made	-7.87466
▁side	-7.88155
▁press	-7.8885
▁talk	-7.89199
▁though	-7.89549
▁channels	-7.89901
▁fifty	-7.90253
▁means	-7.91319
▁wheel	-7.91319
▁both	-7.92036
▁features	-7.92758
▁great	-7.94218
▁together	-7.94586
▁marketing	-7.94956
▁talking	-7.94956
▁around	-7.95327
▁percent	-7.96073
▁ten	-7.96073
▁wouldn't	-7.96073
▁i'd	-7.97203
▁set	-7.97964
▁energy	-7.98346
▁fruit	-7.98346
▁may	-7.9873
▁top	-7.9873
▁add	-7.99502
▁hard	-7.99502
▁definitely	-7.99891
▁left	-7.99891
▁draw	-8.0028
▁ideas	-8.02652
▁options	-8.03053
▁thirty	-8.03053
▁fine	-8.03455
▁moment	-8.03455
▁second	-8.03455
▁words	-8.03455
▁o	-8.03859
▁word	-8.03859
▁saying	-8.04265
▁technology	-8.04672
▁least	-8.05081
▁ones	-8.05081
▁buy	-8.05904
▁price	-8.05904
▁interesting	-8.06734
▁being	-8.07571
▁thank	-8.08415
▁euros	-8.0884
▁guys	-8.0884
▁won't	-8.09266
▁double	-8.09694
▁real	-8.09694
▁signal	-8.10124
▁kinda	-8.11426
▁spongy	-8.12303
▁banana	-8.12745
▁h	-8.12745
▁rather	-8.12745
▁half	-8.13634
▁board	-8.1453
▁suppose	-8.1453
▁titanium	-8.14982
▁tell	-8.15435
▁components	-8.15891
▁sense	-8.15891
▁numbers	-8.16349
▁option	-8.16349
▁red	-8.16808
▁fashion	-8.1727
▁material	-8.1727
▁slide	-8.1727
▁decide	-8.17734
▁feature	-8.17734
▁batteries	-8.18669
▁single	-8.19139
▁company	-8.20087
▁discuss	-8.20087
▁eight	-8.20087
▁far	-8.20087
▁without	-8.21044
▁away	-8.22011
▁works	-8.22011
▁fact	-8.22497
▁makes	-8.22986
▁type	-8.23478
▁e	-8.24468
▁high	-8.24468
▁remotes	-8.24468
▁turn	-8.24966
▁agree	-8.25971
▁light	-8.25971
▁must	-8.26478
▁standard	-8.26478
▁system	-8.26478
▁few	-8.26987
▁file	-8.26987
▁once	-8.27498
▁lose	-8.28012
▁own	-8.28012
▁black	-8.28529
▁either	-8.28529
▁group	-8.28529
▁room	-8.29049
▁you'd	-8.29049
▁seems	-8.31687
▁source	-8.31687
▁costs	-8.32224
▁name	-8.32763
▁shouldn't	-8.33305
▁technical	-8.33305
▁touch	-8.33305
▁users	-8.33305
▁it'll	-8.3385
▁main	-8.34398
▁show	-8.34398
▁such	-8.34398
▁sound	-8.35502
▁speaker	-8.3662
▁difficult	-8.37183
▁wanted	-8.37183
▁forty	-8.3775
▁found	-8.3775
▁play	-8.3832
▁functional	-8.38893
▁instead	-8.38893
▁page	-8.38893
▁choose	-8.39469
▁mind	-8.39469
▁open	-8.39469
▁prototype	-8.39469
▁itself	-8.40049
▁trying	-8.40049
▁making	-8.40632
▁sell	-8.41218
▁easier	-8.41808
▁u	-8.42402
▁getting	-8.42999
▁he's	-8.42999
▁kinetic	-8.43599
▁somewhere	-8.43599
▁write	-8.43599
▁research	-8.44204
▁hundred	-8.45423
▁solar	-8.45423
▁remember	-8.46038
▁says	-8.46038
▁goes	-8.46658
▁inside	-8.46658
▁pen	-8.46658
▁designer	-8.47281
▁per	-8.47281
▁under	-8.47908
▁based	-8.48539
▁later	-8.48539
▁logo	-8.48539
▁specific	-8.48539
▁nothing	-8.49174
▁separate	-8.49174
▁understand	-8.49174
▁useful	-8.49174
▁needs	-8.49813
▁within	-8.49813
▁you'll	-8.49813
▁decided	-8.50456
▁its	-8.50456
▁switch	-8.50456
▁email	-8.51103
▁lost	-8.51103
▁perhaps	-8.51103
▁actual	-8.51754
▁bad	-8.51754
▁hold	-8.51754
▁ask	-8.5241
▁clear	-8.5241
▁yet	-8.5241
▁trendy	-8.5307
▁certain	-8.55755
▁money	-8.55755
▁round	-8.57125
▁comes	-8.57817
▁sh	-8.57817
▁terms	-8.57817
▁current	-8.58514
▁ha	-8.58514
▁points	-8.58514
▁seen	-8.58514
▁times	-8.58514
▁personal	-8.59215
▁place	-8.59215
▁depends	-8.59922
▁phone	-8.60634
▁read	-8.60634
▁otherwise	-8.61351
▁we'd	-8.61351
▁microphone	-8.62073
▁model	-8.62073
▁usually	-8.62073
▁audio	-8.628
▁bottom	-8.628
▁person	-8.628
▁normal	-8.63533
▁re	-8.63533
▁cheap	-8.64271
▁general	-8.64271
▁budget	-8.65014
▁plus	-8.65014
▁decision	-8.65763
▁mouse	-8.65763
▁regular	-8.65763
▁wait	-8.65763
▁best	-8.66518
▁settings	-8.66518
▁call	-8.67278
▁include	-8.67278
▁segments	-8.67278
▁send	-8.67278
▁wood	-8.67278
▁close	-8.68045
▁computer	-8.68045
▁mobile	-8.68045
▁old	-8.68045
▁younger	-8.68045
▁concept	-8.68817
▁target	-8.68817
▁euro	-8.69595
▁nine	-8.69595
▁code	-8.70379
▁infrared	-8.70379
▁let	-8.70379
▁cannot	-8.7117
▁complicated	-8.7117
▁since	-8.71967
▁watching	-8.71967
▁animal	-8.7277
▁easily	-8.7277
▁especially	-8.7277
▁programme	-8.7277
▁meetings	-8.7358
▁often	-8.7358
▁process	-8.7358
▁sounds	-8.7358
▁blue	-8.74396
▁table	-8.74396
▁fifteen	-8.75219
▁task	-8.75219
▁young	-8.75219
▁middle	-8.76049
▁parts	-8.76049
▁tha	-8.76049
▁industrial	-8.76886
▁supposed	-8.76886
▁wasn't	-8.76886
▁fit	-8.7773
▁frame	-8.7773
▁front	-8.7773
▁functionality	-8.7773
▁check	-8.78581
▁list	-8.78581
▁stick	-8.78581
▁coming	-8.79439
▁form	-8.79439
▁hour	-8.79439
▁break	-8.80305
▁couple	-8.80305
▁wh	-8.80305
▁click	-8.81178
▁hope	-8.81178
▁sample	-8.81178
▁am	-8.82059
▁materials	-8.82059
▁segment	-8.82059
▁watch	-8.82059
▁almost	-8.82948
▁friendly	-8.82948
▁matter	-8.82948
▁came	-8.83845
▁pay	-8.83845
▁slides	-8.83845
▁year	-8.83845
▁changing	-8.8475
▁phase	-8.8475
▁flat	-8.85663
▁help	-8.85663
▁trends	-8.85663
▁topic	-8.86585
▁age	-8.87515
▁original	-8.87515
▁sometimes	-8.87515
▁white	-8.87515
▁documents	-8.88454
▁manager	-8.88454
▁difference	-8.89402
▁machine	-8.89402
▁base	-8.90359
▁circuit	-8.90359
▁gotta	-8.90359
▁ready	-8.90359
▁criteria	-8.91325
▁it'd	-8.91325
▁thanks	-8.91325
▁document	-8.92301
▁final	-8.92301
▁folder	-8.92301
▁presentations	-8.92301
▁station	-8.92301
▁spectrum	-8.93286
▁'em	-8.94281
▁bring	-8.94281
▁build	-8.94281
▁key	-8.94281
▁possibly	-8.94281
▁putting	-8.94281
▁trend	-8.94281
▁discussion	-8.95286
▁incorporate	-8.95286
▁internet	-8.95286
▁while	-8.95286
▁discussed	-8.96301
▁imagine	-8.96301
▁range	-8.96301
▁run	-8.96301
▁soft	-8.96301
▁wants	-8.96301
▁instance	-8.97327
▁please	-8.97327
▁production	-8.97327
▁went	-8.97327
▁dark	-8.98363
▁scale	-8.98363
▁completely	-8.9941
▁order	-8.9941
▁spend	-8.9941
▁today	-8.9941
▁day	-9.00469
▁electronics	-9.00469
▁software	-9.00469
▁takes	-9.00469
▁beep	-9.01538
▁years	-9.01538
▁his	-9.02619
▁pick	-9.02619
▁results	-9.02619
▁selling	-9.02619
▁someone	-9.02619
▁wha	-9.02619
▁aren't	-9.03712
▁aspect	-9.03712
▁format	-9.03712
▁print	-9.03712
▁finish	-9.04817
▁looked	-9.04817
▁report	-9.04817
▁shall	-9.04817
▁component	-9.05935
▁low	-9.05935
▁phones	-9.05935
▁similar	-9.05935
▁taking	-9.05935
▁wrong	-9.05935
▁although	-9.07064
▁create	-9.07064
▁files	-9.07064
▁keys	-9.07064
▁million	-9.07064
▁older	-9.07064
▁present	-9.07064
▁consider	-9.08207
▁controller	-9.08207
▁home	-9.08207
▁mark	-9.08207
▁select	-9.08207
▁space	-9.08207
▁stay	-9.08207
▁week	-9.08207
▁alpha	-9.09363
▁k	-9.09363
▁products	-9.09363
▁fairly	-9.10533
▁green	-9.10533
▁ma	-9.10533
▁mute	-9.10533
▁saw	-9.10533
▁somebody	-9.10533
▁team	-9.10533
▁care	-9.11716
▁third	-9.11716
▁whiteboard	-9.11716
▁fun	-9.12914
▁integrated	-9.12914
▁powerpoint	-9.12914
▁cut	-9.14126
▁eye	-9.14126
▁focus	-9.14126
▁issue	-9.14126
▁lines	-9.14126
▁possibility	-9.14126
▁selection	-9.14126
▁sent	-9.14126
▁web	-9.14126
▁'s	-9.15353
▁conceptual	-9.15353
▁implement	-9.15353
▁slogan	-9.15353
▁corporate	-9.16595
▁drawing	-9.16595
▁drop	-9.16595
▁fast	-9.16595
▁image	-9.16595
▁decisions	-9.17853
▁lots	-9.17853
▁shapes	-9.17853
▁unit	-9.17853
▁utterance	-9.17853
▁anybody	-9.19127
▁bigger	-9.19127
▁gets	-9.19127
▁noise	-9.19127
▁particular	-9.19127
▁running	-9.19127
▁cat	-9.20418
▁coding	-9.20418
▁problems	-9.20418
▁slightly	-9.20418
▁couldn't	-9.23049
▁indeed	-9.23049
▁paper	-9.23049
▁picture	-9.23049
▁ugly	-9.23049
▁beginning	-9.24392
▁called	-9.24392
▁casing	-9.24392
▁construct	-9.24392
▁fair	-9.24392
▁him	-9.24392
▁large	-9.24392
▁lights	-9.24392
▁ooh	-9.24392
▁profit	-9.24392
▁worked	-9.24392
▁worth	-9.24392
▁aim	-9.25752
▁anyone	-9.25752
▁mine	-9.25752
▁rate	-9.25752
▁structure	-9.25752
▁summary	-9.25752
▁utterances	-9.25752
▁agenda	-9.27131
▁amount	-9.27131
▁band	-9.27131
▁search	-9.27131
▁sensor	-9.27131
▁soon	-9.27131
▁spectral	-9.27131
▁analysis	-9.2853
▁higher	-9.2853
▁interested	-9.2853
▁until	-9.2853
▁during	-9.29949
▁handed	-9.29949
▁happy	-9.29949
▁lunch	-9.29949
▁method	-9.29949
▁reason	-9.29949
▁they'll	-9.29949
▁ye	-9.29949
▁according	-9.31388
▁findings	-9.31388
▁outside	-9.31388
▁pages	-9.31388
▁reaction	-9.31388
▁somehow	-9.31388
▁sorta	-9.31388
▁speak	-9.31388
▁test	-9.31388
▁hopefully	-9.32847
▁piece	-9.32847
▁preferences	-9.32847
▁she	-9.32847
▁access	-9.34329
▁ahead	-9.34329
▁certainly	-9.34329
▁cheaper	-9.34329
▁direction	-9.34329
▁directly	-9.34329
▁figure	-9.34329
▁forward	-9.34329
▁full	-9.34329
▁happen	-9.34329
▁hear	-9.34329
▁lyman	-9.34329
▁ninety	-9.34329
▁rest	-9.34329
▁stand	-9.34329
▁started	-9.34329
▁talked	-9.34329
▁bu	-9.35833
▁coffee	-9.35833
▁flip	-9.35833
▁input	-9.35833
▁learn	-9.35833
▁necessary	-9.35833
▁perfect	-9.35833
▁seem	-9.35833
▁thumb	-9.35833
▁told	-9.35833
▁width	-9.35833
▁wow	-9.35833
▁card	-9.37359
▁chips	-9.37359
▁hey	-9.37359
▁program	-9.37359
▁record	-9.37359
▁absorption	-9.3891
▁cells	-9.3891
▁designs	-9.3891
▁mentioned	-9.3891
▁minute	-9.3891
▁multiple	-9.3891
▁nah	-9.3891
▁smart	-9.3891
▁stop	-9.3891
▁sub	-9.3891
▁unless	-9.3891
▁window	-9.3891
▁account	-9.40485
▁designed	-9.40485
▁finished	-9.40485
▁handy	-9.40485
▁notes	-9.40485
▁onto	-9.40485
▁personally	-9.40485
▁prefer	-9.40485
▁step	-9.40485
▁technologically	-9.40485
▁that'll	-9.40485
▁triangle	-9.40485
▁along	-9.42085
▁bright	-9.42085
▁digital	-9.42085
▁li	-9.42085
▁management	-9.42085
▁player	-9.42085
▁tool	-9.42085
▁tried	-9.42085
▁whereas	-9.42085
▁anymore	-9.43711
▁designing	-9.43711
▁forget	-9.43711
▁fruits	-9.43711
▁lower	-9.43711
▁models	-9.43711
▁took	-9.43711
▁totally	-9.43711
▁wi	-9.43711
▁added	-9.45364
▁directory	-9.45364
▁free	-9.45364
▁laptop	-9.45364
▁meet	-9.45364
▁thi	-9.45364
▁throw	-9.45364
▁worry	-9.45364
▁al	-9.47044
▁earlier	-9.47044
▁grey	-9.47044
▁plan	-9.47044
▁strong	-9.47044
▁automatically	-9.48754
▁bits	-9.48754
▁finance	-9.48754
▁menus	-9.48754
▁needed	-9.48754
▁produce	-9.48754
▁series	-9.48754
▁straight	-9.48754
▁asked	-9.50493
▁feeling	-9.50493
▁further	-9.50493
▁language	-9.50493
▁necessarily	-9.50493
▁skip	-9.50493
▁strange	-9.50493
▁docking	-9.52263
▁emission	-9.52263
▁gone	-9.52263
▁infra	-9.52263
▁shaped	-9.52263
▁apple	-9.54065
▁days	-9.54065
▁detailed	-9.54065
▁face	-9.54065
▁radio	-9.54065
▁reach	-9.54065
▁rechargeable	-9.54065
▁related	-9.54065
▁sit	-9.54065
▁types	-9.54065
▁changes	-9.559
▁customers	-9.559
▁guy	-9.559
▁knows	-9.559
▁load	-9.559
▁measure	-9.559
▁pictures	-9.559
▁seconds	-9.559
▁simply	-9.559
▁tech	-9.559
▁topics	-9.559
▁traditional	-9.559
▁training	-9.559
▁yourself	-9.559
▁below	-9.57769
▁broad	-9.57769
▁ca	-9.57769
▁children	-9.57769
▁co	-9.57769
▁finding	-9.57769
▁fruity	-9.57769
▁myself	-9.57769
▁ok	-9.57769
▁opinion	-9.57769
▁position	-9.57769
▁reasonable	-9.57769
▁shot	-9.57769
▁smaller	-9.57769
▁that'd	-9.57769
▁dynamo	-9.59674
▁enter	-9.59674
▁ipod	-9.59674
▁longer	-9.59674
▁morning	-9.59674
▁mostly	-9.59674
▁shared	-9.59674
▁apart	-9.61616
▁cable	-9.61616
▁cell	-9.61616
▁class	-9.61616
▁hands	-9.61616
▁match	-9.61616
▁meant	-9.61616
▁signals	-9.61616
▁store	-9.61616
▁ways	-9.61616
▁who's	-9.61616
▁willing	-9.61616
▁aspects	-9.63596
▁department	-9.63596
▁dialogue	-9.63596
▁fits	-9.63596
▁future	-9.63596
▁instructions	-9.63596
▁memory	-9.63596
▁others	-9.63596
▁output	-9.63596
▁score	-9.63596
▁style	-9.63596
▁total	-9.63596
▁apparently	-9.65616
▁choice	-9.65616
▁depending	-9.65616
▁entire	-9.65616
▁international	-9.65616
▁limited	-9.65616
▁message	-9.65616
▁weren't	-9.65616
▁copy	-9.67678
▁feedback	-9.67678
▁finally	-9.67678
▁heard	-9.67678
▁issues	-9.67678
▁pressing	-9.67678
▁processing	-9.67678
▁scrolling	-9.67678
▁starting	-9.67678
▁starts	-9.67678
▁systems	-9.67678
▁track	-9.67678
▁wheels	-9.67678
▁appear	-9.69783
▁ball	-9.69783
▁brightness	-9.69783
▁ch	-9.69783
▁count	-9.69783
▁head	-9.69783
▁hello	-9.69783
▁microphones	-9.69783
▁oops	-9.69783
▁assume	-9.71934
▁command	-9.71934
▁corpus	-9.71934
▁increase	-9.71934
▁mainly	-9.71934
▁non	-9.71934
▁sends	-9.71934
▁sitting	-9.71934
▁electronic	-9.74132
▁etcetera	-9.74132
▁factor	-9.74132
▁fashionable	-9.74132
▁happens	-9.74132
▁hilbert	-9.74132
▁ho	-9.74132
▁leadership	-9.74132
▁length	-9.74132
▁plug	-9.74132
▁role	-9.74132
▁share	-9.74132
▁welcome	-9.74132
▁approach	-9.76379
▁area	-9.76379
▁camtasia	-9.76379
▁concepts	-9.76379
▁eighty	-9.76379
▁forgot	-9.76379
▁generate	-9.76379
▁integrate	-9.76379
▁links	-9.76379
▁participant	-9.76379
▁short	-9.76379
▁tend	-9.76379
▁thoughts	-9.76379
▁yours	-9.76379
▁answer	-9.78678
▁coach	-9.78678
▁common	-9.78678
▁dog	-9.78678
▁false	-9.78678
▁huge	-9.78678
▁pitch	-9.78678
▁replace	-9.78678
▁seeing	-9.78678
▁speaking	-9.78678
▁suggest	-9.78678
▁writing	-9.78678
▁become	-9.81031
▁blank	-9.81031
▁category	-9.81031
▁centre	-9.81031
▁define	-9.81031
▁ease	-9.81031
▁ergonomic	-9.81031
▁fill	-9.81031
▁kinds	-9.81031
▁nobody	-9.81031
▁normally	-9.81031
▁split	-9.81031
▁windows	-9.81031
▁algorithm	-9.83441
▁basis	-9.83441
▁behind	-9.83441
▁building	-9.83441
▁cent	-9.83441
▁changed	-9.83441
▁charger	-9.83441
▁comfortable	-9.83441
▁damped	-9.83441
▁detect	-9.83441
▁feels	-9.83441
▁funny	-9.83441
▁goal	-9.83441
▁importance	-9.83441
▁likely	-9.83441
▁link	-9.83441
▁minus	-9.83441
▁stage	-9.83441
▁star	-9.83441
▁world	-9.83441
▁apply	-9.8591
▁becomes	-9.8591
▁english	-9.8591
▁groups	-9.8591
▁her	-9.8591
▁hi	-9.8591
▁including	-9.8591
▁losing	-9.8591
▁machines	-9.8591
▁man	-9.8591
▁panel	-9.8591
▁recognisable	-9.8591
▁region	-9.8591
▁sides	-9.8591
▁solution	-9.8591
▁train	-9.8591
▁adding	-9.88442
▁audience	-9.88442
▁cases	-9.88442
▁clustering	-9.88442
▁combine	-9.88442
▁complete	-9.88442
▁doh	-9.88442
▁here's	-9.88442
▁hidden	-9.88442
▁included	-9.88442
▁kids	-9.88442
▁life	-9.88442
▁multi	-9.88442
▁opening	-9.88442
▁playing	-9.88442
▁pr	-9.88442
▁simplicity	-9.88442
▁thin	-9.88442
▁thirteen	-9.88442
▁additional	-9.91039
▁allow	-9.91039
▁annoying	-9.91039
▁commands	-9.91039
▁et	-9.91039
▁follow	-9.91039
▁functionalities	-9.91039
▁house	-9.91039
▁possibilities	-9.91039
▁pro	-9.91039
▁st	-9.91039
▁supplements	-9.91039
▁taken	-9.91039
▁thousand	-9.91039
▁tools	-9.91039
▁towards	-9.91039
▁triple	-9.91039
▁wa	-9.91039
▁wondering	-9.91039
▁across	-9.93706
▁agreement	-9.93706
▁bar	-9.93706
▁clearly	-9.93706
▁compared	-9.93706
▁correct	-9.93706
▁details	-9.93706
▁displays	-9.93706
▁figured	-9.93706
▁generally	-9.93706
▁glow	-9.93706
▁mail	-9.93706
▁marked	-9.93706
▁programming	-9.93706
▁recording	-9.93706
▁sheet	-9.93706
▁support	-9.93706
▁written	-9.93706
▁afraid	-9.96446
▁background	-9.96446
▁boring	-9.96446
▁cetera	-9.96446
▁combination	-9.96446
▁contrast	-9.96446
▁digits	-9.96446
▁displayed	-9.96446
▁fronts	-9.96446
▁hit	-9.96446
▁hours	-9.96446
▁layout	-9.96446
▁manufacturing	-9.96446
▁one's	-9.96446
▁papers	-9.96446
▁showing	-9.96446
▁shows	-9.96446
▁stupid	-9.96446
▁technological	-9.96446
▁agreed	-9.99263
▁arrow	-9.99263
▁continuum	-9.99263
▁effect	-9.99263
▁following	-9.99263
▁handle	-9.99263
▁keeping	-9.99263
▁messages	-9.99263
▁miss	-9.99263
▁mode	-9.99263
▁rabbit	-9.99263
▁recognise	-9.99263
▁screens	-9.99263
▁simpler	-9.99263
▁stereo	-9.99263
▁they'd	-9.99263
▁wrote	-9.99263
▁absolutely	-10.0216
▁careful	-10.0216
▁essentially	-10.0216
▁frames	-10.0216
▁harder	-10.0216
▁holding	-10.0216
▁lemon	-10.0216
▁natural	-10.0216
▁past	-10.0216
▁physical	-10.0216
▁purpose	-10.0216
▁slow	-10.0216
▁targeting	-10.0216
▁teamwork	-10.0216
▁therefore	-10.0216
▁twice	-10.0216
▁underneath	-10.0216
▁uses	-10.0216
▁wire	-10.0216
▁act	-10.0515
▁afford	-10.0515
▁afterwards	-10.0515
▁compare	-10.0515
▁defined	-10.0515
▁di	-10.0515
▁disk	-10.0515
▁god	-10.0515
▁happened	-10.0515
▁hasn't	-10.0515
▁held	-10.0515
▁impossible	-10.0515
▁kept	-10.0515
▁manual	-10.0515
▁mo	-10.0515
▁modern	-10.0515
▁months	-10.0515
▁pens	-10.0515
▁result	-10.0515
▁rid	-10.0515
▁script	-10.0515
▁sp	-10.0515
▁ago	-10.0822
▁bluetooth	-10.0822
▁calculate	-10.0822
▁characteristics	-10.0822
▁clock	-10.0822
▁colourful	-10.0822
▁domain	-10.0822
▁fi	-10.0822
▁implemented	-10.0822
▁knowledge	-10.0822
▁led	-10.0822
▁locator	-10.0822
▁operating	-10.0822
▁particularly	-10.0822
▁posteriors	-10.0822
▁practical	-10.0822
▁reckon	-10.0822
▁response	-10.0822
▁threshold	-10.0822
▁accessible	-10.114
▁bands	-10.114
▁brilliant	-10.114
▁buying	-10.114
▁charge	-10.114
▁cradle	-10.114
▁discussing	-10.114
▁distribution	-10.114
▁easiest	-10.114
▁elderly	-10.114
▁finger	-10.114
▁flashy	-10.114
▁larger	-10.114
▁location	-10.114
▁map	-10.114
▁milan	-10.114
▁nite	-10.114
▁opposed	-10.114
▁pointing	-10.114
▁realise	-10.114
▁scheme	-10.114
▁separately	-10.114
▁shake	-10.114
▁technically	-10.114
▁telephone	-10.114
▁unfortunately	-10.114
▁actions	-10.1468
▁against	-10.1468
▁appeal	-10.1468
▁brought	-10.1468
▁bulb	-10.1468
▁carrier	-10.1468
▁confusing	-10.1468
▁connection	-10.1468
▁consideration	-10.1468
▁currently	-10.1468
▁deal	-10.1468
▁erase	-10.1468
▁initial	-10.1468
▁lighting	-10.1468
▁mention	-10.1468
▁missed	-10.1468
▁nope	-10.1468
▁note	-10.1468
▁paris	-10.1468
▁preference	-10.1468
▁presumably	-10.1468
▁reduce	-10.1468
▁se	-10.1468
▁setting	-10.1468
▁sleek	-10.1468
▁smartboard	-10.1468
▁specification	-10.1468
▁state	-10.1468
▁tells	-10.1468
▁whistle	-10.1468
▁action	-10.1807
▁animals	-10.1807
▁anywhere	-10.1807
▁application	-10.1807
▁bunch	-10.1807
▁busy	-10.1807
▁continue	-10.1807
▁customer	-10.1807
▁familiar	-10.1807
▁feasible	-10.1807
▁kate	-10.1807
▁kick	-10.1807
▁lab	-10.1807
▁manage	-10.1807
▁matthew	-10.1807
▁minimum	-10.1807
▁names	-10.1807
▁pre	-10.1807
▁primary	-10.1807
▁propose	-10.1807
▁sets	-10.1807
▁speakers	-10.1807
▁theme	-10.1807
▁transmitter	-10.1807
▁wonder	-10.1807
▁aiming	-10.2158
▁array	-10.2158
▁built	-10.2158
▁burst	-10.2158
▁coloured	-10.2158
▁de	-10.2158
▁hang	-10.2158
▁hoping	-10.2158
▁interchangeable	-10.2158
▁latest	-10.2158
▁measures	-10.2158
▁nowadays	-10.2158
▁paint	-10.2158
▁popular	-10.2158
▁ruud	-10.2158
▁shift	-10.2158
▁spinning	-10.2158
▁standards	-10.2158
▁temp	-10.2158
▁turns	-10.2158
▁usability	-10.2158
▁usual	-10.2158
▁weight	-10.2158
▁beautiful	-10.2521
▁biggest	-10.2521
▁blah	-10.2521
▁book	-10.2521
▁cents	-10.2521
▁closing	-10.2521
▁com	-10.2521
▁compromise	-10.2521
▁database	-10.2521
▁density	-10.2521
▁detection	-10.2521
▁distance	-10.2521
▁field	-10.2521
▁fire	-10.2521
▁gimmick	-10.2521
▁liked	-10.2521
▁media	-10.2521
▁missing	-10.2521
▁news	-10.2521
▁operate	-10.2521
▁powerful	-10.2521
▁pressed	-10.2521
▁reading	-10.2521
▁robust	-10.2521
▁roo	-10.2521
▁section	-10.2521
▁smooth	-10.2521
▁switching	-10.2521
▁wee	-10.2521
▁weird	-10.2521
▁backup	-10.2899
▁browser	-10.2899
▁categories	-10.2899
▁conclusion	-10.2899
▁connected	-10.2899
▁couch	-10.2899
▁dictionary	-10.2899
▁dynamic	-10.2899
▁early	-10.2899
▁error	-10.2899
▁financial	-10.2899
▁graphical	-10.2899
▁introduce	-10.2899
▁limit	-10.2899
▁pieces	-10.2899
▁pink	-10.2899
▁places	-10.2899
▁raw	-10.2899
▁sales	-10.2899
▁scripts	-10.2899
▁sebastian	-10.2899
▁sender	-10.2899
▁specifically	-10.2899
▁suddenly	-10.2899
▁suggested	-10.2899
▁sum	-10.2899
▁tricky	-10.2899
▁turning	-10.2899
▁walk	-10.2899
▁wanting	-10.2899
▁website	-10.2899
▁weeks	-10.2899
▁wireless	-10.2899
▁wise	-10.2899
▁asking	-10.3291
▁broken	-10.3291
▁bus	-10.3291
▁camera	-10.3291
▁clay	-10.3291
▁communication	-10.3291
▁computers	-10.3291
▁con	-10.3291
▁counts	-10.3291
▁dial	-10.3291
▁direct	-10.3291
▁displaying	-10.3291
▁fingers	-10.3291
▁grip	-10.3291
▁idiap	-10.3291
▁internal	-10.3291
▁linear	-10.3291
▁notice	-10.3291
▁orange	-10.3291
▁percentage	-10.3291
▁prepare	-10.3291
▁presented	-10.3291
▁priority	-10.3291
▁programmable	-10.3291
▁she's	-10.3291
▁showed	-10.3291
▁stream	-10.3291
▁tape	-10.3291
▁technologies	-10.3291
▁tie	-10.3291
▁trouble	-10.3291
▁where's	-10.3291
▁worried	-10.3291
▁cats	-10.3699
▁consumer	-10.3699
▁corner	-10.3699
▁cute	-10.3699
▁cutting	-10.3699
▁detail	-10.3699
▁fish	-10.3699
▁furniture	-10.3699
▁google	-10.3699
▁honest	-10.3699
▁hot	-10.3699
▁human	-10.3699
▁identified	-10.3699
▁immediately	-10.3699
▁initially	-10.3699
▁interaction	-10.3699
▁keyboard	-10.3699
▁knew	-10.3699
▁le	-10.3699
▁master	-10.3699
▁modelling	-10.3699
▁motion	-10.3699
▁network	-10.3699
▁optional	-10.3699
▁parental	-10.3699
▁parents	-10.3699
▁planning	-10.3699
▁plate	-10.3699
▁plates	-10.3699
▁players	-10.3699
▁pull	-10.3699
▁segmentation	-10.3699
▁session	-10.3699
▁shots	-10.3699
▁sophisticated	-10.3699
▁speed	-10.3699
▁telling	-10.3699
▁watches	-10.3699
▁adapt	-10.4125
▁allowed	-10.4125
▁allows	-10.4125
▁aye	-10.4125
▁blink	-10.4125
▁bob	-10.4125
▁brand	-10.4125
▁browse	-10.4125
▁carry	-10.4125
▁centred	-10.4125
▁circle	-10.4125
▁communicate	-10.4125
▁compression	-10.4125
▁considering	-10.4125
▁controlling	-10.4125
▁creating	-10.4125
▁designers	-10.4125
▁dis	-10.4125
▁dump	-10.4125
▁durable	-10.4125
▁independent	-10.4125
▁known	-10.4125
▁layer	-10.4125
▁learning	-10.4125
▁likelihood	-10.4125
▁listen	-10.4125
▁loading	-10.4125
▁loads	-10.4125
▁mayb	-10.4125
▁organic	-10.4125
▁outdated	-10.4125
▁parameters	-10.4125
▁programmes	-10.4125
▁recogniser	-10.4125
▁rule	-10.4125
▁tasks	-10.4125
▁tr	-10.4125
▁wou	-10.4125
▁yo	-10.4125
▁acts	-10.4569
▁arrows	-10.4569
▁assuming	-10.4569
▁attention	-10.4569
▁centimetres	-10.4569
▁choices	-10.4569
▁closed	-10.4569
▁clothes	-10.4569
▁concerned	-10.4569
▁connect	-10.4569
▁don	-10.4569
▁effort	-10.4569
▁eh	-10.4569
▁essential	-10.4569
▁estimate	-10.4569
▁fo	-10.4569
▁fourteen	-10.4569
▁fulfil	-10.4569
▁hash	-10.4569
▁identify	-10.4569
▁inspiration	-10.4569
▁item	-10.4569
▁metal	-10.4569
▁mic	-10.4569
▁milliseconds	-10.4569
▁nee	-10.4569
▁neither	-10.4569
▁nokia	-10.4569
▁offer	-10.4569
▁ours	-10.4569
▁pass	-10.4569
▁plenty	-10.4569
▁recorder	-10.4569
▁sa	-10.4569
▁samples	-10.4569
▁sending	-10.4569
▁shoes	-10.4569
▁sign	-10.4569
▁specify	-10.4569
▁strain	-10.4569
▁stuck	-10.4569
▁ta	-10.4569
▁tomorrow	-10.4569
▁tracking	-10.4569
▁tune	-10.4569
▁weak	-10.4569
▁wrap	-10.4569
▁address	-10.5035
▁affect	-10.5035
▁angle	-10.5035
▁annotation	-10.5035
▁boards	-10.5035
▁conference	-10.5035
▁controlled	-10.5035
▁craig	-10.5035
▁delete	-10.5035
▁dot	-10.5035
▁edge	-10.5035
▁element	-10.5035
▁elephant	-10.5035
▁engineering	-10.5035
▁ergonomics	-10.5035
▁family	-10.5035
▁faster	-10.5035
▁felt	-10.5035
▁fully	-10.5035
▁games	-10.5035
▁gesture	-10.5035
▁highest	-10.5035
▁incorporated	-10.5035
▁leds	-10.5035
▁matlab	-10.5035
▁millisecond	-10.5035
▁module	-10.5035
▁printed	-10.5035
▁public	-10.5035
▁pushbuttons	-10.5035
▁redesign	-10.5035
▁roll	-10.5035
▁scores	-10.5035
▁specifications	-10.5035
▁sponge	-10.5035
▁stands	-10.5035
▁title	-10.5035
▁units	-10.5035
▁update	-10.5035
▁upper	-10.5035
▁wind	-10.5035
▁absolute	-10.5522
▁alarm	-10.5522
▁ami	-10.5522
▁appropriate	-10.5522
▁automatic	-10.5522
▁comparing	-10.5522
▁consumers	-10.5522
▁content	-10.5522
▁costly	-10.5522
▁desktop	-10.5522
▁eat	-10.5522
▁framework	-10.5522
▁goals	-10.5522
▁grab	-10.5522
▁identity	-10.5522
▁interfaces	-10.5522
▁lapel	-10.5522
▁late	-10.5522
▁linked	-10.5522
▁logic	-10.5522
▁mango	-10.5522
▁narrow	-10.5522
▁opened	-10.5522
▁pad	-10.5522
▁period	-10.5522
▁pop	-10.5522
▁prototypes	-10.5522
▁pushing	-10.5522
▁random	-10.5522
▁respect	-10.5522
▁respond	-10.5522
▁roughly	-10.5522
▁searching	-10.5522
▁self	-10.5522
▁throwing	-10.5522
▁tracker	-10.5522
▁transmit	-10.5522
▁upon	-10.5522
▁whe	-10.5522
▁wide	-10.5522
▁ar	-10.6035
▁associated	-10.6035
▁basics	-10.6035
▁child	-10.6035
▁choosing	-10.6035
▁cluster	-10.6035
▁considered	-10.6035
▁constraints	-10.6035
▁cross	-10.6035
▁da	-10.6035
▁dealing	-10.6035
▁deciding	-10.6035
▁delay	-10.6035
▁demographic	-10.6035
▁download	-10.6035
▁eyes	-10.6035
▁fall	-10.6035
▁finishing	-10.6035
▁flipping	-10.6035
▁forest	-10.6035
▁generation	-10.6035
▁hadn't	-10.6035
▁hardware	-10.6035
▁hide	-10.6035
▁label	-10.6035
▁laptops	-10.6035
▁likes	-10.6035
▁loud	-10.6035
▁luck	-10.6035
▁niche	-10.6035
▁online	-10.6035
▁plain	-10.6035
▁pounds	-10.6035
▁prices	-10.6035
▁properties	-10.6035
▁regions	-10.6035
▁seemed	-10.6035
▁shelf	-10.6035
▁shell	-10.6035
▁standing	-10.6035
▁supply	-10.6035
▁transform	-10.6035
▁triangles	-10.6035
▁usage	-10.6035
▁waiting	-10.6035
▁wo	-10.6035
▁wooden	-10.6035
▁ability	-10.6576
▁bear	-10.6576
▁becoming	-10.6576
▁beeps	-10.6576
▁begin	-10.6576
▁bird	-10.6576
▁boss	-10.6576
▁bother	-10.6576
▁bought	-10.6576
▁browsing	-10.6576
▁builder	-10.6576
▁central	-10.6576
▁charging	-10.6576
▁clean	-10.6576
▁codes	-10.6576
▁confused	-10.6576
▁critical	-10.6576
▁dash	-10.6576
▁date	-10.6576
▁degree	-10.6576
▁drawings	-10.6576
▁drawn	-10.6576
▁dropped	-10.6576
▁eraser	-10.6576
▁escape	-10.6576
▁fantastic	-10.6576
▁filter	-10.6576
▁forth	-10.6576
▁ge	-10.6576
▁gosh	-10.6576
▁guessing	-10.6576
▁hardly	-10.6576
▁helpful	-10.6576
▁incorporating	-10.6576
▁inspired	-10.6576
▁kn	-10.6576
▁meets	-10.6576
▁mushroom	-10.6576
▁noticed	-10.6576
▁pear	-10.6576
▁phrase	-10.6576
▁pineapple	-10.6576
▁producing	-10.6576
▁pushbutton	-10.6576
▁rem	-10.6576
▁represent	-10.6576
▁representation	-10.6576
▁ri	-10.6576
▁scrap	-10.6576
▁sensible	-10.6576
▁shou	-10.6576
▁si	-10.6576
▁site	-10.6576
▁solid	-10.6576
▁sources	-10.6576
▁straightforward	-10.6576
▁stress	-10.6576
▁student	-10.6576
▁symbols	-10.6576
▁term	-10.6576
▁terrible	-10.6576
▁till	-10.6576
▁turtle	-10.6576
▁un	-10.6576
▁ab	-10.7148
▁anyways	-10.7148
▁appealing	-10.7148
▁ascii	-10.7148
▁balance	-10.7148
▁blinks	-10.7148
▁body	-10.7148
▁brief	-10.7148
▁broke	-10.7148
▁cards	-10.7148
▁changeable	-10.7148
▁clap	-10.7148
▁companies	-10.7148
▁cou	-10.7148
▁definite	-10.7148
▁describe	-10.7148
▁detected	-10.7148
▁documentation	-10.7148
▁eighteen	-10.7148
▁elements	-10.7148
▁emails	-10.7148
▁fashions	-10.7148
▁fewer	-10.7148
▁flash	-10.7148
▁focusing	-10.7148
▁french	-10.7148
▁helps	-10.7148
▁highly	-10.7148
▁introduction	-10.7148
▁keypad	-10.7148
▁legs	-10.7148
▁lit	-10.7148
▁literally	-10.7148
▁lo	-10.7148
▁lock	-10.7148
▁manually	-10.7148
▁manufacturer	-10.7148
▁meeting's	-10.7148
▁merge	-10.7148
▁mi	-10.7148
▁mono	-10.7148
▁month	-10.7148
▁motto	-10.7148
▁mu	-10.7148
▁ne	-10.7148
▁near	-10.7148
▁occurs	-10.7148
▁package	-10.7148
▁palm	-10.7148
▁party	-10.7148
▁performance	-10.7148
▁powered	-10.7148
▁probability	-10.7148
▁proof	-10.7148
▁proper	-10.7148
▁properly	-10.7148
▁rank	-10.7148
▁recorded	-10.7148
▁relationship	-10.7148
▁residual	-10.7148
▁restrictions	-10.7148
▁return	-10.7148
▁rub	-10.7148
▁schedule	-10.7148
▁screw	-10.7148
▁situation	-10.7148
▁sold	-10.7148
▁sorts	-10.7148
▁strategy	-10.7148
▁stylish	-10.7148
▁suggestions	-10.7148
▁synthesis	-10.7148
▁thick	-10.7148
▁tho	-10.7148
▁understood	-10.7148
▁widths	-10.7148
▁wish	-10.7148
▁yay	-10.7148
▁appearance	-10.7754
▁beta	-10.7754
▁bleep	-10.7754
▁business	-10.7754
▁chance	-10.7754
▁clip	-10.7754
▁company's	-10.7754
▁compatible	-10.7754
▁concentrate	-10.7754
▁crap	-10.7754
▁definition	-10.7754
▁dependent	-10.7754
▁digit	-10.7754
▁drew	-10.7754
▁duration	-10.7754
▁fly	-10.7754
▁focused	-10.7754
▁forms	-10.7754
▁fr	-10.7754
▁furthermore	-10.7754
▁icsi	-10.7754
▁im	-10.7754
▁images	-10.7754
▁insert	-10.7754
▁instrument	-10.7754
▁interest	-10.7754
▁kilo	-10.7754
▁locate	-10.7754
▁mando	-10.7754
▁mechanism	-10.7754
▁mike	-10.7754
▁minor	-10.7754
▁mister	-10.7754
▁neat	-10.7754
▁originally	-10.7754
▁pause	-10.7754
▁peg	-10.7754
▁post	-10.7754
▁potato	-10.7754
▁potential	-10.7754
▁presume	-10.7754
▁produced	-10.7754
▁purple	-10.7754
▁reliable	-10.7754
▁remind	-10.7754
▁sarah	-10.7754
▁serious	-10.7754
▁slash	-10.7754
▁sliding	-10.7754
▁spec	-10.7754
▁steps	-10.7754
▁strawberry	-10.7754
▁super	-10.7754
▁supplement	-10.7754
▁tail	-10.7754
▁telly	-10.7754
▁thesis	-10.7754
▁turbo	-10.7754
▁wiki	-10.7754
▁alone	-10.8399
▁artistic	-10.8399
▁aware	-10.8399
▁block	-10.8399
▁capture	-10.8399
▁catch	-10.8399
▁cause	-10.8399
▁celebration	-10.8399
▁celp	-10.8399
▁checking	-10.8399
▁chose	-10.8399
▁circuits	-10.8399
▁clapping	-10.8399
▁clouds	-10.8399
▁comment	-10.8399
▁consensus	-10.8399
▁contact	-10.8399
▁demo	-10.8399
▁discussions	-10.8399
▁dollars	-10.8399
▁electrical	-10.8399
▁empty	-10.8399
▁figures	-10.8399
▁finances	-10.8399
▁fresh	-10.8399
▁implementing	-10.8399
▁instruction	-10.8399
▁inter	-10.8399
▁log	-10.8399
▁marking	-10.8399
▁meaning	-10.8399
▁mid	-10.8399
▁music	-10.8399
▁nebula	-10.8399
▁nicely	-10.8399
▁parameter	-10.8399
▁people's	-10.8399
▁petr	-10.8399
▁picked	-10.8399
▁precise	-10.8399
▁prepared	-10.8399
▁programmed	-10.8399
▁purposes	-10.8399
▁puts	-10.8399
▁raid	-10.8399
▁rating	-10.8399
▁ratios	-10.8399
▁recent	-10.8399
▁recently	-10.8399
▁recharge	-10.8399
▁regarding	-10.8399
▁reports	-10.8399
▁resources	-10.8399
▁responsible	-10.8399
▁roles	-10.8399
▁rough	-10.8399
▁rules	-10.8399
▁secretary	-10.8399
▁sentence	-10.8399
▁sharp	-10.8399
▁shop	-10.8399
▁slight	-10.8399
▁sorted	-10.8399
▁sports	-10.8399
▁spot	-10.8399
▁students	-10.8399
▁study	-10.8399
▁summarise	-10.8399
▁switches	-10.8399
▁tap	-10.8399
▁telephones	-10.8399
▁testing	-10.8399
▁tim	-10.8399
▁turned	-10.8399
▁wonderful	-10.8399
▁worse	-10.8399
▁anti	-10.9089
▁apparatus	-10.9089
▁appears	-10.9089
▁argue	-10.9089
▁attach	-10.9089
▁awesome	-10.9089
▁beeping	-10.9089
▁bet	-10.9089
▁breaks	-10.9089
▁briefly	-10.9089
▁calling	-10.9089
▁cameras	-10.9089
▁celebrate	-10.9089
▁cheapest	-10.9089
▁cheers	-10.9089
▁chunks	-10.9089
▁cinetis	-10.9089
▁classes	-10.9089
▁closer	-10.9089
▁comments	-10.9089
▁compress	-10.9089
▁corners	-10.9089
▁correctly	-10.9089
▁correlation	-10.9089
▁depend	-10.9089
▁determine	-10.9089
▁dice	-10.9089
▁embedded	-10.9089
▁encode	-10.9089
▁entirely	-10.9089
▁factors	-10.9089
▁falls	-10.9089
▁feed	-10.9089
▁gamma	-10.9089
▁gaussian	-10.9089
▁gotten	-10.9089
▁hate	-10.9089
▁hell	-10.9089
▁highlighted	-10.9089
▁icons	-10.9089
▁install	-10.9089
▁iron	-10.9089
▁labelled	-10.9089
▁local	-10.9089
▁lowest	-10.9089
▁mass	-10.9089
▁medium	-10.9089
▁methods	-10.9089
▁minimal	-10.9089
▁mistake	-10.9089
▁neutral	-10.9089
▁ordered	-10.9089
▁oth	-10.9089
▁outline	-10.9089
▁pe	-10.9089
▁picks	-10.9089
▁plugged	-10.9089
▁pointed	-10.9089
▁posterior	-10.9089
▁prediction	-10.9089
▁pu	-10.9089
▁rainbow	-10.9089
▁ring	-10.9089
▁setup	-10.9089
▁significant	-10.9089
▁silly	-10.9089
▁sky	-10.9089
▁somewhat	-10.9089
▁spent	-10.9089
▁spreadsheet	-10.9089
▁standby	-10.9089
▁surface	-10.9089
▁temporal	-10.9089
▁tested	-10.9089
▁ti	-10.9089
▁tracks	-10.9089
▁water	-10.9089
▁wider	-10.9089
▁afternoon	-10.983
▁amplitude	-10.983
▁andrew	-10.983
▁answers	-10.983
▁arbitrary	-10.983
▁assign	-10.983
▁attached	-10.983
▁becau	-10.983
▁blinking	-10.983
▁bye	-10.983
▁cache	-10.983
▁calculator	-10.983
▁classical	-10.983
▁combined	-10.983
▁competition	-10.983
▁competitors	-10.983
▁configuration	-10.983
▁constraint	-10.983
▁continuous	-10.983
▁cosine	-10.983
▁country	-10.983
▁custom	-10.983
▁decent	-10.983
▁decrease	-10.983
▁demand	-10.983
▁dogs	-10.983
▁dutch	-10.983
▁edges	-10.983
▁elder	-10.983
▁entity	-10.983
▁fancier	-10.983
▁flag	-10.983
▁generated	-10.983
▁guarantee	-10.983
▁he'll	-10.983
▁ideal	-10.983
▁increasing	-10.983
▁indicate	-10.983
▁industry	-10.983
▁info	-10.983
▁intelligent	-10.983
▁items	-10.983
▁la	-10.983
▁labels	-10.983
▁markets	-10.983
▁marks	-10.983
▁multifunctional	-10.983
▁nei	-10.983
▁o'clock	-10.983
▁opportunity	-10.983
▁outer	-10.983
▁physically	-10.983
▁pl	-10.983
▁placed	-10.983
▁po	-10.983
▁potentially	-10.983
▁pushed	-10.983
▁rat	-10.983
▁rec	-10.983
▁rewind	-10.983
▁risk	-10.983
▁safe	-10.983
▁scenario	-10.983
▁shown	-10.983
▁simplest	-10.983
▁simplistic	-10.983
▁speaks	-10.983
▁specified	-10.983
▁stamps	-10.983
▁su	-10.983
▁successful	-10.983
▁there'll	-10.983
▁thingy	-10.983
▁tip	-10.983
▁tuning	-10.983
▁warning	-10.983
▁wear	-10.983
▁wires	-10.983
▁abstract	-11.0631
▁aesthetic	-11.0631
▁als	-11.0631
▁among	-11.0631
▁approaches	-11.0631
▁areas	-11.0631
▁aurora	-11.0631
▁ba	-11.0631
▁bag	-11.0631
▁balls	-11.0631
▁besides	-11.0631
▁beyond	-11.0631
▁blocks	-11.0631
▁breaking	-11.0631
▁brings	-11.0631
▁button's	-11.0631
▁chosen	-11.0631
▁clunky	-11.0631
▁conditions	-11.0631
▁confirm	-11.0631
▁connections	-11.0631
▁constantly	-11.0631
▁countries	-11.0631
▁created	-11.0631
▁damn	-11.0631
▁dead	-11.0631
▁decoding	-11.0631
▁default	-11.0631
▁des	-11.0631
▁due	-11.0631
▁elegant	-11.0631
▁ends	-11.0631
▁filtering	-11.0631
▁filters	-11.0631
▁firm	-11.0631
▁floor	-11.0631
▁fourth	-11.0631
▁frustrations	-11.0631
▁gadget	-11.0631
▁gain	-11.0631
▁game	-11.0631
▁global	-11.0631
▁happening	-11.0631
▁hubble	-11.0631
▁impact	-11.0631
▁interrupt	-11.0631
▁keen	-11.0631
▁keeps	-11.0631
▁keywords	-11.0631
▁lack	-11.0631
▁languages	-11.0631
▁launch	-11.0631
▁listening	-11.0631
▁lithium	-11.0631
▁mael	-11.0631
▁magnitude	-11.0631
▁manufacturers	-11.0631
▁mentioning	-11.0631
▁mess	-11.0631
▁met	-11.0631
▁mirror	-11.0631
▁name's	-11.0631
▁nathan	-11.0631
▁net	-11.0631
▁olds	-11.0631
▁perform	-11.0631
▁perl	-11.0631
▁pity	-11.0631
▁proposal	-11.0631
▁raised	-11.0631
▁reasons	-11.0631
▁recharger	-11.0631
▁reference	-11.0631
▁replacement	-11.0631
▁rich	-11.0631
▁rooms	-11.0631
▁rubbery	-11.0631
▁satisfaction	-11.0631
▁selected	-11.0631
▁silence	-11.0631
▁sits	-11.0631
▁somebody's	-11.0631
▁specially	-11.0631
▁stages	-11.0631
▁statistical	-11.0631
▁statistics	-11.0631
▁stored	-11.0631
▁sturdy	-11.0631
▁swap	-11.0631
▁tandem	-11.0631
▁tied	-11.0631
▁tough	-11.0631
▁treat	-11.0631
▁trigger	-11.0631
▁ts	-11.0631
▁typical	-11.0631
▁ultimate	-11.0631
▁useless	-11.0631
▁wor	-11.0631
▁accordingly	-11.1501
▁addition	-11.1501
▁arrange	-11.1501
▁attract	-11.1501
▁backwards	-11.1501
▁bhattacharya	-11.1501
▁booking	-11.1501
▁calculated	-11.1501
▁car	-11.1501
▁cars	-11.1501
▁cha	-11.1501
▁cherry	-11.1501
▁collect	-11.1501
▁computation	-11.1501
▁compute	-11.1501
▁concern	-11.1501
▁consistent	-11.1501
▁consists	-11.1501
▁construction	-11.1501
▁cord	-11.1501
▁crashed	-11.1501
▁dear	-11.1501
▁detecting	-11.1501
▁doubt	-11.1501
▁efficient	-11.1501
▁ellen	-11.1501
▁fashioned	-11.1501
▁filled	-11.1501
▁finder	-11.1501
▁forgotten	-11.1501
▁friends	-11.1501
▁funky	-11.1501
▁gammas	-11.1501
▁gi	-11.1501
▁giraffe	-11.1501
▁glad	-11.1501
▁guide	-11.1501
▁hierarchical	-11.1501
▁hm	-11.1501
▁honestly	-11.1501
▁implications	-11.1501
▁includes	-11.1501
▁inputs	-11.1501
▁interior	-11.1501
▁internally	-11.1501
▁interspeech	-11.1501
▁ish	-11.1501
▁ki	-11.1501
▁knowing	-11.1501
▁learned	-11.1501
▁lets	-11.1501
▁loo	-11.1501
▁marbles	-11.1501
▁marketable	-11.1501
▁mold	-11.1501
▁morse	-11.1501
▁ni	-11.1501
▁nicer	-11.1501
▁none	-11.1501
▁norman	-11.1501
▁numbered	-11.1501
▁op	-11.1501
▁operation	-11.1501
▁ought	-11.1501
▁pa	-11.1501
▁pas	-11.1501
▁password	-11.1501
▁paste	-11.1501
▁peak	-11.1501
▁pedro	-11.1501
▁person's	-11.1501
▁pointless	-11.1501
▁presenting	-11.1501
▁prior	-11.1501
▁processor	-11.1501
▁progress	-11.1501
▁property	-11.1501
▁proposed	-11.1501
▁raise	-11.1501
▁reality	-11.1501
▁recap	-11.1501
▁referring	-11.1501
▁remo	-11.1501
▁safety	-11.1501
▁satisfied	-11.1501
▁sensors	-11.1501
▁separation	-11.1501
▁shortly	-11.1501
▁similarity	-11.1501
▁skimming	-11.1501
▁sony	-11.1501
▁stable	-11.1501
▁stamp	-11.1501
▁steph	-11.1501
▁story	-11.1501
▁sufficient	-11.1501
▁suggesting	-11.1501
▁summarised	-11.1501
▁surely	-11.1501
▁tactile	-11.1501
▁te	-11.1501
▁tenth	-11.1501
▁throughout	-11.1501
▁trade	-11.1501
▁trained	-11.1501
▁transition	-11.1501
▁translate	-11.1501
▁updated	-11.1501
▁ups	-11.1501
▁usable	-11.1501
▁wall	-11.1501
▁watched	-11.1501
▁wednesday	-11.1501
▁whoa	-11.1501
▁worst	-11.1501
▁year's	-11.1501
▁accidentally	-11.2454
▁admit	-11.2454
▁agreements	-11.2454
▁alignment	-11.2454
▁altogether	-11.2454
▁anna	-11.2454
▁annotated	-11.2454
▁applying	-11.2454
▁bas	-11.2454
▁bass	-11.2454
▁bounce	-11.2454
▁boundaries	-11.2454
▁cables	-11.2454
▁calculation	-11.2454
▁champagne	-11.2454
▁chi	-11.2454
▁circular	-11.2454
▁clothing	-11.2454
▁combining	-11.2454
▁constant	-11.2454
▁constructs	-11.2454
▁contains	-11.2454
▁contribution	-11.2454
▁cow	-11.2454
▁crash	-11.2454
▁criterion	-11.2454
▁decoder	-11.2454
▁describing	-11.2454
▁desires	-11.2454
▁detector	-11.2454
▁dif	-11.2454
▁differently	-11.2454
▁difficulty	-11.2454
▁dimension	-11.2454
▁directions	-11.2454
▁distinct	-11.2454
▁dolphin	-11.2454
▁dull	-11.2454
▁dynamically	-11.2454
▁edible	-11.2454
▁edinburgh	-11.2454
▁eighties	-11.2454
▁elaborate	-11.2454
▁elephants	-11.2454
▁european	-11.2454
▁faces	-11.2454
▁fail	-11.2454
▁falling	-11.2454
▁film	-11.2454
▁fitting	-11.2454
▁fribourg	-11.2454
▁friday	-11.2454
▁friendliness	-11.2454
▁frustrated	-11.2454
▁gap	-11.2454
▁generating	-11.2454
▁gest	-11.2454
▁grabbing	-11.2454
▁hemant	-11.2454
▁horse	-11.2454
▁hynek	-11.2454
▁indicator	-11.2454
▁interact	-11.2454
▁irritating	-11.2454
▁labelling	-11.2454
▁leader	-11.2454
▁lightning	-11.2454
▁limitations	-11.2454
▁marloes	-11.2454
▁microsoft	-11.2454
▁mobiles	-11.2454
▁modes	-11.2454
▁modifiers	-11.2454
▁modules	-11.2454
▁na	-11.2454
▁named	-11.2454
▁nearly	-11.2454
▁night	-11.2454
▁nor	-11.2454
▁pads	-11.2454
▁pain	-11.2454
▁panels	-11.2454
▁pattern	-11.2454
▁patterns	-11.2454
▁phases	-11.2454
▁practice	-11.2454
▁produces	-11.2454
▁profile	-11.2454
▁profits	-11.2454
▁programs	-11.2454
▁prominent	-11.2454
▁protection	-11.2454
▁ranked	-11.2454
▁ratio	-11.2454
▁ray	-11.2454
▁represents	-11.2454
▁ron	-11.2454
▁runs	-11.2454
▁sale	-11.2454
▁sampling	-11.2454
▁school	-11.2454
▁scratch	-11.2454
▁sector	-11.2454
▁separated	-11.2454
▁sim	-11.2454
▁slider	-11.2454
▁smac	-11.2454
▁spam	-11.2454
▁species	-11.2454
▁spectrogram	-11.2454
▁states	-11.2454
▁stays	-11.2454
▁sticking	-11.2454
▁string	-11.2454
▁stripes	-11.2454
▁studies	-11.2454
▁styles	-11.2454
▁suggestion	-11.2454
▁summaries	-11.2454
▁summarisation	-11.2454
▁surf	-11.2454
▁suspect	-11.2454
▁tends	-11.2454
▁there're	-11.2454
▁thrown	-11.2454
▁tiny	-11.2454
▁transistors	-11.2454
▁trick	-11.2454
▁triphone	-11.2454
▁trust	-11.2454
▁whoops	-11.2454
▁wikipedia	-11.2454
▁woah	-11.2454
▁worrying	-11.2454
▁yea	-11.2454
▁abundance	-11.3508
▁actu	-11.3508
▁adds	-11.3508
▁analyse	-11.3508
▁ap	-11.3508
▁april	-11.3508
▁art	-11.3508
▁articulation	-11.3508
▁assembly	-11.3508
▁associate	-11.3508
▁awful	-11.3508
▁badge	-11.3508
▁baseline	-11.3508
▁beat	-11.3508
▁bec	-11.3508
▁became	-11.3508
▁bells	-11.3508
▁benefit	-11.3508
▁bold	-11.3508
▁booklet	-11.3508
▁brands	-11.3508
▁bringing	-11.3508
▁brown	-11.3508
▁bug	-11.3508
▁bulky	-11.3508
▁bullet	-11.3508
▁catchy	-11.3508
▁chat	-11.3508
▁checked	-11.3508
▁christmas	-11.3508
▁clicking	-11.3508
▁cold	-11.3508
▁collection	-11.3508
▁comfort	-11.3508
▁computing	-11.3508
▁concerning	-11.3508
▁configure	-11.3508
▁contain	-11.3508
▁contents	-11.3508
▁control's	-11.3508
▁counting	-11.3508
▁creates	-11.3508
▁crucial	-11.3508
▁deep	-11.3508
▁desi	-11.3508
▁dimensional	-11.3508
▁dimensions	-11.3508
▁diode	-11.3508
▁disagree	-11.3508
▁dislike	-11.3508
▁disposable	-11.3508
▁door	-11.3508
▁doubly	-11.3508
▁drawer	-11.3508
▁ears	-11.3508
▁edition	-11.3508
▁effects	-11.3508
▁ended	-11.3508
▁enhance	-11.3508
▁entropy	-11.3508
▁europe	-11.3508
▁famous	-11.3508
▁female	-11.3508
▁fiddling	-11.3508
▁fig	-11.3508
▁forgetting	-11.3508
▁frank	-11.3508
▁fundamental	-11.3508
▁grips	-11.3508
▁handling	-11.3508
▁histogram	-11.3508
▁holder	-11.3508
▁hole	-11.3508
▁homer	-11.3508
▁hook	-11.3508
▁household	-11.3508
▁hundreds	-11.3508
▁icon	-11.3508
▁immediate	-11.3508
▁instantly	-11.3508
▁integration	-11.3508
▁internationally	-11.3508
▁kendra	-11.3508
▁lamp	-11.3508
▁lasting	-11.3508
▁latent	-11.3508
▁letters	-11.3508
▁lie	-11.3508
▁limiting	-11.3508
▁limits	-11.3508
▁loaded	-11.3508
▁logical	-11.3508
▁maker	-11.3508
▁marius	-11.3508
▁matching	-11.3508
▁matters	-11.3508
▁men	-11.3508
▁minimise	-11.3508
▁monday	-11.3508
▁monkey	-11.3508
▁mould	-11.3508
▁newer	-11.3508
▁nobody's	-11.3508
▁occur	-11.3508
▁offers	-11.3508
▁office	-11.3508
▁officially	-11.3508
▁opens	-11.3508
▁ordinary	-11.3508
▁path	-11.3508
▁priorities	-11.3508
▁ran	-11.3508
▁reached	-11.3508
▁realistic	-11.3508
▁reasonably	-11.3508
▁recommend	-11.3508
▁rectangle	-11.3508
▁replaced	-11.3508
▁resolution	-11.3508
▁restrict	-11.3508
▁restriction	-11.3508
▁robin	-11.3508
▁rolling	-11.3508
▁satellite	-11.3508
▁sc	-11.3508
▁scene	-11.3508
▁sells	-11.3508
▁sight	-11.3508
▁sketch	-11.3508
▁skin	-11.3508
▁slowly	-11.3508
▁sometime	-11.3508
▁strength	-11.3508
▁symbol	-11.3508
▁tamgrams	-11.3508
▁theory	-11.3508
▁thinks	-11.3508
▁tone	-11.3508
▁transmitting	-11.3508
▁traps	-11.3508
▁typically	-11.3508
▁understanding	-11.3508
▁undo	-11.3508
▁whilst	-11.3508
▁wing	-11.3508
▁'til	-11.4685
▁absorbers	-11.4685
▁acceptable	-11.4685
▁accommodate	-11.4685
▁accurate	-11.4685
▁accustomed	-11.4685
▁adaptable	-11.4685
▁adults	-11.4685
▁ages	-11.4685
▁aimed	-11.4685
▁aims	-11.4685
▁air	-11.4685
▁appreciate	-11.4685
▁attribute	-11.4685
▁attributes	-11.4685
▁beer	-11.4685
▁bi	-11.4685
▁bling	-11.4685
▁brian	-11.4685
▁bugs	-11.4685
▁bunny	-11.4685
▁burn	-11.4685
▁capable	-11.4685
▁catherine	-11.4685
▁characters	-11.4685
▁chew	-11.4685
▁claim	-11.4685
▁comp	-11.4685
▁computationally	-11.4685
▁conscious	-11.4685
▁contacts	-11.4685
▁copper	-11.4685
▁correlated	-11.4685
▁cube	-11.4685
▁curious	-11.4685
▁december	-11.4685
▁demonstrate	-11.4685
▁description	-11.4685
▁differences	-11.4685
▁directional	-11.4685
▁disagreement	-11.4685
▁dock	-11.4685
▁dual	-11.4685
▁duck	-11.4685
▁ea	-11.4685
▁electric	-11.4685
▁emailed	-11.4685
▁entertainment	-11.4685
▁estimated	-11.4685
▁estimation	-11.4685
▁fa	-11.4685
▁fiddle	-11.4685
▁flips	-11.4685
▁formats	-11.4685
▁freedom	-11.4685
▁frustration	-11.4685
▁gaming	-11.4685
▁gateway	-11.4685
▁goo	-11.4685
▁graphic	-11.4685
▁greater	-11.4685
▁gyro	-11.4685
▁hearing	-11.4685
▁hooked	-11.4685
▁ideally	-11.4685
▁ignore	-11.4685
▁incremental	-11.4685
▁influence	-11.4685
▁ins	-11.4685
▁intended	-11.4685
▁interfere	-11.4685
▁ion	-11.4685
▁kayak	-11.4685
▁lead	-11.4685
▁likelihoods	-11.4685
▁loss	-11.4685
▁lying	-11.4685
▁mac	-11.4685
▁manipulate	-11.4685
▁marc	-11.4685
▁margin	-11.4685
▁micro	-11.4685
▁min	-11.4685
▁minimalist	-11.4685
▁modifier	-11.4685
▁modify	-11.4685
▁mouth	-11.4685
▁newsflash	-11.4685
▁nineteen	-11.4685
▁north	-11.4685
▁odd	-11.4685
▁operations	-11.4685
▁opinions	-11.4685
▁organise	-11.4685
▁oui	-11.4685
▁ourself	-11.4685
▁paid	-11.4685
▁parallel	-11.4685
▁partly	-11.4685
▁perfectly	-11.4685
▁picking	-11.4685
▁pilot	-11.4685
▁pla	-11.4685
▁popularity	-11.4685
▁portable	-11.4685
▁practically	-11.4685
▁presently	-11.4685
▁presses	-11.4685
▁pressure	-11.4685
▁principle	-11.4685
▁protect	-11.4685
▁react	-11.4685
▁realised	-11.4685
▁rectangular	-11.4685
▁release	-11.4685
▁remote's	-11.4685
▁repeat	-11.4685
▁replacing	-11.4685
▁reply	-11.4685
▁restricted	-11.4685
▁road	-11.4685
▁route	-11.4685
▁routing	-11.4685
▁ru	-11.4685
▁sad	-11.4685
▁sammy	-11.4685
▁scared	-11.4685
▁scary	-11.4685
▁schematic	-11.4685
▁shock	-11.4685
▁shoot	-11.4685
▁sinusoidal	-11.4685
▁skills	-11.4685
▁slick	-11.4685
▁slim	-11.4685
▁snowman	-11.4685
▁sofa	-11.4685
▁sor	-11.4685
▁spending	-11.4685
▁spoken	-11.4685
▁sta	-11.4685
▁statement	-11.4685
▁stationary	-11.4685
▁stations	-11.4685
▁stayed	-11.4685
▁strawberries	-11.4685
▁strip	-11.4685
▁sun	-11.4685
▁surfing	-11.4685
▁taste	-11.4685
▁telescope	-11.4685
▁thus	-11.4685
▁tips	-11.4685
▁tomato	-11.4685
▁tonight	-11.4685
▁touching	-11.4685
▁transfer	-11.4685
▁transistor	-11.4685
▁translates	-11.4685
▁translation	-11.4685
▁transmission	-11.4685
▁trap	-11.4685
▁tree	-11.4685
▁tying	-11.4685
▁typing	-11.4685
▁ultimately	-11.4685
▁updates	-11.4685
▁user's	-11.4685
▁walking	-11.4685
▁waste	-11.4685
▁watchers	-11.4685
▁whistles	-11.4685
▁whoo	-11.4685
▁win	-11.4685
▁wired	-11.4685
▁woulda	-11.4685
▁wrist	-11.4685
▁yell	-11.4685
▁yesterday	-11.4685
▁abo	-11.6021
▁ach	-11.6021
▁acronym	-11.6021
▁ad	-11.6021
▁addressed	-11.6021
▁algorithms	-11.6021
▁align	-11.6021
▁ano	-11.6021
▁antek	-11.6021
▁anybody's	-11.6021
▁applications	-11.6021
▁applied	-11.6021
▁artist	-11.6021
▁assumption	-11.6021
▁backlight	-11.6021
▁bananas	-11.6021
▁battery's	-11.6021
▁beam	-11.6021
▁blanketing	-11.6021
▁bo	-11.6021
▁booked	-11.6021
▁bowl	-11.6021
▁boy	-11.6021
▁bracket	-11.6021
▁brain	-11.6021
▁brainstorming	-11.6021
▁bucks	-11.6021
▁butterfly	-11.6021
▁calculating	-11.6021
▁calculators	-11.6021
▁california	-11.6021
▁calls	-11.6021
▁chair	-11.6021
▁challenge	-11.6021
▁chunk	-11.6021
▁clearer	-11.6021
▁client	-11.6021
▁cloud	-11.6021
▁coarse	-11.6021
▁coded	-11.6021
▁coefficients	-11.6021
▁commercial	-11.6021
▁communicating	-11.6021
▁complicate	-11.6021
▁concatenate	-11.6021
▁concerns	-11.6021
▁confident	-11.6021
▁confirmation	-11.6021
▁correction	-11.6021
▁correspond	-11.6021
▁cr	-11.6021
▁crappy	-11.6021
▁criterias	-11.6021
▁cushion	-11.6021
▁customisable	-11.6021
▁dangerous	-11.6021
▁daniel	-11.6021
▁depth	-11.6021
▁described	-11.6021
▁diagram	-11.6021
▁die	-11.6021
▁diff	-11.6021
▁distinction	-11.6021
▁doable	-11.6021
▁east	-11.6021
▁emphasise	-11.6021
▁enable	-11.6021
▁encoding	-11.6021
▁fabulous	-11.6021
▁fanciness	-11.6021
▁fat	-11.6021
▁feeds	-11.6021
▁fibreglass	-11.6021
▁fields	-11.6021
▁filling	-11.6021
▁finalise	-11.6021
▁flick	-11.6021
▁formula	-11.6021
▁framing	-11.6021
▁frustrating	-11.6021
▁functionally	-11.6021
▁functioning	-11.6021
▁futuristic	-11.6021
▁gabriel	-11.6021
▁geometry	-11.6021
▁graph	-11.6021
▁guillaume	-11.6021
▁gun	-11.6021
▁hamed	-11.6021
▁harmonic	-11.6021
▁height	-11.6021
▁hip	-11.6021
▁hitting	-11.6021
▁hurry	-11.6021
▁hydrogen	-11.6021
▁id	-11.6021
▁identification	-11.6021
▁import	-11.6021
▁impression	-11.6021
▁inc	-11.6021
▁inch	-11.6021
▁inclined	-11.6021
▁income	-11.6021
▁increased	-11.6021
▁indicated	-11.6021
▁informed	-11.6021
▁int	-11.6021
▁interf	-11.6021
▁kidding	-11.6021
▁kin	-11.6021
▁kno	-11.6021
▁lay	-11.6021
▁leading	-11.6021
▁leaning	-11.6021
▁lengths	-11.6021
▁libraries	-11.6021
▁listed	-11.6021
▁lists	-11.6021
▁locating	-11.6021
▁loose	-11.6021
▁luckily	-11.6021
▁luminous	-11.6021
▁magnetic	-11.6021
▁marker	-11.6021
▁matches	-11.6021
▁math	-11.6021
▁meantime	-11.6021
▁mice	-11.6021
▁midi	-11.6021
▁millions	-11.6021
▁modulation	-11.6021
▁onl	-11.6021
▁opposite	-11.6021
▁packaging	-11.6021
▁paging	-11.6021
▁parent	-11.6021
▁parser	-11.6021
▁paying	-11.6021
▁peeling	-11.6021
▁peop	-11.6021
▁persons	-11.6021
▁pet	-11.6021
▁philips	-11.6021
▁philosophy	-11.6021
▁pocket	-11.6021
▁poor	-11.6021
▁poppy	-11.6021
▁pops	-11.6021
▁powers	-11.6021
▁preparing	-11.6021
▁pretend	-11.6021
▁prob	-11.6021
▁problematic	-11.6021
▁profitable	-11.6021
▁promote	-11.6021
▁proportion	-11.6021
▁psychology	-11.6021
▁reconstruction	-11.6021
▁records	-11.6021
▁redundant	-11.6021
▁relate	-11.6021
▁represented	-11.6021
▁representing	-11.6021
▁responsibility	-11.6021
▁reuse	-11.6021
▁ridiculous	-11.6021
▁san	-11.6021
▁semantic	-11.6021
▁shaking	-11.6021
▁shame	-11.6021
▁sheets	-11.6021
▁shifted	-11.6021
▁shit	-11.6021
▁shorter	-11.6021
▁silicone	-11.6021
▁skins	-11.6021
▁skipped	-11.6021
▁smallest	-11.6021
▁smartboards	-11.6021
▁smell	-11.6021
▁smells	-11.6021
▁softer	-11.6021
▁som	-11.6021
▁someone's	-11.6021
▁spare	-11.6021
▁splitting	-11.6021
▁sponginess	-11.6021
▁spots	-11.6021
▁static	-11.6021
▁steep	-11.6021
▁success	-11.6021
▁sudden	-11.6021
▁surprised	-11.6021
▁tables	-11.6021
▁tests	-11.6021
▁tick	-11.6021
▁ties	-11.6021
▁transparent	-11.6021
▁treble	-11.6021
▁uni	-11.6021
▁upgrade	-11.6021
▁wan	-11.6021
▁whi	-11.6021
▁wipe	-11.6021
▁workings	-11.6021
▁accomplish	-11.7562
▁adaptation	-11.7562
▁affected	-11.7562
▁analyser	-11.7562
▁analyses	-11.7562
▁angry	-11.7562
▁answering	-11.7562
▁appeals	-11.7562
▁appleton	-11.7562
▁applicable	-11.7562
▁arrays	-11.7562
▁articulated	-11.7562
▁assignment	-11.7562
▁auto	-11.7562
▁baba	-11.7562
▁badly	-11.7562
▁basi	-11.7562
▁bat	-11.7562
▁beamer	-11.7562
▁beauty	-11.7562
▁bee	-11.7562
▁ben	-11.7562
▁biased	-11.7562
▁bin	-11.7562
▁border	-11.7562
▁bosses	-11.7562
▁bouncing	-11.7562
▁br	-11.7562
▁breakdown	-11.7562
▁brother	-11.7562
▁bulk	-11.7562
▁calibration	-11.7562
▁capturing	-11.7562
▁carried	-11.7562
▁carrot	-11.7562
▁cartoon	-11.7562
▁casings	-11.7562
▁cellphone	-11.7562
▁characteristic	-11.7562
▁chargeable	-11.7562
▁charges	-11.7562
▁childish	-11.7562
▁children's	-11.7562
▁china	-11.7562
▁choo	-11.7562
▁christa	-11.7562
▁chunking	-11.7562
▁chunky	-11.7562
▁cl	-11.7562
▁classification	-11.7562
▁closely	-11.7562
▁closest	-11.7562
▁clue	-11.7562
▁clusters	-11.7562
▁cohen	-11.7562
▁coherent	-11.7562
▁collaboration	-11.7562
▁collected	-11.7562
▁comfortably	-11.7562
▁conducted	-11.7562
▁congratulations	-11.7562
▁considerations	-11.7562
▁consist	-11.7562
▁constrained	-11.7562
▁constructed	-11.7562
▁consume	-11.7562
▁cooler	-11.7562
▁copied	-11.7562
▁cordless	-11.7562
▁core	-11.7562
▁coulda	-11.7562
▁crank	-11.7562
▁crashes	-11.7562
▁customise	-11.7562
▁damage	-11.7562
▁danny	-11.7562
▁daughter	-11.7562
▁deadline	-11.7562
▁degrees	-11.7562
▁deleted	-11.7562
▁deliberately	-11.7562
▁demands	-11.7562
▁desire	-11.7562
▁diagonal	-11.7562
▁died	-11.7562
▁diego	-11.7562
▁dig	-11.7562
▁diphone	-11.7562
▁disable	-11.7562
▁dollar	-11.7562
▁dom	-11.7562
▁drag	-11.7562
▁dropping	-11.7562
▁duh	-11.7562
▁durability	-11.7562
▁dwarf	-11.7562
▁ear	-11.7562
▁el	-11.7562
▁electricity	-11.7562
▁eliminate	-11.7562
▁ellen's	-11.7562
▁elsewhere	-11.7562
▁emitting	-11.7562
▁errors	-11.7562
▁essence	-11.7562
▁facilities	-11.7562
▁facility	-11.7562
▁feelings	-11.7562
▁feet	-11.7562
▁finds	-11.7562
▁fluffy	-11.7562
▁focussing	-11.7562
▁fold	-11.7562
▁followed	-11.7562
▁food	-11.7562
▁friend	-11.7562
▁fu	-11.7562
▁fulfilled	-11.7562
▁funct	-11.7562
▁furry	-11.7562
▁gimmicky	-11.7562
▁glass	-11.7562
▁gon	-11.7562
▁granularity	-11.7562
▁guaranteed	-11.7562
▁hated	-11.7562
▁heather	-11.7562
▁helping	-11.7562
▁hinge	-11.7562
▁history	-11.7562
▁holes	-11.7562
▁homepage	-11.7562
▁humans	-11.7562
▁hurt	-11.7562
▁increases	-11.7562
▁indication	-11.7562
▁infer	-11.7562
▁inner	-11.7562
▁integrating	-11.7562
▁interpretation	-11.7562
▁kit	-11.7562
▁lastly	-11.7562
▁letter	-11.7562
▁library	-11.7562
▁liking	-11.7562
▁lime	-11.7562
▁located	-11.7562
▁managed	-11.7562
▁manufacture	-11.7562
▁maplin	-11.7562
▁mar	-11.7562
▁mel	-11.7562
▁members	-11.7562
▁messenger	-11.7562
▁meta	-11.7562
▁mine's	-11.7562
▁mis	-11.7562
▁mistakes	-11.7562
▁modified	-11.7562
▁monitor	-11.7562
▁multiply	-11.7562
▁naming	-11.7562
▁nasty	-11.7562
▁needing	-11.7562
▁nist	-11.7562
▁notion	-11.7562
▁num	-11.7562
▁numerical	-11.7562
▁occurred	-11.7562
▁offered	-11.7562
▁oop	-11.7562
▁optimal	-11.7562
▁optimisation	-11.7562
▁other's	-11.7562
▁pack	-11.7562
▁packet	-11.7562
▁par	-11.7562
▁parallelogram	-11.7562
▁patent	-11.7562
▁peoples	-11.7562
▁phoneme	-11.7562
▁piloting	-11.7562
▁pin	-11.7562
▁playstation	-11.7562
▁posters	-11.7562
▁precision	-11.7562
▁prints	-11.7562
▁produ	-11.7562
▁product's	-11.7562
▁professional	-11.7562
▁profiles	-11.7562
▁promise	-11.7562
▁promising	-11.7562
▁protocol	-11.7562
▁published	-11.7562
▁pure	-11.7562
▁ra	-11.7562
▁rama	-11.7562
▁ranking	-11.7562
▁rare	-11.7562
▁reconstruct	-11.7562
▁reduced	-11.7562
▁refer	-11.7562
▁regularly	-11.7562
▁reissa	-11.7562
▁relates	-11.7562
▁rely	-11.7562
▁reminder	-11.7562
▁rhombus	-11.7562
▁robot	-11.7562
▁rose	-11.7562
▁rounded	-11.7562
▁ruin	-11.7562
▁safer	-11.7562
▁scalable	-11.7562
▁science	-11.7562
▁scoring	-11.7562
▁screwed	-11.7562
▁sec	-11.7562
▁sectors	-11.7562
▁selecting	-11.7562
▁sellable	-11.7562
▁senses	-11.7562
▁sentences	-11.7562
▁shifts	-11.7562
▁shine	-11.7562
▁sing	-11.7562
▁smoothly	-11.7562
▁sounded	-11.7562
▁spanish	-11.7562
▁spe	-11.7562
▁specifics	-11.7562
▁specs	-11.7562
▁spell	-11.7562
▁spoke	-11.7562
▁spongey	-11.7562
▁staff	-11.7562
▁stated	-11.7562
▁stem	-11.7562
▁sticks	-11.7562
▁stressful	-11.7562
▁strict	-11.7562
▁structures	-11.7562
▁submit	-11.7562
▁suitable	-11.7562
▁surround	-11.7562
▁switched	-11.7562
▁synched	-11.7562
▁tag	-11.7562
▁tam	-11.7562
▁tara	-11.7562
▁techni	-11.7562
▁techno	-11.7562
▁teeth	-11.7562
▁tera	-11.7562
▁terribly	-11.7562
▁themes	-11.7562
▁theoretically	-11.7562
▁theta	-11.7562
▁thicker	-11.7562
▁thing's	-11.7562
▁thursday	-11.7562
▁tiger	-11.7562
▁tight	-11.7562
▁timing	-11.7562
▁toggle	-11.7562
▁touched	-11.7562
▁tower	-11.7562
▁toys	-11.7562
▁transforms	-11.7562
▁unrelated	-11.7562
▁unusual	-11.7562
▁wel	-11.7562
▁whistling	-11.7562
▁youth	-11.7562
▁ac	-11.9385
▁accept	-11.9385
▁accurately	-11.9385
▁addendum	-11.9385
▁adopters	-11.9385
▁adult	-11.9385
▁aesthetics	-11.9385
▁affects	-11.9385
▁ag	-11.9385
▁agreeing	-11.9385
▁alerts	-11.9385
▁aligned	-11.9385
▁alima	-11.9385
▁alimentation	-11.9385
▁allergic	-11.9385
▁almo	-11.9385
▁alt	-11.9385
▁amplify	-11.9385
▁amplitudes	-11.9385
▁analysing	-11.9385
▁angles	-11.9385
▁annotations	-11.9385
▁appearing	-11.9385
▁apples	-11.9385
▁arguments	-11.9385
▁assignments	-11.9385
▁assumed	-11.9385
▁attended	-11.9385
▁audiences	-11.9385
▁author	-11.9385
▁baby	-11.9385
▁badger	-11.9385
▁bana	-11.9385
▁basement	-11.9385
▁belong	-11.9385
▁bound	-11.9385
▁boundary	-11.9385
▁brackets	-11.9385
▁breakable	-11.9385
▁bridge	-11.9385
▁british	-11.9385
▁broader	-11.9385
▁bump	-11.9385
▁byte	-11.9385
▁carrying	-11.9385
▁cash	-11.9385
▁catching	-11.9385
▁causes	-11.9385
▁chan	-11.9385
▁charged	-11.9385
▁chief	-11.9385
▁classic	-11.9385
▁cluttered	-11.9385
▁coating	-11.9385
▁collaborating	-11.9385
▁combinations	-11.9385
▁compartment	-11.9385
▁complaints	-11.9385
▁compose	-11.9385
▁conclude	-11.9385
▁concrete	-11.9385
▁confuse	-11.9385
▁constructor	-11.9385
▁consumes	-11.9385
▁cont	-11.9385
▁contained	-11.9385
▁continuing	-11.9385
▁contrary	-11.9385
▁cope	-11.9385
▁copies	-11.9385
▁cows	-11.9385
▁craig's	-11.9385
▁crawl	-11.9385
▁credit	-11.9385
▁crowded	-11.9385
▁cu	-11.9385
▁cup	-11.9385
▁cushions	-11.9385
▁dad	-11.9385
▁damaged	-11.9385
▁darkness	-11.9385
▁deadlines	-11.9385
▁decomposition	-11.9385
▁dedicated	-11.9385
▁deeper	-11.9385
▁defining	-11.9385
▁descriptions	-11.9385
▁desired	-11.9385
▁desk	-11.9385
▁detections	-11.9385
▁dil	-11.9385
▁diodes	-11.9385
▁disconnect	-11.9385
▁discourse	-11.9385
▁discrete	-11.9385
▁distinguish	-11.9385
▁distributions	-11.9385
▁doe	-11.9385
▁dots	-11.9385
▁dough	-11.9385
▁draft	-11.9385
▁dumped	-11.9385
▁eating	-11.9385
▁efficiently	-11.9385
▁elan	-11.9385
▁elk	-11.9385
▁em	-11.9385
▁en	-11.9385
▁engineer	-11.9385
▁es	-11.9385
▁facing	-11.9385
▁fade	-11.9385
▁fired	-11.9385
▁flashing	-11.9385
▁flipped	-11.9385
▁flores	-11.9385
▁flying	-11.9385
▁forming	-11.9385
▁fro	-11.9385
▁func	-11.9385
▁gadgets	-11.9385
▁gather	-11.9385
▁gaussians	-11.9385
▁generalised	-11.9385
▁generates	-11.9385
▁generic	-11.9385
▁gentlemen	-11.9385
▁giant	-11.9385
▁gigabytes	-11.9385
▁girls	-11.9385
▁globally	-11.9385
▁grade	-11.9385
▁graphics	-11.9385
▁grow	-11.9385
▁growing	-11.9385
▁guillermo	-11.9385
▁gunn	-11.9385
▁habits	-11.9385
▁harm	-11.9385
▁he'd	-11.9385
▁headed	-11.9385
▁health	-11.9385
▁helium	-11.9385
▁hides	-11.9385
▁himself	-11.9385
▁hypothesis	-11.9385
▁identical	-11.9385
▁illuminate	-11.9385
▁imagination	-11.9385
▁imp	-11.9385
▁implementation	-11.9385
▁inches	-11.9385
▁inconsistent	-11.9385
▁incorporates	-11.9385
▁independence	-11.9385
▁independently	-11.9385
▁indicates	-11.9385
▁induction	-11.9385
▁inform	-11.9385
▁informations	-11.9385
▁installed	-11.9385
▁intention	-11.9385
▁interpreted	-11.9385
▁ipods	-11.9385
▁kid	-11.9385
▁killed	-11.9385
▁kitchen	-11.9385
▁law	-11.9385
▁layers	-11.9385
▁lefty	-11.9385
▁les	-11.9385
▁lesser	-11.9385
▁liberty	-11.9385
▁lighted	-11.9385
▁lighter	-11.9385
▁linguistic	-11.9385
▁lisbon	-11.9385
▁locations	-11.9385
▁locked	-11.9385
▁logos	-11.9385
▁lump	-11.9385
▁mailing	-11.9385
▁male	-11.9385
▁managers	-11.9385
▁manuals	-11.9385
▁manuel	-11.9385
▁martian	-11.9385
▁maths	-11.9385
▁meaningful	-11.9385
▁measured	-11.9385
▁mechanical	-11.9385
▁mechanisms	-11.9385
▁member	-11.9385
▁messy	-11.9385
▁metallic	-11.9385
▁methodology	-11.9385
▁metre	-11.9385
▁michael	-11.9385
▁mics	-11.9385
▁minds	-11.9385
▁mock	-11.9385
▁mod	-11.9385
▁molds	-11.9385
▁mood	-11.9385
▁mornings	-11.9385
▁motlicek	-11.9385
▁mount	-11.9385
▁mouses	-11.9385
▁multiplying	-11.9385
▁mutually	-11.9385
▁nature	-11.9385
▁nay	-11.9385
▁nebulae	-11.9385
▁nick	-11.9385
▁noises	-11.9385
▁nought	-11.9385
▁occurrence	-11.9385
▁occurrences	-11.9385
▁october	-11.9385
▁oka	-11.9385
▁opal	-11.9385
▁orders	-11.9385
▁outlook	-11.9385
▁outputs	-11.9385
▁painting	-11.9385
▁panther	-11.9385
▁pardon	-11.9385
▁parsing	-11.9385
▁passing	-11.9385
▁peaks	-11.9385
▁pedro's	-11.9385
▁pen's	-11.9385
▁performing	-11.9385
▁pets	-11.9385
▁ph	-11.9385
▁plans	-11.9385
▁plasticine	-11.9385
▁pleased	-11.9385
▁polygons	-11.9385
▁portion	-11.9385
▁positioning	-11.9385
▁preferred	-11.9385
▁primarily	-11.9385
▁processed	-11.9385
▁prog	-11.9385
▁prominently	-11.9385
▁proportional	-11.9385
▁ps	-11.9385
▁publish	-11.9385
▁radical	-11.9385
▁rarely	-11.9385
▁rated	-11.9385
▁rays	-11.9385
▁reactions	-11.9385
▁reacts	-11.9385
▁readable	-11.9385
▁realistically	-11.9385
▁reco	-11.9385
▁recognised	-11.9385
▁refers	-11.9385
▁reflect	-11.9385
▁regards	-11.9385
▁regenerate	-11.9385
▁register	-11.9385
▁relying	-11.9385
▁rep	-11.9385
▁resistant	-11.9385
▁retail	-11.9385
▁rings	-11.9385
▁row	-11.9385
▁rubber's	-11.9385
▁ruud's	-11.9385
▁ryan	-11.9385
▁samsung	-11.9385
▁sapa	-11.9385
▁scaling	-11.9385
▁scenes	-11.9385
▁scored	-11.9385
▁seat	-11.9385
▁secondary	-11.9385
▁seriously	-11.9385
▁seyfert	-11.9385
▁sharpness	-11.9385
▁shifting	-11.9385
▁sided	-11.9385
▁siemens	-11.9385
▁significantly	-11.9385
▁simplified	-11.9385
▁sites	-11.9385
▁skipping	-11.9385
▁sli	-11.9385
▁smile	-11.9385
▁snake	-11.9385
▁society	-11.9385
▁someth	-11.9385
▁somethi	-11.9385
▁sooner	-11.9385
▁south	-11.9385
▁sparse	-11.9385
▁specialist	-11.9385
▁stationality	-11.9385
▁status	-11.9385
▁steady	-11.9385
▁steal	-11.9385
▁stock	-11.9385
▁stops	-11.9385
▁storing	-11.9385
▁streamlined	-11.9385
▁street	-11.9385
▁stretch	-11.9385
▁strictly	-11.9385
▁strings	-11.9385
▁structured	-11.9385
▁subtle	-11.9385
▁summariser	-11.9385
▁sums	-11.9385
▁supermarket	-11.9385
▁supplied	-11.9385
▁supplies	-11.9385
▁swing	-11.9385
▁synch	-11.9385
▁tak	-11.9385
▁tall	-11.9385
▁tangible	-11.9385
▁teach	-11.9385
▁teaching	-11.9385
▁tele	-11.9385
▁there'd	-11.9385
▁thinner	-11.9385
▁this'll	-11.9385
▁thousands	-11.9385
▁threw	-11.9385
▁tidy	-11.9385
▁tired	-11.9385
▁today's	-11.9385
▁tongue	-11.9385
▁torches	-11.9385
▁tosh	-11.9385
▁tra	-11.9385
▁transcribe	-11.9385
▁treating	-11.9385
▁tri	-11.9385
▁trial	-11.9385
▁triangular	-11.9385
▁tuesday	-11.9385
▁tw	-11.9385
▁twos	-11.9385
▁ultra	-11.9385
▁unclear	-11.9385
▁underlined	-11.9385
▁underlying	-11.9385
▁unlabelled	-11.9385
▁unplug	-11.9385
▁useable	-11.9385
▁wake	-11.9385
▁warm	-11.9385
▁waterproof	-11.9385
▁weekend	-11.9385
▁weighted	-11.9385
▁wild	-11.9385
▁wings	-11.9385
▁worthwhile	-11.9385
▁yahoo	-11.9385
▁yous	-11.9385
▁acc	-12.1617
▁accident	-12.1617
▁accountants	-12.1617
▁acronyms	-12.1617
▁adaptor	-12.1617
▁af	-12.1617
▁african	-12.1617
▁aged	-12.1617
▁algorithmic	-12.1617
▁altering	-12.1617
▁ambitious	-12.1617
▁america	-12.1617
▁amplifier	-12.1617
▁annoyed	-12.1617
▁ant	-12.1617
▁anyone's	-12.1617
▁appliance	-12.1617
▁applies	-12.1617
▁approaching	-12.1617
▁architecture	-12.1617
▁arguing	-12.1617
▁argument	-12.1617
▁armchair	-12.1617
▁articles	-12.1617
▁aside	-12.1617
▁assigned	-12.1617
▁atlas	-12.1617
▁atmosphere	-12.1617
▁au	-12.1617
▁australia	-12.1617
▁autumn	-12.1617
▁backlighting	-12.1617
▁backside	-12.1617
▁backups	-12.1617
▁bal	-12.1617
▁banana's	-12.1617
▁barely	-12.1617
▁barry	-12.1617
▁beast	-12.1617
▁bef	-12.1617
▁beforehand	-12.1617
▁began	-12.1617
▁bendable	-12.1617
▁birds	-12.1617
▁bit's	-12.1617
▁blame	-12.1617
▁blended	-12.1617
▁bolt	-12.1617
▁bomb	-12.1617
▁bonus	-12.1617
▁books	-12.1617
▁bored	-12.1617
▁bothered	-12.1617
▁brainstorm	-12.1617
▁branch	-12.1617
▁briefing	-12.1617
▁bubbles	-12.1617
▁bulbs	-12.1617
▁burning	-12.1617
▁bursts	-12.1617
▁cancel	-12.1617
▁cap	-12.1617
▁capacity	-12.1617
▁cast	-12.1617
▁cat's	-12.1617
▁catalogue	-12.1617
▁categorising	-12.1617
▁catering	-12.1617
▁centimetre	-12.1617
▁cer	-12.1617
▁cern	-12.1617
▁chairs	-12.1617
▁che	-12.1617
▁cheaply	-12.1617
▁chil	-12.1617
▁chop	-12.1617
▁city	-12.1617
▁clips	-12.1617
▁closes	-12.1617
▁coat	-12.1617
▁cobra	-12.1617
▁col	-12.1617
▁colin	-12.1617
▁colleague	-12.1617
▁collecting	-12.1617
▁colourblind	-12.1617
▁column	-12.1617
▁columns	-12.1617
▁compares	-12.1617
▁comparison	-12.1617
▁completed	-12.1617
▁concentrating	-12.1617
▁conclusions	-12.1617
▁conflict	-12.1617
▁consuming	-12.1617
▁continuously	-12.1617
▁contribute	-12.1617
▁contro	-12.1617
▁controllers	-12.1617
▁copying	-12.1617
▁cor	-12.1617
▁corporation	-12.1617
▁corrected	-12.1617
▁costing	-12.1617
▁counted	-12.1617
▁courtney	-12.1617
▁crack	-12.1617
▁craft	-12.1617
▁cur	-12.1617
▁customised	-12.1617
▁cycle	-12.1617
▁daimler	-12.1617
▁darren	-12.1617
▁dat	-12.1617
▁deaf	-12.1617
▁dec	-12.1617
▁decor	-12.1617
▁decorrelation	-12.1617
▁defines	-12.1617
▁deltas	-12.1617
▁democratic	-12.1617
▁demographics	-12.1617
▁depression	-12.1617
▁detachable	-12.1617
▁differ	-12.1617
▁difficulties	-12.1617
▁diffuse	-12.1617
▁dilemma	-12.1617
▁dinner	-12.1617
▁dinosaur	-12.1617
▁diphones	-12.1617
▁disabled	-12.1617
▁disappear	-12.1617
▁disappointed	-12.1617
▁disks	-12.1617
▁distances	-12.1617
▁distant	-12.1617
▁disturbed	-12.1617
▁ditch	-12.1617
▁dominant	-12.1617
▁doodle	-12.1617
▁doubles	-12.1617
▁doubting	-12.1617
▁downloaded	-12.1617
▁dr	-12.1617
▁drops	-12.1617
▁dumping	-12.1617
▁durations	-12.1617
▁dynamos	-12.1617
▁earth	-12.1617
▁eas	-12.1617
▁edit	-12.1617
▁emphasis	-12.1617
▁encourage	-12.1617
▁encryption	-12.1617
▁energies	-12.1617
▁engine	-12.1617
▁enlarge	-12.1617
▁ensure	-12.1617
▁entering	-12.1617
▁enumerate	-12.1617
▁ergonomically	-12.1617
▁essentials	-12.1617
▁established	-12.1617
▁fails	-12.1617
▁fake	-12.1617
▁fallen	-12.1617
▁fan	-12.1617
▁fell	-12.1617
▁fift	-12.1617
▁fifth	-12.1617
▁figuring	-12.1617
▁fir	-12.1617
▁firmware	-12.1617
▁firstly	-12.1617
▁flow	-12.1617
▁follows	-12.1617
▁foot	-12.1617
▁foreground	-12.1617
▁foreign	-12.1617
▁france	-12.1617
▁franck	-12.1617
▁fudge	-12.1617
▁galactic	-12.1617
▁gift	-12.1617
▁glasses	-12.1617
▁goodness	-12.1617
▁grandmothers	-12.1617
▁granny	-12.1617
▁grass	-12.1617
▁greatest	-12.1617
▁guido	-12.1617
▁halfway	-12.1617
▁handers	-12.1617
▁handing	-12.1617
▁handwriting	-12.1617
▁harmonics	-12.1617
▁heading	-12.1617
▁heads	-12.1617
▁heart	-12.1617
▁heated	-12.1617
▁helped	-12.1617
▁hereby	-12.1617
▁hierarchy	-12.1617
▁hire	-12.1617
▁histograms	-12.1617
▁holds	-12.1617
▁holidays	-12.1617
▁hoo	-12.1617
▁hoped	-12.1617
▁hurray	-12.1617
▁hybrid	-12.1617
▁hyper	-12.1617
▁icas	-12.1617
▁ifs	-12.1617
▁ignoring	-12.1617
▁imply	-12.1617
▁impor	-12.1617
▁impressed	-12.1617
▁indian	-12.1617
▁indoors	-12.1617
▁infrastructure	-12.1617
▁inno	-12.1617
▁insight	-12.1617
▁instant	-12.1617
▁insured	-12.1617
▁inte	-12.1617
▁intentional	-12.1617
▁interacting	-12.1617
▁interference	-12.1617
▁intermediate	-12.1617
▁interpret	-12.1617
▁introduced	-12.1617
▁introducing	-12.1617
▁introductions	-12.1617
▁isolated	-12.1617
▁ke	-12.1617
▁king	-12.1617
▁knocked	-12.1617
▁laboratory	-12.1617
▁labs	-12.1617
▁lasts	-12.1617
▁leaf	-12.1617
▁learnt	-12.1617
▁lecture	-12.1617
▁lef	-12.1617
▁legal	-12.1617
▁legos	-12.1617
▁leopard	-12.1617
▁licence	-12.1617
▁lift	-12.1617
▁limitation	-12.1617
▁linking	-12.1617
▁lion	-12.1617
▁listened	-12.1617
▁literature	-12.1617
▁lotta	-12.1617
▁loyal	-12.1617
▁luminosity	-12.1617
▁maarika	-12.1617
▁magic	-12.1617
▁mailed	-12.1617
▁maintain	-12.1617
▁manageable	-12.1617
▁maps	-12.1617
▁marios	-12.1617
▁mat	-12.1617
▁mate	-12.1617
▁mathematics	-12.1617
▁matrices	-12.1617
▁meanwhile	-12.1617
▁measuring	-12.1617
▁mega	-12.1617
▁megabyte	-12.1617
▁merit	-12.1617
▁messed	-12.1617
▁microchip	-12.1617
▁minging	-12.1617
▁mini	-12.1617
▁modifying	-12.1617
▁multiples	-12.1617
▁muting	-12.1617
▁nearer	-12.1617
▁neatly	-12.1617
▁necessity	-12.1617
▁networks	-12.1617
▁newest	-12.1617
▁nips	-12.1617
▁noisy	-12.1617
▁normalise	-12.1617
▁notebook	-12.1617
▁notebooks	-12.1617
▁noted	-12.1617
▁nuance	-12.1617
▁nuclear	-12.1617
▁nuisance	-12.1617
▁numeric	-12.1617
▁nuts	-12.1617
▁obsolete	-12.1617
▁offices	-12.1617
▁ons	-12.1617
▁opener	-12.1617
▁operated	-12.1617
▁opt	-12.1617
▁optic	-12.1617
▁optical	-12.1617
▁optimum	-12.1617
▁oral	-12.1617
▁ou	-12.1617
▁ouch	-12.1617
▁ow	-12.1617
▁packages	-12.1617
▁packets	-12.1617
▁paperwork	-12.1617
▁participants	-12.1617
▁passes	-12.1617
▁paul	-12.1617
▁pauses	-12.1617
▁penguin	-12.1617
▁percentages	-12.1617
▁performs	-12.1617
▁peter	-12.1617
▁petersen	-12.1617
▁phonemes	-12.1617
▁photo	-12.1617
▁ping	-12.1617
▁piranha	-12.1617
▁pistol	-12.1617
▁plane	-12.1617
▁plastics	-12.1617
▁pleasant	-12.1617
▁pleasure	-12.1617
▁plot	-12.1617
▁plugs	-12.1617
▁pointer	-12.1617
▁port	-12.1617
▁positioned	-12.1617
▁poss	-12.1617
▁pot	-12.1617
▁powerpoints	-12.1617
▁practicality	-12.1617
▁precisely	-12.1617
▁preferably	-12.1617
▁prefers	-12.1617
▁preliminary	-12.1617
▁pri	-12.1617
▁priced	-12.1617
▁printing	-12.1617
▁probabilities	-12.1617
▁procedure	-12.1617
▁proceed	-12.1617
▁proposing	-12.1617
▁protected	-12.1617
▁protecting	-12.1617
▁protruding	-12.1617
▁proud	-12.1617
▁pulses	-12.1617
▁purchasing	-12.1617
▁purely	-12.1617
▁pushes	-12.1617
▁rabbits	-12.1617
▁radiation	-12.1617
▁radius	-12.1617
▁rasta	-12.1617
▁rates	-12.1617
▁ratings	-12.1617
▁rea	-12.1617
▁reactor	-12.1617
▁reads	-12.1617
▁recharged	-12.1617
▁recharging	-12.1617
▁recognises	-12.1617
▁recorders	-12.1617
▁recordings	-12.1617
▁redo	-12.1617
▁references	-12.1617
▁referencing	-12.1617
▁refrigerator	-12.1617
▁regard	-12.1617
▁regardless	-12.1617
▁released	-12.1617
▁reliability	-12.1617
▁remaining	-12.1617
▁remembering	-12.1617
▁repeats	-12.1617
▁replaceable	-12.1617
▁res	-12.1617
▁resemble	-12.1617
▁resembles	-12.1617
▁resistors	-12.1617
▁responds	-12.1617
▁responses	-12.1617
▁retro	-12.1617
▁righty	-12.1617
▁risky	-12.1617
▁rolls	-12.1617
▁root	-12.1617
▁rotation	-12.1617
▁routine	-12.1617
▁sake	-12.1617
▁salary	-12.1617
▁schemes	-12.1617
▁scr	-12.1617
▁scratched	-12.1617
▁scroller	-12.1617
▁sea	-12.1617
▁sebastien	-12.1617
▁secondly	-12.1617
▁secure	-12.1617
▁senior	-12.1617
▁separates	-12.1617
▁separating	-12.1617
▁sessions	-12.1617
▁sharing	-12.1617
▁shark	-12.1617
▁she'll	-12.1617
▁sheep	-12.1617
▁shout	-12.1617
▁shut	-12.1617
▁sideways	-12.1617
▁silent	-12.1617
▁simplify	-12.1617
▁sleeker	-12.1617
▁sleep	-12.1617
▁slippery	-12.1617
▁smoothing	-12.1617
▁snail	-12.1617
▁social	-12.1617
▁socket	-12.1617
▁solutions	-12.1617
▁spaceship	-12.1617
▁span	-12.1617
▁spin	-12.1617
▁spotting	-12.1617
▁spring	-12.1617
▁stolen	-12.1617
▁stopping	-12.1617
▁storage	-12.1617
▁streams	-12.1617
▁strengths	-12.1617
▁stroke	-12.1617
▁stu	-12.1617
▁subcomponent	-12.1617
▁submenus	-12.1617
▁submitted	-12.1617
▁succeed	-12.1617
▁summarising	-12.1617
▁summer	-12.1617
▁sup	-12.1617
▁supported	-12.1617
▁supporting	-12.1617
▁supposedly	-12.1617
▁sweet	-12.1617
▁swi	-12.1617
▁symmetric	-12.1617
▁symmetrical	-12.1617
▁tags	-12.1617
▁talks	-12.1617
▁tamgram	-12.1617
▁targeted	-12.1617
▁targets	-12.1617
▁teenager	-12.1617
▁temporarily	-12.1617
▁temporary	-12.1617
▁temps	-12.1617
▁theirs	-12.1617
▁thickness	-12.1617
▁thirdly	-12.1617
▁thr	-12.1617
▁threes	-12.1617
▁thumbs	-12.1617
▁ticker	-12.1617
▁titles	-12.1617
▁trains	-12.1617
▁transcription	-12.1617
▁treated	-12.1617
▁treats	-12.1617
▁trees	-12.1617
▁trendiness	-12.1617
▁tricks	-12.1617
▁tries	-12.1617
▁truly	-12.1617
▁tuner	-12.1617
▁twe	-12.1617
▁twen	-12.1617
▁two's	-12.1617
▁ugh	-12.1617
▁unbreakable	-12.1617
▁underline	-12.1617
▁underlining	-12.1617
▁underside	-12.1617
▁unlikely	-12.1617
▁unnecessary	-12.1617
▁unsure	-12.1617
▁upload	-12.1617
▁upside	-12.1617
▁usefulness	-12.1617
▁username	-12.1617
▁walls	-12.1617
▁weather	-12.1617
▁weemote	-12.1617
▁weights	-12.1617
▁what'll	-12.1617
▁whate	-12.1617
▁whatnot	-12.1617
▁whiskers	-12.1617
▁whispered	-12.1617
▁wholesale	-12.1617
▁wife	-12.1617
▁worries	-12.1617
▁youngsters	-12.1617
▁'bout	-12.4494
▁abandon	-12.4494
▁absorbed	-12.4494
▁abstraction	-12.4494
▁accentuate	-12.4494
▁accepted	-12.4494
▁accepts	-12.4494
▁accessed	-12.4494
▁acting	-12.4494
▁additionally	-12.4494
▁addresses	-12.4494
▁affecting	-12.4494
▁affectionate	-12.4494
▁ain't	-12.4494
▁airbag	-12.4494
▁alan	-12.4494
▁alessi	-12.4494
▁alien	-12.4494
▁allowing	-12.4494
▁alloys	-12.4494
▁alphas	-12.4494
▁alri	-12.4494
▁alrighty	-12.4494
▁altered	-12.4494
▁aluminium	-12.4494
▁amongst	-12.4494
▁amorphous	-12.4494
▁amplifies	-12.4494
▁analysed	-12.4494
▁analytically	-12.4494
▁anglia	-12.4494
▁angular	-12.4494
▁animation	-12.4494
▁annotate	-12.4494
▁announcement	-12.4494
▁answered	-12.4494
▁anythi	-12.4494
▁apar	-12.4494
▁apologies	-12.4494
▁appeared	-12.4494
▁apple's	-12.4494
▁arbitrarily	-12.4494
▁arc	-12.4494
▁argh	-12.4494
▁arm	-12.4494
▁artificial	-12.4494
▁assistant	-12.4494
▁assumes	-12.4494
▁assumptions	-12.4494
▁asymmet	-12.4494
▁ate	-12.4494
▁attaches	-12.4494
▁attempt	-12.4494
▁attend	-12.4494
▁attracted	-12.4494
▁autism	-12.4494
▁autonomy	-12.4494
▁autoseek	-12.4494
▁aw	-12.4494
▁awkward	-12.4494
▁backs	-12.4494
▁bags	-12.4494
▁bals	-12.4494
▁bank	-12.4494
▁barks	-12.4494
▁bars	-12.4494
▁bash	-12.4494
▁basing	-12.4494
▁bastard	-12.4494
▁bath	-12.4494
▁bay	-12.4494
▁beagle	-12.4494
▁beefy	-12.4494
▁begins	-12.4494
▁belongs	-12.4494
▁beneath	-12.4494
▁betwe	-12.4494
▁bio	-12.4494
▁bl	-12.4494
▁bla	-12.4494
▁black's	-12.4494
▁blind	-12.4494
▁boot	-12.4494
▁branding	-12.4494
▁bricks	-12.4494
▁britain	-12.4494
▁buckets	-12.4494
▁builds	-12.4494
▁bullets	-12.4494
▁bumps	-12.4494
▁bureaucracy	-12.4494
▁buyer	-12.4494
▁buyers	-12.4494
▁buys	-12.4494
▁calculates	-12.4494
▁calculations	-12.4494
▁calibrated	-12.4494
▁campaign	-12.4494
▁candidates	-12.4494
▁capability	-12.4494
▁capital	-12.4494
▁capsicum	-12.4494
▁captured	-12.4494
▁caramel	-12.4494
▁caroline	-12.4494
▁cased	-12.4494
▁categorise	-12.4494
▁caused	-12.4494
▁ce	-12.4494
▁cellphones	-12.4494
▁cen	-12.4494
▁chalk	-12.4494
▁changers	-12.4494
▁chapters	-12.4494
▁chase	-12.4494
▁cho	-12.4494
▁chopped	-12.4494
▁christine	-12.4494
▁chrome	-12.4494
▁chuck	-12.4494
▁circuitry	-12.4494
▁cities	-12.4494
▁clarification	-12.4494
▁clarify	-12.4494
▁clashing	-12.4494
▁cleaning	-12.4494
▁clicked	-12.4494
▁clients	-12.4494
▁coaches	-12.4494
▁coefficient	-12.4494
▁colleagues	-12.4494
▁colo	-12.4494
▁colour's	-12.4494
▁colouring	-12.4494
▁comfy	-12.4494
▁commented	-12.4494
▁commonly	-12.4494
▁communicates	-12.4494
▁compact	-12.4494
▁comparable	-12.4494
▁competitor	-12.4494
▁compiled	-12.4494
▁complained	-12.4494
▁compressed	-12.4494
▁compressing	-12.4494
▁computer's	-12.4494
▁concurrent	-12.4494
▁condition	-12.4494
▁conforms	-12.4494
▁connectors	-12.4494
▁cons	-12.4494
▁considerable	-12.4494
▁console	-12.4494
▁consult	-12.4494
▁continua	-12.4494
▁continued	-12.4494
▁contr	-12.4494
▁contradiction	-12.4494
▁cookie	-12.4494
▁cooperation	-12.4494
▁copyright	-12.4494
▁corinne	-12.4494
▁corrections	-12.4494
▁corresponding	-12.4494
▁costings	-12.4494
▁couldn	-12.4494
▁cour	-12.4494
▁cra	-12.4494
▁credits	-12.4494
▁crit	-12.4494
▁criticism	-12.4494
▁crossed	-12.4494
▁crowd	-12.4494
▁crystal	-12.4494
▁cuddly	-12.4494
▁culture	-12.4494
▁cursor	-12.4494
▁cuts	-12.4494
▁cygwin	-12.4494
▁darker	-12.4494
▁darn	-12.4494
▁data's	-12.4494
▁databases	-12.4494
▁datas	-12.4494
▁dated	-12.4494
▁deals	-12.4494
▁debate	-12.4494
▁deci	-12.4494
▁decode	-12.4494
▁defeat	-12.4494
▁defi	-12.4494
▁delicate	-12.4494
▁demos	-12.4494
▁dep	-12.4494
▁departments	-12.4494
▁dependable	-12.4494
▁desert	-12.4494
▁destroy	-12.4494
▁detects	-12.4494
▁determined	-12.4494
▁dictate	-12.4494
▁dictated	-12.4494
▁dictation	-12.4494
▁dictionaries	-12.4494
▁differen	-12.4494
▁diffi	-12.4494
▁ding	-12.4494
▁dingy	-12.4494
▁dirichlet	-12.4494
▁disc	-12.4494
▁disco	-12.4494
▁discount	-12.4494
▁discs	-12.4494
▁disp	-12.4494
▁distracting	-12.4494
▁distraction	-12.4494
▁distributed	-12.4494
▁doc	-12.4494
▁doctor	-12.4494
▁documented	-12.4494
▁doub	-12.4494
▁dow	-12.4494
▁downloading	-12.4494
▁downward	-12.4494
▁draws	-12.4494
▁drift	-12.4494
▁dun	-12.4494
▁duplication	-12.4494
▁dwarfs	-12.4494
▁earl	-12.4494
▁ec	-12.4494
▁eco	-12.4494
▁economic	-12.4494
▁editing	-12.4494
▁ef	-12.4494
▁ei	-12.4494
▁eliminates	-12.4494
▁eliminating	-12.4494
▁elliptical	-12.4494
▁ellipticals	-12.4494
▁emailing	-12.4494
▁embed	-12.4494
▁emotion	-12.4494
▁encoded	-12.4494
▁encourages	-12.4494
▁ending	-12.4494
▁engineered	-12.4494
▁engineers	-12.4494
▁enhanced	-12.4494
▁entities	-12.4494
▁entries	-12.4494
▁eu	-12.4494
▁facia	-12.4494
▁facts	-12.4494
▁faded	-12.4494
▁fam	-12.4494
▁families	-12.4494
▁fatter	-12.4494
▁fault	-12.4494
▁fed	-12.4494
▁feeding	-12.4494
▁fif	-12.4494
▁fight	-12.4494
▁fighting	-12.4494
▁fin	-12.4494
▁finer	-12.4494
▁flap	-12.4494
▁flicking	-12.4494
▁fluorescent	-12.4494
▁flush	-12.4494
▁folded	-12.4494
▁folk	-12.4494
▁font	-12.4494
▁force	-12.4494
▁forced	-12.4494
▁formation	-12.4494
▁forwarded	-12.4494
▁forwarding	-12.4494
▁fra	-12.4494
▁francs	-12.4494
▁freaks	-12.4494
▁fuck	-12.4494
▁fucking	-12.4494
▁gaps	-12.4494
▁garbage	-12.4494
▁garden	-12.4494
▁gas	-12.4494
▁gecko	-12.4494
▁geek	-12.4494
▁generous	-12.4494
▁genetically	-12.4494
▁german	-12.4494
▁germany	-12.4494
▁gestures	-12.4494
▁girl	-12.4494
▁glowing	-12.4494
▁glows	-12.4494
▁goin	-12.4494
▁goodbye	-12.4494
▁grapefruit	-12.4494
▁grapes	-12.4494
▁graphs	-12.4494
▁grasp	-12.4494
▁gray	-12.4494
▁grew	-12.4494
▁grid	-12.4494
▁gue	-12.4494
▁gym	-12.4494
▁habit	-12.4494
▁handicapped	-12.4494
▁handset	-12.4494
▁har	-12.4494
▁hassle	-12.4494
▁hesitate	-12.4494
▁heuristics	-12.4494
▁hiding	-12.4494
▁highlight	-12.4494
▁hill	-12.4494
▁hol	-12.4494
▁homework	-12.4494
▁homing	-12.4494
▁horns	-12.4494
▁households	-12.4494
▁hum	-12.4494
▁hun	-12.4494
▁hungry	-12.4494
▁iain	-12.4494
▁ian	-12.4494
▁ice	-12.4494
▁identifiable	-12.4494
▁idiosyncratic	-12.4494
▁illuminated	-12.4494
▁imagining	-12.4494
▁impacts	-12.4494
▁implementations	-12.4494
▁implication	-12.4494
▁impossibilities	-12.4494
▁impractical	-12.4494
▁imprint	-12.4494
▁incorporation	-12.4494
▁incredibly	-12.4494
▁ind	-12.4494
▁inf	-12.4494
▁influenced	-12.4494
▁inst	-12.4494
▁instantaneous	-12.4494
▁institute	-12.4494
▁insurance	-12.4494
▁intensity	-12.4494
▁interactions	-12.4494
▁interestingly	-12.4494
▁interests	-12.4494
▁interim	-12.4494
▁intern	-12.4494
▁interpolate	-12.4494
▁intrigued	-12.4494
▁island	-12.4494
▁iterate	-12.4494
▁kangaroo	-12.4494
▁kate's	-12.4494
▁kay	-12.4494
▁keck	-12.4494
▁keyboards	-12.4494
▁keyword	-12.4494
▁kicked	-12.4494
▁kickoff	-12.4494
▁kiddie	-12.4494
▁kinetics	-12.4494
▁kitsch	-12.4494
▁kitty	-12.4494
▁knobs	-12.4494
▁lacking	-12.4494
▁landmark	-12.4494
▁largest	-12.4494
▁laughter	-12.4494
▁lawsuits	-12.4494
▁lays	-12.4494
▁lean	-12.4494
▁leap	-12.4494
▁leather	-12.4494
▁lectures	-12.4494
▁lemme	-12.4494
▁lemons	-12.4494
▁letting	-12.4494
▁lid	-12.4494
▁lies	-12.4494
▁lifetime	-12.4494
▁lightening	-12.4494
▁lik	-12.4494
▁line's	-12.4494
▁lined	-12.4494
▁listing	-12.4494
▁locking	-12.4494
▁logically	-12.4494
▁loosey	-12.4494
▁loses	-12.4494
▁lotus	-12.4494
▁louisa	-12.4494
▁lucky	-12.4494
▁lunchbreak	-12.4494
▁lunchtime	-12.4494
▁maarten	-12.4494
▁macro	-12.4494
▁macros	-12.4494
▁mad	-12.4494
▁mails	-12.4494
▁maintenance	-12.4494
▁makers	-12.4494
▁managing	-12.4494
▁mangoey	-12.4494
▁manipulation	-12.4494
▁manner	-12.4494
▁manufactured	-12.4494
▁mapping	-12.4494
▁marble	-12.4494
▁march	-12.4494
▁marketed	-12.4494
▁martin	-12.4494
▁material's	-12.4494
▁measurements	-12.4494
▁mee	-12.4494
▁microphone's	-12.4494
▁mielsen	-12.4494
▁minimally	-12.4494
▁misplace	-12.4494
▁misses	-12.4494
▁mission	-12.4494
▁modelled	-12.4494
▁modular	-12.4494
▁moments	-12.4494
▁monophone	-12.4494
▁mor	-12.4494
▁morphic	-12.4494
▁mot	-12.4494
▁mote	-12.4494
▁moulded	-12.4494
▁mounted	-12.4494
▁multisyn	-12.4494
▁mum	-12.4494
▁mush	-12.4494
▁mustn't	-12.4494
▁national	-12.4494
▁nearby	-12.4494
▁neural	-12.4494
▁nils	-12.4494
▁nokia's	-12.4494
▁notepad	-12.4494
▁nuclei	-12.4494
▁nynke	-12.4494
▁occasionally	-12.4494
▁offering	-12.4494
▁official	-12.4494
▁offs	-12.4494
▁ol	-12.4494
▁omit	-12.4494
▁optimation	-12.4494
▁optimise	-12.4494
▁orangutan	-12.4494
▁organised	-12.4494
▁organising	-12.4494
▁oriented	-12.4494
▁originality	-12.4494
▁origins	-12.4494
▁outlier	-12.4494
▁painful	-12.4494
▁pair	-12.4494
▁pairs	-12.4494
▁pal	-12.4494
▁pale	-12.4494
▁parse	-12.4494
▁parsed	-12.4494
▁partially	-12.4494
▁pep	-12.4494
▁pepper	-12.4494
▁perceptual	-12.4494
▁performed	-12.4494
▁permanent	-12.4494
▁permanently	-12.4494
▁personalise	-12.4494
▁personalised	-12.4494
▁personality	-12.4494
▁phillips	-12.4494
▁photons	-12.4494
▁pi	-12.4494
▁pictionary	-12.4494
▁pig	-12.4494
▁pile	-12.4494
▁pilots	-12.4494
▁pipe	-12.4494
▁placement	-12.4494
▁placing	-12.4494
▁planet	-12.4494
▁planned	-12.4494
▁plas	-12.4494
▁plasticky	-12.4494
▁playful	-12.4494
▁plays	-12.4494
▁pleasing	-12.4494
▁plu	-12.4494
▁pockets	-12.4494
▁polygon	-12.4494
▁pool	-12.4494
▁population	-12.4494
▁pose	-12.4494
▁positions	-12.4494
▁possi	-12.4494
▁pound	-12.4494
▁practicalities	-12.4494
▁precies	-12.4494
▁predefined	-12.4494
▁predict	-12.4494
▁premium	-12.4494
▁presentate	-12.4494
▁presuming	-12.4494
▁pricing	-12.4494
▁probable	-12.4494
▁proceedings	-12.4494
▁prod	-12.4494
▁prof	-12.4494
▁programmability	-12.4494
▁pulling	-12.4494
▁pump	-12.4494
▁radios	-12.4494
▁ram	-12.4494
▁randomly	-12.4494
▁rapidly	-12.4494
▁ratty	-12.4494
▁reachable	-12.4494
▁recharges	-12.4494
▁recog	-12.4494
▁recogn	-12.4494
▁recognisers	-12.4494
▁recommendation	-12.4494
▁reconsider	-12.4494
▁recycled	-12.4494
▁redesigned	-12.4494
▁reducing	-12.4494
▁redundancy	-12.4494
▁reflects	-12.4494
▁reiterate	-12.4494
▁relies	-12.4494
▁remain	-12.4494
▁reminds	-12.4494
▁replicate	-12.4494
▁reported	-12.4494
▁resist	-12.4494
▁responsibilities	-12.4494
▁retain	-12.4494
▁rigid	-12.4494
▁ro	-12.4494
▁robustness	-12.4494
▁rocket	-12.4494
▁rotated	-12.4494
▁royce	-12.4494
▁rubbish	-12.4494
▁ruled	-12.4494
▁rush	-12.4494
▁saccade	-12.4494
▁sam	-12.4494
▁satisfying	-12.4494
▁scales	-12.4494
▁scanning	-12.4494
▁scenarios	-12.4494
▁sceptical	-12.4494
▁schema	-12.4494
▁scream	-12.4494
▁screaming	-12.4494
▁screen's	-12.4494
▁screwing	-12.4494
▁scribble	-12.4494
▁scro	-12.4494
▁scrolls	-12.4494
▁seal	-12.4494
▁seasonal	-12.4494
▁security	-12.4494
▁sees	-12.4494
▁seg	-12.4494
▁segmented	-12.4494
▁segmenting	-12.4494
▁serial	-12.4494
▁settle	-12.4494
▁settling	-12.4494
▁setups	-12.4494
▁she'd	-12.4494
▁shiny	-12.4494
▁shocking	-12.4494
▁shops	-12.4494
▁shortcut	-12.4494
▁shouting	-12.4494
▁shuts	-12.4494
▁signalling	-12.4494
▁silicon	-12.4494
▁similarly	-12.4494
▁simultaneously	-12.4494
▁sister	-12.4494
▁situations	-12.4494
▁sl	-12.4494
▁slap	-12.4494
▁slice	-12.4494
▁slip	-12.4494
▁slipped	-12.4494
▁slower	-12.4494
▁smiling	-12.4494
▁snakes	-12.4494
▁soccer	-12.4494
▁something's	-12.4494
▁spaces	-12.4494
▁specifying	-12.4494
▁spee	-12.4494
▁spelled	-12.4494
▁spider	-12.4494
▁spiders	-12.4494
▁splinters	-12.4494
▁sport	-12.4494
▁spread	-12.4494
▁stabilisation	-12.4494
▁stability	-12.4494
▁stamped	-12.4494
▁stan	-12.4494
▁statistic	-12.4494
▁stepping	-12.4494
▁sti	-12.4494
▁sticker	-12.4494
▁stopped	-12.4494
▁strangely	-12.4494
▁streets	-12.4494
▁stronger	-12.4494
▁studying	-12.4494
▁submitting	-12.4494
▁substantial	-12.4494
▁sue	-12.4494
▁suggests	-12.4494
▁suits	-12.4494
▁summed	-12.4494
▁sunil	-12.4494
▁sunlight	-12.4494
▁superfluous	-12.4494
▁superior	-12.4494
▁suppliers	-12.4494
▁surprising	-12.4494
▁surrounded	-12.4494
▁surrounding	-12.4494
▁swahili	-12.4494
▁swapping	-12.4494
▁swim	-12.4494
▁switchboard	-12.4494
▁swordfish	-12.4494
▁tacky	-12.4494
▁tangled	-12.4494
▁technol	-12.4494
▁technolog	-12.4494
▁technology's	-12.4494
▁tel	-12.4494
▁teleconference	-12.4494
▁tempted	-12.4494
▁tendency	-12.4494
▁terminal	-12.4494
▁terrestrial	-12.4494
▁thes	-12.4494
▁tier	-12.4494
▁tiers	-12.4494
▁tim's	-12.4494
▁timed	-12.4494
▁timer	-12.4494
▁tint	-12.4494
▁tita	-12.4494
▁titan	-12.4494
▁tones	-12.4494
▁touches	-12.4494
▁toy	-12.4494
▁trainable	-12.4494
▁transferred	-12.4494
▁transfers	-12.4494
▁transmits	-12.4494
▁transmitted	-12.4494
▁trendier	-12.4494
▁trunk	-12.4494
▁tuned	-12.4494
▁twel	-12.4494
▁twenties	-12.4494
▁twist	-12.4494
▁ugliness	-12.4494
▁understands	-12.4494
▁unfortunate	-12.4494
▁unlucky	-12.4494
▁unnatural	-12.4494
▁unusable	-12.4494
▁unwrap	-12.4494
▁upgradable	-12.4494
▁wai	-12.4494
▁warned	-12.4494
▁warping	-12.4494
▁watermelon	-12.4494
▁webpage	-12.4494
▁websites	-12.4494
▁weigh	-12.4494
▁why's	-12.4494
▁wicked	-12.4494
▁widely	-12.4494
▁wikis	-12.4494
▁winter	-12.4494
▁wisdom	-12.4494
▁wishes	-12.4494
▁women	-12.4494
▁wondered	-12.4494
▁woo	-12.4494
▁wouldn	-12.4494
▁wrapped	-12.4494
▁years'	-12.4494
▁yellow's	-12.4494
▁'cau	-12.8548
▁'fraid	-12.8548
▁'ll	-12.8548
▁abandoning	-12.8548
▁absorber	-12.8548
▁absorbing	-12.8548
▁absorp	-12.8548
▁abundances	-12.8548
▁accepting	-12.8548
▁accessory	-12.8548
▁accounts	-12.8548
▁acknowledged	-12.8548
▁acoustic	-12.8548
▁ada	-12.8548
▁adam	-12.8548
▁adapting	-12.8548
▁adaptors	-12.8548
▁addicts	-12.8548
▁addressing	-12.8548
▁adopted	-12.8548
▁affordable	-12.8548
▁afro	-12.8548
▁agreeable	-12.8548
▁aha	-12.8548
▁alessandro	-12.8548
▁algorithmically	-12.8548
▁alignments	-12.8548
▁alkaline	-12.8548
▁alloy	-12.8548
▁alls	-12.8548
▁alphabetically	-12.8548
▁amber	-12.8548
▁ambiguities	-12.8548
▁american	-12.8548
▁amounts	-12.8548
▁amusement	-12.8548
▁amusing	-12.8548
▁anal	-12.8548
▁analytic	-12.8548
▁ancient	-12.8548
▁anechoic	-12.8548
▁annoys	-12.8548
▁anoth	-12.8548
▁antenna	-12.8548
▁antennas	-12.8548
▁anticipate	-12.8548
▁antlers	-12.8548
▁anything's	-12.8548
▁anytime	-12.8548
▁ape	-12.8548
▁apparent	-12.8548
▁appliances	-12.8548
▁approachable	-12.8548
▁appropriately	-12.8548
▁arlo	-12.8548
▁aro	-12.8548
▁article	-12.8548
▁artists	-12.8548
▁asks	-12.8548
▁aspe	-12.8548
▁ass	-12.8548
▁assemble	-12.8548
▁assembled	-12.8548
▁assemblies	-12.8548
▁assess	-12.8548
▁assessment	-12.8548
▁assigning	-12.8548
▁assist	-12.8548
▁associating	-12.8548
▁association	-12.8548
▁assu	-12.8548
▁atlantic	-12.8548
▁attack	-12.8548
▁attain	-12.8548
▁attempting	-12.8548
▁attitude	-12.8548
▁attracting	-12.8548
▁attracts	-12.8548
▁audi	-12.8548
▁audible	-12.8548
▁authority	-12.8548
▁automated	-12.8548
▁automatical	-12.8548
▁backed	-12.8548
▁backward	-12.8548
▁ballpark	-12.8548
▁barbara	-12.8548
▁bare	-12.8548
▁bargain	-12.8548
▁bastien	-12.8548
▁beach	-12.8548
▁beambot	-12.8548
▁beams	-12.8548
▁bean	-12.8548
▁beard	-12.8548
▁bearing	-12.8548
▁bed	-12.8548
▁beeper	-12.8548
▁beg	-12.8548
▁belt	-12.8548
▁beneficial	-12.8548
▁benefits	-12.8548
▁bent	-12.8548
▁beside	-12.8548
▁bicycle	-12.8548
▁bike	-12.8548
▁bill	-12.8548
▁billing	-12.8548
▁bins	-12.8548
▁bite	-12.8548
▁blacks	-12.8548
▁blanks	-12.8548
▁bleeps	-12.8548
▁blend	-12.8548
▁bless	-12.8548
▁blindly	-12.8548
▁blob	-12.8548
▁blocked	-12.8548
▁bloody	-12.8548
▁blow	-12.8548
▁blows	-12.8548
▁bobby	-12.8548
▁bog	-12.8548
▁bon	-12.8548
▁bone	-12.8548
▁bongiorno	-12.8548
▁bonuses	-12.8548
▁borders	-12.8548
▁borrow	-12.8548
▁borrowed	-12.8548
▁boston	-12.8548
▁bot	-12.8548
▁bothering	-12.8548
▁bottle	-12.8548
▁bottleneck	-12.8548
▁bottoms	-12.8548
▁bounces	-12.8548
▁brains	-12.8548
▁brainstormed	-12.8548
▁breath	-12.8548
▁breathing	-12.8548
▁bri	-12.8548
▁brno	-12.8548
▁broaden	-12.8548
▁broadness	-12.8548
▁browsers	-12.8548
▁brushed	-12.8548
▁brussels	-12.8548
▁bubble	-12.8548
▁buckley	-12.8548
▁budgeting	-12.8548
▁buffer	-12.8548
▁bumped	-12.8548
▁bundle	-12.8548
▁burner	-12.8548
▁burns	-12.8548
▁burritos	-12.8548
▁butt	-12.8548
▁butto	-12.8548
▁c'est	-12.8548
▁cafeteria	-12.8548
▁cage	-12.8548
▁calibrate	-12.8548
▁candidate	-12.8548
▁candy	-12.8548
▁capabilities	-12.8548
▁capacitor	-12.8548
▁carefully	-12.8548
▁cares	-12.8548
▁carpal	-12.8548
▁catwalks	-12.8548
▁cau	-12.8548
▁causing	-12.8548
▁cautious	-12.8548
▁ceases	-12.8548
▁ceiling	-12.8548
▁centimes	-12.8548
▁centr	-12.8548
▁centrally	-12.8548
▁challenging	-12.8548
▁chances	-12.8548
▁changer	-12.8548
▁channe	-12.8548
▁charac	-12.8548
▁charmed	-12.8548
▁chart	-12.8548
▁chasing	-12.8548
▁cheerful	-12.8548
▁chic	-12.8548
▁child's	-12.8548
▁chile	-12.8548
▁chinese	-12.8548
▁chocolates	-12.8548
▁chord	-12.8548
▁chris	-12.8548
▁circles	-12.8548
▁circulating	-12.8548
▁circumstances	-12.8548
▁citation	-12.8548
▁claiming	-12.8548
▁classically	-12.8548
▁classified	-12.8548
▁classify	-12.8548
▁clickable	-12.8548
▁clicks	-12.8548
▁cloak	-12.8548
▁clocks	-12.8548
▁clocky	-12.8548
▁cloth	-12.8548
▁clothe	-12.8548
▁cloths	-12.8548
▁clustered	-12.8548
▁clutter	-12.8548
▁coast	-12.8548
▁codec	-12.8548
▁cohen's	-12.8548
▁colin's	-12.8548
▁collaborate	-12.8548
▁colouration	-12.8548
▁combat	-12.8548
▁combi	-12.8548
▁combines	-12.8548
▁comma	-12.8548
▁commercials	-12.8548
▁company'll	-12.8548
▁compar	-12.8548
▁compass	-12.8548
▁compensation	-12.8548
▁compete	-12.8548
▁competing	-12.8548
▁compilation	-12.8548
▁compile	-12.8548
▁complain	-12.8548
▁comple	-12.8548
▁completes	-12.8548
▁complication	-12.8548
▁complimentary	-12.8548
▁components'	-12.8548
▁composed	-12.8548
▁composer	-12.8548
▁composes	-12.8548
▁compresses	-12.8548
▁computational	-12.8548
▁computery	-12.8548
▁computes	-12.8548
▁concealed	-12.8548
▁concentrated	-12.8548
▁conceptional	-12.8548
▁conceptually	-12.8548
▁concert	-12.8548
▁concluded	-12.8548
▁condensed	-12.8548
▁conditioned	-12.8548
▁confidence	-12.8548
▁confidential	-12.8548
▁configurations	-12.8548
▁configured	-12.8548
▁confining	-12.8548
▁conform	-12.8548
▁confusion	-12.8548
▁connecting	-12.8548
▁consciously	-12.8548
▁consciousness	-12.8548
▁considerably	-12.8548
▁consistency	-12.8548
▁consistently	-12.8548
▁const	-12.8548
▁constrain	-12.8548
▁constructing	-12.8548
▁contamination	-12.8548
▁conti	-12.8548
▁contra	-12.8548
▁contract	-12.8548
▁contradicting	-12.8548
▁contraptions	-12.8548
▁contributed	-12.8548
▁contributions	-12.8548
▁cook	-12.8548
▁coordinates	-12.8548
▁coordination	-12.8548
▁cords	-12.8548
▁correspondence	-12.8548
▁corresponds	-12.8548
▁courgette	-12.8548
▁crea	-12.8548
▁creation	-12.8548
▁creeping	-12.8548
▁cri	-12.8548
▁crite	-12.8548
▁criterium	-12.8548
▁crossing	-12.8548
▁crying	-12.8548
▁curiosity	-12.8548
▁cus	-12.8548
▁cust	-12.8548
▁dadada	-12.8548
▁damaging	-12.8548
▁damp	-12.8548
▁dan	-12.8548
▁dance	-12.8548
▁danger	-12.8548
▁daring	-12.8548
▁day's	-12.8548
▁dealt	-12.8548
▁debating	-12.8548
▁decides	-12.8548
▁decline	-12.8548
▁decoded	-12.8548
▁decorrelate	-12.8548
▁decreases	-12.8548
▁defeated	-12.8548
▁defend	-12.8548
▁defending	-12.8548
▁defin	-12.8548
▁definit	-12.8548
▁definitions	-12.8548
▁del	-12.8548
▁delayed	-12.8548
▁delimiters	-12.8548
▁delta	-12.8548
▁demanding	-12.8548
▁demonstrations	-12.8548
▁demonstrator	-12.8548
▁depen	-12.8548
▁dependant	-12.8548
▁describes	-12.8548
▁design's	-12.8548
▁desirable	-12.8548
▁deskt	-12.8548
▁despite	-12.8548
▁destroying	-12.8548
▁destruct	-12.8548
▁detailing	-12.8548
▁diagonals	-12.8548
▁dialects	-12.8548
▁dialling	-12.8548
▁dies	-12.8548
▁differentiate	-12.8548
▁digi	-12.8548
▁dip	-12.8548
▁diploma	-12.8548
▁dips	-12.8548
▁dire	-12.8548
▁directing	-12.8548
▁dirk	-12.8548
▁disappearing	-12.8548
▁disaster	-12.8548
▁discourage	-12.8548
▁disfluencies	-12.8548
▁disliked	-12.8548
▁dismissed	-12.8548
▁dispense	-12.8548
▁display's	-12.8548
▁disposal	-12.8548
▁dispose	-12.8548
▁dissertation	-12.8548
▁dist	-12.8548
▁distributor	-12.8548
▁disturb	-12.8548
▁ditching	-12.8548
▁documentary	-12.8548
▁dolby	-12.8548
▁doodling	-12.8548
▁doubled	-12.8548
▁downs	-12.8548
▁downsampling	-12.8548
▁downstairs	-12.8548
▁dra	-12.8548
▁drastic	-12.8548
▁dream	-12.8548
▁dreams	-12.8548
▁drinks	-12.8548
▁du	-12.8548
▁dude	-12.8548
▁dying	-12.8548
▁dynamite	-12.8548
▁easiness	-12.8548
▁ecological	-12.8548
▁editor	-12.8548
▁efforts	-12.8548
▁egg	-12.8548
▁eighth	-12.8548
▁eith	-12.8548
▁elaborated	-12.8548
▁elasticity	-12.8548
▁electret	-12.8548
▁electromagnetic	-12.8548
▁elemental	-12.8548
▁elementary	-12.8548
▁elise	-12.8548
▁ellis	-12.8548
▁else's	-12.8548
▁emerge	-12.8548
▁emerging	-12.8548
▁emotional	-12.8548
▁empl	-12.8548
▁enclose	-12.8548
▁enclosure	-12.8548
▁encodes	-12.8548
▁encountered	-12.8548
▁encouragement	-12.8548
▁endangers	-12.8548
▁england	-12.8548
▁ent	-12.8548
▁enthusiastic	-12.8548
▁entry	-12.8548
▁epinions	-12.8548
▁er	-12.8548
▁erased	-12.8548
▁erasing	-12.8548
▁ericsson	-12.8548
▁eso	-12.8548
▁esp	-12.8548
▁estimating	-12.8548
▁estonia	-12.8548
▁eta	-12.8548
▁etched	-12.8548
▁fab	-12.8548
▁fabien	-12.8548
▁fabricate	-12.8548
▁fabrics	-12.8548
▁facilitate	-12.8548
▁factory	-12.8548
▁failed	-12.8548
▁failure	-12.8548
▁faint	-12.8548
▁fal	-12.8548
▁familiarity	-12.8548
▁fanciest	-12.8548
▁fascias	-12.8548
▁fascinating	-12.8548
▁father	-12.8548
▁feared	-12.8548
▁feasibility	-12.8548
▁feat	-12.8548
▁featured	-12.8548
▁fenella	-12.8548
▁ferret	-12.8548
▁fes	-12.8548
▁fibre	-12.8548
▁fickle	-12.8548
▁fiddly	-12.8548
▁fifties	-12.8548
▁fil	-12.8548
▁filler	-12.8548
▁finalised	-12.8548
▁finalising	-12.8548
▁financi	-12.8548
▁financing	-12.8548
▁fingerprint	-12.8548
▁finishes	-12.8548
▁fins	-12.8548
▁firewire	-12.8548
▁firs	-12.8548
▁fitted	-12.8548
▁flashlight	-12.8548
▁flats	-12.8548
▁flaws	-12.8548
▁flesh	-12.8548
▁flew	-12.8548
▁flier	-12.8548
▁flies	-12.8548
▁flights	-12.8548
▁florence	-12.8548
▁florent	-12.8548
▁flower	-12.8548
▁fluent	-12.8548
▁foam	-12.8548
▁fol	-12.8548
▁fong	-12.8548
▁fooling	-12.8548
▁forecast	-12.8548
▁foremost	-12.8548
▁formality	-12.8548
▁formatted	-12.8548
▁formed	-12.8548
▁fourier	-12.8548
▁fraction	-12.8548
▁fragile	-12.8548
▁frahan	-12.8548
▁freaky	-12.8548
▁fripperies	-12.8548
▁fru	-12.8548
▁frustrates	-12.8548
▁fuel	-12.8548
▁fulfils	-12.8548
▁functio	-12.8548
▁functionability	-12.8548
▁functionali	-12.8548
▁fundament	-12.8548
▁fundamentally	-12.8548
▁fusing	-12.8548
▁gadgety	-12.8548
▁gaining	-12.8548
▁gameboy	-12.8548
▁garage	-12.8548
▁garish	-12.8548
▁gathered	-12.8548
▁gaudy	-12.8548
▁gear	-12.8548
▁geared	-12.8548
▁gel	-12.8548
▁generations	-12.8548
▁genius	-12.8548
▁gentle	-12.8548
▁gigabyte	-12.8548
▁giraffe's	-12.8548
▁girlfriend	-12.8548
▁glob	-12.8548
▁glue	-12.8548
▁goi	-12.8548
▁gold	-12.8548
▁goods	-12.8548
▁googling	-12.8548
▁gr	-12.8548
▁grabber	-12.8548
▁graduates	-12.8548
▁grammar	-12.8548
▁grand	-12.8548
▁grandma	-12.8548
▁grandparents	-12.8548
▁granola	-12.8548
▁greenish	-12.8548
▁grind	-12.8548
▁grippable	-12.8548
▁ground	-12.8548
▁guidelines	-12.8548
▁guides	-12.8548
▁gum	-12.8548
▁guy's	-12.8548
▁guys's	-12.8548
▁gy	-12.8548
▁habitual	-12.8548
▁hack	-12.8548
▁hair	-12.8548
▁hand's	-12.8548
▁handedness	-12.8548
▁handheld	-12.8548
▁handier	-12.8548
▁handled	-12.8548
▁handles	-12.8548
▁handshaking	-12.8548
▁hanging	-12.8548
▁hangs	-12.8548
▁hap	-12.8548
▁harry	-12.8548
▁hashes	-12.8548
▁headphones	-12.8548
▁headset	-12.8548
▁headsets	-12.8548
▁heaps	-12.8548
▁heck	-12.8548
▁hedgehog	-12.8548
▁heidi	-12.8548
▁hel	-12.8548
▁hemant's	-12.8548
▁hence	-12.8548
▁hero	-12.8548
▁hesitant	-12.8548
▁highlighting	-12.8548
▁hil	-12.8548
▁hinges	-12.8548
▁hippo	-12.8548
▁hits	-12.8548
▁hoffmann	-12.8548
▁holders	-12.8548
▁holiday	-12.8548
▁homes	-12.8548
▁horrible	-12.8548
▁horses	-12.8548
▁hue	-12.8548
▁hugely	-12.8548
▁humble	-12.8548
▁hunch	-12.8548
▁hung	-12.8548
▁hunt	-12.8548
▁hunts	-12.8548
▁hyperlink	-12.8548
▁icassp	-12.8548
▁icsla	-12.8548
▁ide	-12.8548
▁idea's	-12.8548
▁iffy	-12.8548
▁ig	-12.8548
▁ignored	-12.8548
▁ik	-12.8548
▁illustrate	-12.8548
▁impaired	-12.8548
▁implant	-12.8548
▁imple	-12.8548
▁imposing	-12.8548
▁inappropriate	-12.8548
▁inbetween	-12.8548
▁inclu	-12.8548
▁increasingly	-12.8548
▁incrementally	-12.8548
▁incurred	-12.8548
▁india	-12.8548
▁inefficient	-12.8548
▁inference	-12.8548
▁initialise	-12.8548
▁ink	-12.8548
▁inkling	-12.8548
▁innards	-12.8548
▁insertion	-12.8548
▁inspection	-12.8548
▁inspirations	-12.8548
▁installation	-12.8548
▁instinct	-12.8548
▁instructional	-12.8548
▁integral	-12.8548
▁intellectual	-12.8548
▁intelligence	-12.8548
▁intelligible	-12.8548
▁intentions	-12.8548
▁interoperability	-12.8548
▁interprets	-12.8548
▁interrupted	-12.8548
▁intersection	-12.8548
▁ionic	-12.8548
▁ionising	-12.8548
▁ions	-12.8548
▁ipod's	-12.8548
▁irritates	-12.8548
▁italy	-12.8548
▁iteration	-12.8548
▁its'	-12.8548
▁ka	-12.8548
▁kayaks	-12.8548
▁kemy	-12.8548
▁kicks	-12.8548
▁kid's	-12.8548
▁kill	-12.8548
▁kiwi	-12.8548
▁knees	-12.8548
▁knock	-12.8548
▁knop	-12.8548
▁ks	-12.8548
▁labour	-12.8548
▁lag	-12.8548
▁laid	-12.8548
▁lambda	-12.8548
▁lame	-12.8548
▁land	-12.8548
▁landed	-12.8548
▁lap	-12.8548
▁largely	-12.8548
▁las	-12.8548
▁laser	-12.8548
▁laugh	-12.8548
▁laughing	-12.8548
▁layered	-12.8548
▁laying	-12.8548
▁lea	-12.8548
▁lecturer	-12.8548
▁lengthen	-12.8548
▁likewise	-12.8548
▁likings	-12.8548
▁liklier	-12.8548
▁lions	-12.8548
▁listings	-12.8548
▁literal	-12.8548
▁literate	-12.8548
▁litt	-12.8548
▁locally	-12.8548
▁locatable	-12.8548
▁logarithm	-12.8548
▁lonely	-12.8548
▁longmund	-12.8548
▁looki	-12.8548
▁loop	-12.8548
▁lord	-12.8548
▁los	-12.8548
▁louder	-12.8548
▁lowering	-12.8548
▁luminosities	-12.8548
▁lumped	-12.8548
▁machinery	-12.8548
▁madonna	-12.8548
▁magnet	-12.8548
▁mai	-12.8548
▁maine	-12.8548
▁malfunctioning	-12.8548
▁man's	-12.8548
▁mana	-12.8548
▁manag	-12.8548
▁management's	-12.8548
▁manager's	-12.8548
▁manufacturer's	-12.8548
▁margins	-12.8548
▁marketability	-12.8548
▁masters	-12.8548
▁matched	-12.8548
▁materi	-12.8548
▁mates	-12.8548
▁mation	-12.8548
▁mature	-12.8548
▁mea	-12.8548
▁meaningless	-12.8548
▁measurement	-12.8548
▁meat	-12.8548
▁megabytes	-12.8548
▁melissa	-12.8548
▁melp	-12.8548
▁memories	-12.8548
▁mental	-12.8548
▁mentions	-12.8548
▁merged	-12.8548
▁merging	-12.8548
▁metals	-12.8548
▁michigan	-12.8548
▁microph	-12.8548
▁migh	-12.8548
▁mike's	-12.8548
▁mil	-12.8548
▁miles	-12.8548
▁millimetres	-12.8548
▁miniature	-12.8548
▁misleading	-12.8548
▁misplaced	-12.8548
▁mobi	-12.8548
▁modal	-12.8548
▁modality	-12.8548
▁modeling	-12.8548
▁modifications	-12.8548
▁modifies	-12.8548
▁modulated	-12.8548
▁molded	-12.8548
▁mom	-12.8548
▁monkeys	-12.8548
▁monogramme	-12.8548
▁monster	-12.8548
▁moose	-12.8548
▁morgan	-12.8548
▁morris	-12.8548
▁mother	-12.8548
▁moulds	-12.8548
▁muc	-12.8548
▁multimedia	-12.8548
▁multiplied	-12.8548
▁mun	-12.8548
▁mur	-12.8548
▁mus	-12.8548
▁namely	-12.8548
▁napoleon	-12.8548
▁narrowed	-12.8548
▁nasa	-12.8548
▁naturally	-12.8548
▁necessities	-12.8548
▁neck	-12.8548
▁negate	-12.8548
▁neglected	-12.8548
▁negotiation	-12.8548
▁neighbour	-12.8548
▁neon	-12.8548
▁nerd	-12.8548
▁nerds	-12.8548
▁nest	-12.8548
▁nets	-12.8548
▁newspaper	-12.8548
▁nicest	-12.8548
▁nightmare	-12.8548
▁nike	-12.8548
▁nil	-12.8548
▁nob	-12.8548
▁normalised	-12.8548
▁normalising	-12.8548
▁northern	-12.8548
▁nothing's	-12.8548
▁notification	-12.8548
▁nowhere	-12.8548
▁obliged	-12.8548
▁obtain	-12.8548
▁occupy	-12.8548
▁occupying	-12.8548
▁omni	-12.8548
▁one'll	-12.8548
▁oo	-12.8548
▁oof	-12.8548
▁operability	-12.8548
▁opted	-12.8548
▁optimised	-12.8548
▁optimistic	-12.8548
▁oranges	-12.8548
▁orc	-12.8548
▁orchestra	-12.8548
▁ord	-12.8548
▁ordinate	-12.8548
▁ordinated	-12.8548
▁ornaments	-12.8548
▁oscillating	-12.8548
▁oughta	-12.8548
▁outputted	-12.8548
▁outrageous	-12.8548
▁outs	-12.8548
▁pace	-12.8548
▁panasonic	-12.8548
▁panicking	-12.8548
▁parrot	-12.8548
▁partial	-12.8548
▁peculiar	-12.8548
▁peel	-12.8548
▁peeler	-12.8548
▁peep	-12.8548
▁pencil	-12.8548
▁penlites	-12.8548
▁peopl	-12.8548
▁people'd	-12.8548
▁people'll	-12.8548
▁perf	-12.8548
▁perh	-12.8548
▁periodic	-12.8548
▁periods	-12.8548
▁permanantly	-12.8548
▁permission	-12.8548
▁personalising	-12.8548
▁persuade	-12.8548
▁petre	-12.8548
▁pha	-12.8548
▁phaser	-12.8548
▁phew	-12.8548
▁pho	-12.8548
▁phonebook	-12.8548
▁phrases	-12.8548
▁picturing	-12.8548
▁pie	-12.8548
▁pinball	-12.8548
▁pinkie	-12.8548
▁pipeline	-12.8548
▁pissed	-12.8548
▁plants	-12.8548
▁playback	-12.8548
▁played	-12.8548
▁plotted	-12.8548
▁plugging	-12.8548
▁pointers	-12.8548
▁policy	-12.8548
▁polished	-12.8548
▁pomegranate	-12.8548
▁popped	-12.8548
▁popping	-12.8548
▁portland	-12.8548
▁pos	-12.8548
▁possess	-12.8548
▁postpone	-12.8548
▁potato's	-12.8548
▁powering	-12.8548
▁powerstick	-12.8548
▁precedence	-12.8548
▁predominant	-12.8548
▁pref	-12.8548
▁preparation	-12.8548
▁pres	-12.8548
▁presen	-12.8548
▁presence	-12.8548
▁presenta	-12.8548
▁presenter	-12.8548
▁presents	-12.8548
▁preset	-12.8548
▁presets	-12.8548
▁presumed	-12.8548
▁pret	-12.8548
▁prettiest	-12.8548
▁prime	-12.8548
▁prin	-12.8548
▁principles	-12.8548
▁prioritise	-12.8548
▁probab	-12.8548
▁probabl	-12.8548
▁problem's	-12.8548
▁processes	-12.8548
▁producer	-12.8548
▁productions	-12.8548
▁professionals	-12.8548
▁professor	-12.8548
▁profitability	-12.8548
▁programme's	-12.8548
▁progressions	-12.8548
▁promoting	-12.8548
▁promotion	-12.8548
▁prompt	-12.8548
▁prone	-12.8548
▁pronounce	-12.8548
▁proposals	-12.8548
▁prototyping	-12.8548
▁pruning	-12.8548
▁pseudo	-12.8548
▁psycholinguistics	-12.8548
▁publishing	-12.8548
▁pulse	-12.8548
▁pumpkin	-12.8548
▁pun	-12.8548
▁punish	-12.8548
▁pussy	-12.8548
▁python	-12.8548
▁ramaro	-12.8548
▁rambling	-12.8548
▁rapid	-12.8548
▁rapple	-12.8548
▁raring	-12.8548
▁rational	-12.8548
▁reacting	-12.8548
▁reader	-12.8548
▁reall	-12.8548
▁recalibrate	-12.8548
▁recei	-12.8548
▁reception	-12.8548
▁receptor	-12.8548
▁recogni	-12.8548
▁recommendations	-12.8548
▁recommended	-12.8548
▁recon	-12.8548
▁reconstructed	-12.8548
▁recycling	-12.8548
▁redrawing	-12.8548
▁reds	-12.8548
▁reductionist	-12.8548
▁referred	-12.8548
▁reflected	-12.8548
▁refuses	-12.8548
▁regarded	-12.8548
▁registered	-12.8548
▁regu	-12.8548
▁rel	-12.8548
▁relating	-12.8548
▁relation	-12.8548
▁releases	-12.8548
▁reliant	-12.8548
▁reload	-12.8548
▁remarkably	-12.8548
▁remarks	-12.8548
▁remembered	-12.8548
▁reminded	-12.8548
▁remotely	-12.8548
▁repaint	-12.8548
▁repeated	-12.8548
▁repeating	-12.8548
▁replaces	-12.8548
▁replied	-12.8548
▁replies	-12.8548
▁replying	-12.8548
▁reporting	-12.8548
▁representational	-12.8548
▁representations	-12.8548
▁reprocess	-12.8548
▁reprogramming	-12.8548
▁researched	-12.8548
▁researcher	-12.8548
▁researchers	-12.8548
▁researches	-12.8548
▁researching	-12.8548
▁residue	-12.8548
▁resonator	-12.8548
▁respects	-12.8548
▁responded	-12.8548
▁responding	-12.8548
▁restoration	-12.8548
▁restore	-12.8548
▁restraints	-12.8548
▁restricts	-12.8548
▁resume	-12.8548
▁rethink	-12.8548
▁ribbon	-12.8548
▁rightly	-12.8548
▁rise	-12.8548
▁robin's	-12.8548
▁robotic	-12.8548
▁roller	-12.8548
▁rom	-12.8548
▁rotsym	-12.8548
▁rou	-12.8548
▁roun	-12.8548
▁rounder	-12.8548
▁routes	-12.8548
▁routines	-12.8548
▁rubble	-12.8548
▁rude	-12.8548
▁saccades	-12.8548
▁sacrifice	-12.8548
▁sadly	-12.8548
▁santa	-12.8548
▁sarah's	-12.8548
▁sat	-12.8548
▁satisfactory	-12.8548
▁satisfy	-12.8548
▁saucer	-12.8548
▁scan	-12.8548
▁scanner	-12.8548
▁scare	-12.8548
▁scheduling	-12.8548
▁scientists	-12.8548
▁scissors	-12.8548
▁scope	-12.8548
▁scotland	-12.8548
▁scratchy	-12.8548
▁screams	-12.8548
▁screws	-12.8548
▁scuba	-12.8548
▁sculptures	-12.8548
▁sealed	-12.8548
▁secret	-12.8548
▁sections	-12.8548
▁secured	-12.8548
▁seeking	-12.8548
▁seemingly	-12.8548
▁segmentations	-12.8548
▁segmenter	-12.8548
▁selections	-12.8548
▁selector	-12.8548
▁selled	-12.8548
▁semi	-12.8548
▁sen	-12.8548
▁senegal	-12.8548
▁ser	-12.8548
▁settled	-12.8548
▁sha	-12.8548
▁shade	-12.8548
▁shaken	-12.8548
▁shines	-12.8548
▁shipped	-12.8548
▁ships	-12.8548
▁shocks	-12.8548
▁shooting	-12.8548
▁shopping	-12.8548
▁shortcomings	-12.8548
▁shoulda	-12.8548
▁shoulder	-12.8548
▁shoulders	-12.8548
▁shu	-12.8548
▁sick	-12.8548
▁sig	-12.8548
▁signature	-12.8548
▁signs	-12.8548
▁simba	-12.8548
▁simon	-12.8548
▁simp	-12.8548
▁simpl	-12.8548
▁simplification	-12.8548
▁simpson	-12.8548
▁simulate	-12.8548
▁simulation	-12.8548
▁sin	-12.8548
▁singly	-12.8548
▁sinusoid	-12.8548
▁sk	-12.8548
▁sketches	-12.8548
▁sketching	-12.8548
▁sketchy	-12.8548
▁skill	-12.8548
▁skinny	-12.8548
▁sleeping	-12.8548
▁slices	-12.8548
▁slideshow	-12.8548
▁slidey	-12.8548
▁slogan's	-12.8548
▁slot	-12.8548
▁slows	-12.8548
▁sm	-12.8548
▁smelling	-12.8548
▁smelly	-12.8548
▁smiley	-12.8548
▁smilies	-12.8548
▁snap	-12.8548
▁snapshots	-12.8548
▁soap	-12.8548
▁sol	-12.8548
▁sole	-12.8548
▁solely	-12.8548
▁somethin	-12.8548
▁somethings	-12.8548
▁someti	-12.8548
▁sore	-12.8548
▁sorting	-12.8548
▁sou	-12.8548
▁soundtrack	-12.8548
▁spaced	-12.8548
▁spaceships	-12.8548
▁spacey	-12.8548
▁spammed	-12.8548
▁spea	-12.8548
▁speci	-12.8548
▁specialised	-12.8548
▁specif	-12.8548
▁specifi	-12.8548
▁speckles	-12.8548
▁spectacular	-12.8548
▁spectra	-12.8548
▁speeding	-12.8548
▁spicy	-12.8548
▁spins	-12.8548
▁spite	-12.8548
▁splendid	-12.8548
▁splicing	-12.8548
▁splits	-12.8548
▁spongier	-12.8548
▁sprinklers	-12.8548
▁spy	-12.8548
▁stacked	-12.8548
▁stalk	-12.8548
▁stanford	-12.8548
▁stare	-12.8548
▁staring	-12.8548
▁stars	-12.8548
▁statements	-12.8548
▁statistically	-12.8548
▁statue	-12.8548
▁staying	-12.8548
▁steam	-12.8548
▁steer	-12.8548
▁sticky	-12.8548
▁stone	-12.8548
▁stores	-12.8548
▁streamed	-12.8548
▁streaming	-12.8548
▁streamlining	-12.8548
▁stressed	-12.8548
▁stri	-12.8548
▁strongest	-12.8548
▁structurally	-12.8548
▁structuring	-12.8548
▁struggle	-12.8548
▁struggled	-12.8548
▁struggling	-12.8548
▁studied	-12.8548
▁studio	-12.8548
▁stuffs	-12.8548
▁stylised	-12.8548
▁submission	-12.8548
▁subset	-12.8548
▁subtitles	-12.8548
▁successfully	-12.8548
▁sucks	-12.8548
▁sued	-12.8548
▁suffer	-12.8548
▁sufficiently	-12.8548
▁sug	-12.8548
▁suit	-12.8548
▁summarisers	-12.8548
▁sunday	-12.8548
▁sunshine	-12.8548
▁superb	-12.8548
▁supplying	-12.8548
▁suppo	-12.8548
▁supports	-12.8548
▁surfaced	-12.8548
▁surgical	-12.8548
▁surprises	-12.8548
▁surprisingly	-12.8548
▁susceptible	-12.8548
▁sussed	-12.8548
▁swimming	-12.8548
▁symmetry	-12.8548
▁sync	-12.8548
▁synchronisation	-12.8548
▁synchronise	-12.8548
▁synergy	-12.8548
▁synthesise	-12.8548
▁sys	-12.8548
▁tab	-12.8548
▁tack	-12.8548
▁tada	-12.8548
▁taiwan	-12.8548
▁tangram	-12.8548
▁tank	-12.8548
▁tapes	-12.8548
▁tar	-12.8548
▁targ	-12.8548
▁tarik	-12.8548
▁tastes	-12.8548
▁taught	-12.8548
▁taylor	-12.8548
▁tea	-12.8548
▁techie	-12.8548
▁techn	-12.8548
▁technic	-12.8548
▁technologi	-12.8548
▁technologic	-12.8548
▁teenagers	-12.8548
▁teeny	-12.8548
▁teletubbies	-12.8548
▁telewest	-12.8548
▁temperature	-12.8548
▁temperatures	-12.8548
▁tempered	-12.8548
▁template	-12.8548
▁templates	-12.8548
▁tetris	-12.8548
▁themed	-12.8548
▁themself	-12.8548
▁theoretical	-12.8548
▁ther	-12.8548
▁thingies	-12.8548
▁think's	-12.8548
▁thinked	-12.8548
▁thir	-12.8548
▁thirds	-12.8548
▁thirt	-12.8548
▁thou	-12.8548
▁thresholding	-12.8548
▁thresholds	-12.8548
▁ticking	-12.8548
▁tighter	-12.8548
▁tighty	-12.8548
▁tin	-12.8548
▁tissue	-12.8548
▁titanium's	-12.8548
▁tod	-12.8548
▁toffee	-12.8548
▁toilet	-12.8548
▁tolerable	-12.8548
▁tolerant	-12.8548
▁tons	-12.8548
▁toolbar	-12.8548
▁touchscreen	-12.8548
▁touchy	-12.8548
▁toward	-12.8548
▁town	-12.8548
▁traces	-12.8548
▁trackers	-12.8548
▁traditionals	-12.8548
▁tragedy	-12.8548
▁trai	-12.8548
▁transaction	-12.8548
▁transcript	-12.8548
▁transformation	-12.8548
▁transformations	-12.8548
▁transformed	-12.8548
▁translated	-12.8548
▁translating	-12.8548
▁transmitters	-12.8548
▁transport	-12.8548
▁trek	-12.8548
▁trendsetters	-12.8548
▁trendwatch	-12.8548
▁triangulars	-12.8548
▁triggered	-12.8548
▁triggers	-12.8548
▁trip	-12.8548
▁triphones	-12.8548
▁trois	-12.8548
▁tu	-12.8548
▁tunnel	-12.8548
▁uhs	-12.8548
▁unaffordable	-12.8548
▁uncomfortable	-12.8548
▁unfamiliar	-12.8548
▁unfriendly	-12.8548
▁unhappy	-12.8548
▁unifies	-12.8548
▁uniform	-12.8548
▁unle	-12.8548
▁unneeded	-12.8548
▁unplugged	-12.8548
▁unrealistic	-12.8548
▁unscrew	-12.8548
▁untruncated	-12.8548
▁unused	-12.8548
▁upgraded	-12.8548
▁uploaded	-12.8548
▁upping	-12.8548
▁upset	-12.8548
▁upsidaisy	-12.8548
▁upward	-12.8548
▁upwards	-12.8548
▁urgent	-12.8548
▁users'	-12.8548
▁users'll	-12.8548
▁uttera	-12.8548
▁waits	-12.8548
▁wales	-12.8548
▁walks	-12.8548
▁walter	-12.8548
▁warn	-12.8548
▁warnings	-12.8548
▁wasn	-12.8548
▁wastes	-12.8548
▁wasting	-12.8548
▁watcher	-12.8548
▁webbed	-12.8548
▁webs	-12.8548
▁weighs	-12.8548
▁wer	-12.8548
▁west	-12.8548
▁whale	-12.8548
▁whales	-12.8548
▁what'd	-12.8548
▁whats	-12.8548
▁wheel's	-12.8548
▁whereby	-12.8548
▁whip	-12.8548
▁whiteboards	-12.8548
▁whom	-12.8548
▁whoohoo	-12.8548
▁whoop	-12.8548
▁wil	-12.8548
▁winding	-12.8548
▁wobble	-12.8548
▁wolfs	-12.8548
▁wood's	-12.8548
▁wool	-12.8548
▁wording	-12.8548
▁worlds	-12.8548
▁worn	-12.8548
▁wri	-12.8548
▁wrists	-12.8548
▁writer	-12.8548
▁writes	-12.8548
▁yeahs	-12.8548
▁yelling	-12.8548
▁yellows	-12.8548
▁yikes	-12.8548
▁youngest	-12.8548
▁youngst	-12.8548
▁'ca	-13.548
▁'round	-13.548
▁'tis	-13.548
▁abandoned	-13.548
▁abdul	-13.548
▁abilities	-13.548
▁abou	-13.548
▁abrupt	-13.548
▁abs	-13.548
▁absence	-13.548
▁absorb	-13.548
▁abused	-13.548
▁abut	-13.548
▁abutted	-13.548
▁academic	-13.548
▁acce	-13.548
▁accent	-13.548
▁accents	-13.548
▁accentu	-13.548
▁acceptance	-13.548
▁accesi	-13.548
▁accessing	-13.548
▁accessoire	-13.548
▁accessories	-13.548
▁accessors	-13.548
▁acco	-13.548
▁accommodated	-13.548
▁accompanying	-13.548
▁accomplishing	-13.548
▁accountant	-13.548
▁accounted	-13.548
▁accounting	-13.548
▁accumulate	-13.548
▁accuracy	-13.548
▁accusation	-13.548
▁ache	-13.548
▁acknowledge	-13.548
▁acknowledgement	-13.548
▁acne	-13.548
▁actors	-13.548
▁actua	-13.548
▁acu	-13.548
▁adams	-13.548
▁adapted	-13.548
▁adapter	-13.548
▁addicted	-13.548
▁addit	-13.548
▁additi	-13.548
▁additions	-13.548
▁ademesoye	-13.548
▁adhere	-13.548
▁adm	-13.548
▁administration	-13.548
▁administrator	-13.548
▁admits	-13.548
▁admittedly	-13.548
▁admitting	-13.548
▁ado	-13.548
▁adobe	-13.548
▁adopting	-13.548
▁ads	-13.548
▁aerobics	-13.548
▁aesthetically	-13.548
▁affection	-13.548
▁affectionately	-13.548
▁afforded	-13.548
▁africa	-13.548
▁afternoons	-13.548
▁afterward	-13.548
▁aga	-13.548
▁agai	-13.548
▁agey	-13.548
▁agre	-13.548
▁agrees	-13.548
▁ahmet	-13.548
▁ahold	-13.548
▁ahs	-13.548
▁aid	-13.548
▁aids	-13.548
▁airpa	-13.548
▁airplane	-13.548
▁airplanes	-13.548
▁airport	-13.548
▁aku	-13.548
▁alarm's	-13.548
▁alastair	-13.548
▁alf	-13.548
▁algebra	-13.548
▁algori	-13.548
▁alias	-13.548
▁alice	-13.548
▁alienate	-13.548
▁alienated	-13.548
▁aligns	-13.548
▁all's	-13.548
▁alley	-13.548
▁allo	-13.548
▁alloc	-13.548
▁allocate	-13.548
▁allocated	-13.548
▁allowance	-13.548
▁alm	-13.548
▁alrea	-13.548
▁alread	-13.548
▁alrigh	-13.548
▁alter	-13.548
▁alteration	-13.548
▁alternate	-13.548
▁amauto	-13.548
▁amaya	-13.548
▁ambiance	-13.548
▁ambience	-13.548
▁ambiguity	-13.548
▁ambiguous	-13.548
▁amen	-13.548
▁amend	-13.548
▁amina	-13.548
▁amphitheatre	-13.548
▁amplifiers	-13.548
▁amps	-13.548
▁amuse	-13.548
▁an'	-13.548
▁ana	-13.548
▁analog	-13.548
▁analyser's	-13.548
▁andy	-13.548
▁angeles	-13.548
▁anger	-13.548
▁angst	-13.548
▁anim	-13.548
▁annotators	-13.548
▁announce	-13.548
▁announced	-13.548
▁announcing	-13.548
▁annoy	-13.548
▁annually	-13.548
▁anon	-13.548
▁anothers	-13.548
▁anthropology	-13.548
▁ants	-13.548
▁anyb	-13.548
▁anybo	-13.548
▁anybody'll	-13.548
▁anyth	-13.548
▁anyti	-13.548
▁anytimes	-13.548
▁anyw	-13.548
▁apa	-13.548
▁aparata	-13.548
▁apartment's	-13.548
▁apes	-13.548
▁aphorism	-13.548
▁apologise	-13.548
▁app	-13.548
▁appar	-13.548
▁appearan	-13.548
▁appearances	-13.548
▁applet	-13.548
▁appr	-13.548
▁apprentice	-13.548
▁approached	-13.548
▁arabian	-13.548
▁arch	-13.548
▁architectural	-13.548
▁arcs	-13.548
▁arg	-13.548
▁arise	-13.548
▁arised	-13.548
▁arithmetic	-13.548
▁arou	-13.548
▁arran	-13.548
▁arranged	-13.548
▁arrangement	-13.548
▁arrangements	-13.548
▁arranging	-13.548
▁arrears	-13.548
▁arrow's	-13.548
▁arse	-13.548
▁arses	-13.548
▁artem	-13.548
▁arthritis	-13.548
▁articulators	-13.548
▁artifact	-13.548
▁artifacts	-13.548
▁artistry	-13.548
▁asia	-13.548
▁asian	-13.548
▁asleeps	-13.548
▁asse	-13.548
▁assembler	-13.548
▁assignation	-13.548
▁assigns	-13.548
▁assorted	-13.548
▁assured	-13.548
▁asterisk	-13.548
▁astray	-13.548
▁astro	-13.548
▁asymmetry	-13.548
▁athe	-13.548
▁athineos	-13.548
▁atlas's	-13.548
▁attaching	-13.548
▁attachment	-13.548
▁attempts	-13.548
▁attending	-13.548
▁attractable	-13.548
▁attraction	-13.548
▁attributed	-13.548
▁aubergines	-13.548
▁audios	-13.548
▁augmented	-13.548
▁aur	-13.548
▁auth	-13.548
▁authors	-13.548
▁automac	-13.548
▁awake	-13.548
▁awesomest	-13.548
▁baba's	-13.548
▁babe	-13.548
▁babies	-13.548
▁bac	-13.548
▁backing	-13.548
▁backtrack	-13.548
▁baco	-13.548
▁badg	-13.548
▁badger's	-13.548
▁badgers	-13.548
▁badging	-13.548
▁bahamas	-13.548
▁bake	-13.548
▁ballard	-13.548
▁balloon	-13.548
▁bananarama	-13.548
▁bando	-13.548
▁bandwidth	-13.548
▁bang	-13.548
▁bangladesh	-13.548
▁banking	-13.548
▁banned	-13.548
▁banner	-13.548
▁barged	-13.548
▁barney	-13.548
▁barrier	-13.548
▁barriers	-13.548
▁bart	-13.548
▁bashed	-13.548
▁basket	-13.548
▁basketball	-13.548
▁bateer	-13.548
▁bathgate	-13.548
▁bathroom	-13.548
▁batter	-13.548
▁bayes	-13.548
▁bea	-13.548
▁beaches	-13.548
▁beacon	-13.548
▁beagles	-13.548
▁beans	-13.548
▁bearings	-13.548
▁beatles	-13.548
▁beautifully	-13.548
▁beca	-13.548
▁becasue	-13.548
▁bedroom	-13.548
▁beebies	-13.548
▁beeped	-13.548
▁bees	-13.548
▁beginni	-13.548
▁begun	-13.548
▁beholden	-13.548
▁beings	-13.548
▁belgium	-13.548
▁bell	-13.548
▁belly	-13.548
▁bench	-13.548
▁benchmark	-13.548
▁benchmarking	-13.548
▁bend	-13.548
▁berkeley	-13.548
▁betcha	-13.548
▁betenberg	-13.548
▁betweens	-13.548
▁bic	-13.548
▁bikes	-13.548
▁bil	-13.548
▁billion	-13.548
▁binaries	-13.548
▁binary	-13.548
▁bingwings	-13.548
▁biology	-13.548
▁biomorphic	-13.548
▁birthday	-13.548
▁bis	-13.548
▁biscuits	-13.548
▁bitch	-13.548
▁bitten	-13.548
▁bitter	-13.548
▁blackberry	-13.548
▁blackpool	-13.548
▁bland	-13.548
▁blanket	-13.548
▁blast	-13.548
▁blasting	-13.548
▁blei	-13.548
▁blender	-13.548
▁blends	-13.548
▁blinked	-13.548
▁bloated	-13.548
▁blobby	-13.548
▁blobs	-13.548
▁blocking	-13.548
▁blocky	-13.548
▁bloggs	-13.548
▁blue's	-13.548
▁blunt	-13.548
▁blur	-13.548
▁blurred	-13.548
▁blurring	-13.548
▁board's	-13.548
▁boat	-13.548
▁bob's	-13.548
▁bobs	-13.548
▁bode	-13.548
▁bodies	-13.548
▁body's	-13.548
▁boil	-13.548
▁boils	-13.548
▁bolts	-13.548
▁bond	-13.548
▁bong	-13.548
▁boo	-13.548
▁booming	-13.548
▁boost	-13.548
▁boosted	-13.548
▁bore	-13.548
▁boredom	-13.548
▁bornet	-13.548
▁botched	-13.548
▁bothers	-13.548
▁bounced	-13.548
▁bouncy	-13.548
▁bout	-13.548
▁boyfriend	-13.548
▁boys	-13.548
▁bra	-13.548
▁brake	-13.548
▁branches	-13.548
▁branded	-13.548
▁brea	-13.548
▁breakage	-13.548
▁breakages	-13.548
▁breakthrough	-13.548
▁bres	-13.548
▁brick	-13.548
▁brighter	-13.548
▁brightly	-13.548
▁brightn	-13.548
▁brilliance	-13.548
▁brilliantly	-13.548
▁broadband	-13.548
▁broadcasting	-13.548
▁broadly	-13.548
▁broccoli	-13.548
▁broer	-13.548
▁brooklyn	-13.548
▁brother's	-13.548
▁brownie	-13.548
▁brushes	-13.548
▁bt	-13.548
▁bucciantini	-13.548
▁buck	-13.548
▁bucket	-13.548
▁buddhist	-13.548
▁budget's	-13.548
▁budgeted	-13.548
▁buffering	-13.548
▁bugger	-13.548
▁buil	-13.548
▁builder's	-13.548
▁builders	-13.548
▁buildings	-13.548
▁bulge	-13.548
▁bulges	-13.548
▁bulkier	-13.548
▁bulkiest	-13.548
▁bumblebeeish	-13.548
▁bummer	-13.548
▁bumper	-13.548
▁bundling	-13.548
▁bung	-13.548
▁bunging	-13.548
▁burden	-13.548
▁burned	-13.548
▁burrito	-13.548
▁burs	-13.548
▁bursting	-13.548
▁buses	-13.548
▁bussing	-13.548
▁bust	-13.548
▁buts	-13.548
▁buttes	-13.548
▁buttle	-13.548
▁buttonless	-13.548
▁buttons'll	-13.548
▁byproduct	-13.548
▁cable's	-13.548
▁caboodle	-13.548
▁cachet	-13.548
▁cafe	-13.548
▁caffeine	-13.548
▁caged	-13.548
▁cake	-13.548
▁cakes	-13.548
▁cal	-13.548
▁calcula	-13.548
▁calculation's	-13.548
▁calculator's	-13.548
▁cali	-13.548
▁calibrateds	-13.548
▁caller	-13.548
▁callings	-13.548
▁callously	-13.548
▁calm	-13.548
▁calms	-13.548
▁cambodia	-13.548
▁cambridge	-13.548
▁camcorder	-13.548
▁camer	-13.548
▁camouflaged	-13.548
▁campfire	-13.548
▁canada	-13.548
▁cancellation	-13.548
▁cancelled	-13.548
▁cancer	-13.548
▁candle	-13.548
▁canonical	-13.548
▁cans	-13.548
▁capa	-13.548
▁capacit	-13.548
▁capacitator	-13.548
▁capacities	-13.548
▁capacitors	-13.548
▁caparica	-13.548
▁capitalise	-13.548
▁capitals	-13.548
▁carmen	-13.548
▁carol	-13.548
▁carpets	-13.548
▁carries	-13.548
▁carrots	-13.548
▁cart	-13.548
▁carton	-13.548
▁cartoonish	-13.548
▁cartoons	-13.548
▁cassp	-13.548
▁casting	-13.548
▁castrati	-13.548
▁categorisation	-13.548
▁categorised	-13.548
▁caters	-13.548
▁cease	-13.548
▁ceds	-13.548
▁celebra	-13.548
▁celebrating	-13.548
▁cellular	-13.548
▁centralise	-13.548
▁centres	-13.548
▁century	-13.548
▁cepstral	-13.548
▁certainty	-13.548
▁certin	-13.548
▁chairman	-13.548
▁challenged	-13.548
▁chameleon	-13.548
▁chang	-13.548
▁channel'll	-13.548
▁channel's	-13.548
▁chapter	-13.548
▁char	-13.548
▁chara	-13.548
▁character	-13.548
▁characteris	-13.548
▁characterised	-13.548
▁charas	-13.548
▁chargement	-13.548
▁charis	-13.548
▁charlotte's	-13.548
▁charted	-13.548
▁charts	-13.548
▁chases	-13.548
▁chatter	-13.548
▁chatting	-13.548
▁cheapie	-13.548
▁cheaps	-13.548
▁cheapy	-13.548
▁chec	-13.548
▁checks	-13.548
▁cheeky	-13.548
▁cheery	-13.548
▁cheesed	-13.548
▁chernotsky	-13.548
▁cherries	-13.548
▁ches	-13.548
▁childishly	-13.548
▁chill	-13.548
▁chip's	-13.548
▁chipping	-13.548
▁chippy	-13.548
▁chocolate	-13.548
▁chooses	-13.548
▁chopping	-13.548
▁chorus	-13.548
▁chos	-13.548
▁christ's	-13.548
▁christos	-13.548
▁chronological	-13.548
▁chrystler	-13.548
▁chucked	-13.548
▁chunked	-13.548
▁chunkiness	-13.548
▁ci	-13.548
▁cinema	-13.548
▁cintetis	-13.548
▁cir	-13.548
▁circling	-13.548
▁cited	-13.548
▁citrus	-13.548
▁cla	-13.548
▁claimed	-13.548
▁claims	-13.548
▁clapper	-13.548
▁claps	-13.548
▁clare	-13.548
▁clarified	-13.548
▁clarity	-13.548
▁clark	-13.548
▁clash	-13.548
▁classi	-13.548
▁classier	-13.548
▁classif	-13.548
▁classroom	-13.548
▁cleanable	-13.548
▁cleaned	-13.548
▁cleaner	-13.548
▁cleans	-13.548
▁clicky	-13.548
▁climb	-13.548
▁climbing	-13.548
▁clipped	-13.548
▁clobber	-13.548
▁clock's	-13.548
▁closure	-13.548
▁clown	-13.548
▁club	-13.548
▁clumsy	-13.548
▁clunker	-13.548
▁clus	-13.548
▁clusterings	-13.548
▁cluttering	-13.548
▁coaching	-13.548
▁coated	-13.548
▁coatings	-13.548
▁cobble	-13.548
▁cochrane	-13.548
▁cocktails	-13.548
▁code's	-13.548
▁codecs	-13.548
▁coder	-13.548
▁coders	-13.548
▁codings	-13.548
▁cof	-13.548
▁coffeemaker	-13.548
▁cog	-13.548
▁coincides	-13.548
▁coke	-13.548
▁colf	-13.548
▁collaborations	-13.548
▁collate	-13.548
▁collections	-13.548
▁college	-13.548
▁collides	-13.548
▁collisions	-13.548
▁colourfuls	-13.548
▁colourised	-13.548
▁combating	-13.548
▁comfier	-13.548
▁comman	-13.548
▁commander	-13.548
▁commando	-13.548
▁commas	-13.548
▁commence	-13.548
▁commission	-13.548
▁commit	-13.548
▁commitment	-13.548
▁commitments	-13.548
▁committal	-13.548
▁committed	-13.548
▁committee	-13.548
▁committing	-13.548
▁committment	-13.548
▁commodities	-13.548
▁commoner	-13.548
▁communicated	-13.548
▁communications	-13.548
▁community	-13.548
▁compa	-13.548
▁companies'	-13.548
▁companion	-13.548
▁comparably	-13.548
▁compelling	-13.548
▁compensate	-13.548
▁compensated	-13.548
▁compiling	-13.548
▁complaining	-13.548
▁complains	-13.548
▁complaint	-13.548
▁complementary	-13.548
▁completing	-13.548
▁completion	-13.548
▁compli	-13.548
▁complicating	-13.548
▁complications	-13.548
▁compo	-13.548
▁componen	-13.548
▁composite	-13.548
▁comprehensible	-13.548
▁compressions	-13.548
▁comprises	-13.548
▁compromises	-13.548
▁compton	-13.548
▁compu	-13.548
▁compulsory	-13.548
▁comput	-13.548
▁computed	-13.548
▁concatenating	-13.548
▁concatenation	-13.548
▁conce	-13.548
▁concep	-13.548
▁conception	-13.548
▁concessions	-13.548
▁conch	-13.548
▁concise	-13.548
▁concludes	-13.548
▁concretely	-13.548
▁cond	-13.548
▁conditional	-13.548
▁conditioning	-13.548
▁cones	-13.548
▁confere	-13.548
▁conferences	-13.548
▁config	-13.548
▁configuring	-13.548
▁confine	-13.548
▁confined	-13.548
▁confirmed	-13.548
▁conflicting	-13.548
▁confog	-13.548
▁conformable	-13.548
▁confront	-13.548
▁confronting	-13.548
▁confusions	-13.548
▁congratulate	-13.548
▁congratulation	-13.548
▁connects	-13.548
▁constituent	-13.548
▁consu	-13.548
▁consulted	-13.548
▁consum	-13.548
▁consumed	-13.548
▁consumerism	-13.548
▁consumers'	-13.548
▁consumption	-13.548
▁contacted	-13.548
▁container	-13.548
▁containers	-13.548
▁contatenate	-13.548
▁conten	-13.548
▁contingency	-13.548
▁continues	-13.548
▁continuum's	-13.548
▁contort	-13.548
▁contoured	-13.548
▁contradictionary	-13.548
▁contraption	-13.548
▁contrasts	-13.548
▁contributes	-13.548
▁controller's	-13.548
▁contstructs	-13.548
▁coo	-13.548
▁cooked	-13.548
▁cooled	-13.548
▁coolest	-13.548
▁coop	-13.548
▁cooperating	-13.548
▁cop	-13.548
▁coped	-13.548
▁cornering	-13.548
▁corny	-13.548
▁corp	-13.548
▁corpora	-13.548
▁corps	-13.548
▁corpuses	-13.548
▁correlate	-13.548
▁corrine	-13.548
▁cos	-13.548
▁costa	-13.548
▁costed	-13.548
▁couches	-13.548
▁counter	-13.548
▁counters	-13.548
▁countryside	-13.548
▁coupled	-13.548
▁couples	-13.548
▁courses	-13.548
▁court	-13.548
▁coward's	-13.548
▁cowboy	-13.548
▁coyote	-13.548
▁coyotes	-13.548
▁cram	-13.548
▁cranes	-13.548
▁cranking	-13.548
▁crashing	-13.548
▁cream	-13.548
▁creature	-13.548
▁creatures	-13.548
▁credible	-13.548
▁creepy	-13.548
▁crew	-13.548
▁cris	-13.548
▁critic	-13.548
▁critically	-13.548
▁criticisms	-13.548
▁crittin	-13.548
▁cropping	-13.548
▁crosses	-13.548
▁crotch	-13.548
▁cruelty	-13.548
▁cryptic	-13.548
▁cucumber	-13.548
▁cues	-13.548
▁cufw	-13.548
▁cultural	-13.548
▁cultures	-13.548
▁cumbersome	-13.548
▁cumula	-13.548
▁cumulati	-13.548
▁curio	-13.548
▁curliness	-13.548
▁curr	-13.548
▁cursors	-13.548
▁curtain	-13.548
▁cushioning	-13.548
▁customable	-13.548
▁customer's	-13.548
▁customers'	-13.548
▁customisation	-13.548
▁customisations	-13.548
▁customising	-13.548
▁cutbacks	-13.548
▁cycled	-13.548
▁cycles	-13.548
▁cyclical	-13.548
▁cycling	-13.548
▁cylindrical	-13.548
▁dachshund	-13.548
▁dad's	-13.548
▁dada	-13.548
▁daddy	-13.548
▁daft	-13.548
▁daily	-13.548
▁dalry	-13.548
▁dampers	-13.548
▁dancing	-13.548
▁dang	-13.548
▁darkened	-13.548
▁darren's	-13.548
▁darwin	-13.548
▁dates	-13.548
▁daughters	-13.548
▁daunting	-13.548
▁daylight	-13.548
▁deadly	-13.548
▁deali	-13.548
▁death	-13.548
▁deb	-13.548
▁debenham's	-13.548
▁debian	-13.548
▁debug	-13.548
▁debugging	-13.548
▁debusk	-13.548
▁decade	-13.548
▁decimal	-13.548
▁decis	-13.548
▁decisi	-13.548
▁declare	-13.548
▁decompose	-13.548
▁deconstructed	-13.548
▁decoration	-13.548
▁decorrelations	-13.548
▁decreasing	-13.548
▁deer	-13.548
▁def	-13.548
▁defeats	-13.548
▁definable	-13.548
▁deformed	-13.548
▁degradation	-13.548
▁degrade	-13.548
▁dele	-13.548
▁delegate	-13.548
▁delegation	-13.548
▁delicately	-13.548
▁delilah's	-13.548
▁dem	-13.548
▁democratically	-13.548
▁demog	-13.548
▁demographic's	-13.548
▁demographically	-13.548
▁demokraphi	-13.548
▁demolishing	-13.548
▁demonstrates	-13.548
▁demonstration	-13.548
▁denni	-13.548
▁denominator	-13.548
▁densities	-13.548
▁depart	-13.548
▁depe	-13.548
▁dependability	-13.548
▁dependency	-13.548
▁dependi	-13.548
▁depress	-13.548
▁der	-13.548
▁derail	-13.548
▁dere	-13.548
▁derek	-13.548
▁desail	-13.548
▁desc	-13.548
▁descri	-13.548
▁descript	-13.548
▁designy	-13.548
▁desktop's	-13.548
▁destroyed	-13.548
▁destructible	-13.548
▁deter	-13.548
▁determines	-13.548
▁determining	-13.548
▁determinist	-13.548
▁detract	-13.548
▁diagra	-13.548
▁diagrams	-13.548
▁dialers	-13.548
▁dialogues	-13.548
▁dials	-13.548
▁diary	-13.548
▁dibulae	-13.548
▁dic	-13.548
▁dicier	-13.548
▁dictates	-13.548
▁dictating	-13.548
▁dictionary's	-13.548
▁didn	-13.548
▁dids	-13.548
▁diffe	-13.548
▁differe	-13.548
▁differed	-13.548
▁differentiation	-13.548
▁differentness	-13.548
▁differing	-13.548
▁differs	-13.548
▁diffic	-13.548
▁difficu	-13.548
▁digesting	-13.548
▁digitise	-13.548
▁digitising	-13.548
▁diligently	-13.548
▁dinge	-13.548
▁dings	-13.548
▁dinos	-13.548
▁dir	-13.548
▁director	-13.548
▁directories	-13.548
▁directors	-13.548
▁directs	-13.548
▁directur	-13.548
▁dirty	-13.548
▁disability	-13.548
▁disables	-13.548
▁disabling	-13.548
▁disagreed	-13.548
▁disagreements	-13.548
▁disagrees	-13.548
▁disappeared	-13.548
▁disappears	-13.548
▁disbelief	-13.548
▁discard	-13.548
▁discarded	-13.548
▁discmans	-13.548
▁discommunicate	-13.548
▁disconcerting	-13.548
▁disconnected	-13.548
▁discontinuities	-13.548
▁discontinuous	-13.548
▁discounted	-13.548
▁discounting	-13.548
▁discreet	-13.548
▁discriminate	-13.548
▁discrimination	-13.548
▁discu	-13.548
▁discus	-13.548
▁disease	-13.548
▁disempowering	-13.548
▁diske	-13.548
▁disliking	-13.548
▁dislikings	-13.548
▁disney	-13.548
▁dispatch	-13.548
▁dispatching	-13.548
▁dispersed	-13.548
▁displ	-13.548
▁disply	-13.548
▁disposition	-13.548
▁dispra	-13.548
▁dispute	-13.548
▁disregard	-13.548
▁disrespect	-13.548
▁disruption	-13.548
▁diss	-13.548
▁dissatisfied	-13.548
▁dissatisfy	-13.548
▁dissected	-13.548
▁dissimilar	-13.548
▁dissing	-13.548
▁dissolution	-13.548
▁dissu	-13.548
▁distinctions	-13.548
▁disting	-13.548
▁distinguished	-13.548
▁distortion	-13.548
▁distracted	-13.548
▁distress	-13.548
▁distribute	-13.548
▁distributing	-13.548
▁disturbing	-13.548
▁ditto	-13.548
▁dl	-13.548
▁doch	-13.548
▁documen	-13.548
▁document's	-13.548
▁documenting	-13.548
▁dodo	-13.548
▁doh's	-13.548
▁dohs	-13.548
▁doi	-13.548
▁dokey	-13.548
▁dominated	-13.548
▁dommage	-13.548
▁don'	-13.548
▁don'ts	-13.548
▁doner	-13.548
▁dong	-13.548
▁dongle	-13.548
▁donkey	-13.548
▁doodah	-13.548
▁doodled	-13.548
▁doodles	-13.548
▁doom	-13.548
▁door's	-13.548
▁doors	-13.548
▁dormant	-13.548
▁douglas	-13.548
▁downloads	-13.548
▁draf	-13.548
▁dragon	-13.548
▁draining	-13.548
▁drape	-13.548
▁drats	-13.548
▁drawable	-13.548
▁drawback	-13.548
▁dre	-13.548
▁dreadful	-13.548
▁dreaming	-13.548
▁dress	-13.548
▁dressed	-13.548
▁dri	-13.548
▁dried	-13.548
▁drink	-13.548
▁dripper	-13.548
▁droop	-13.548
▁drown	-13.548
▁drunk	-13.548
▁dry	-13.548
▁dubbed	-13.548
▁dues	-13.548
▁duff	-13.548
▁duguid	-13.548
▁dumb	-13.548
▁dumber	-13.548
▁dumbest	-13.548
▁dummy	-13.548
▁dumps	-13.548
▁duplicating	-13.548
▁dur	-13.548
▁dura	-13.548
▁dust	-13.548
▁dut	-13.548
▁duty	-13.548
▁dwight	-13.548
▁dyn	-13.548
▁dyna	-13.548
▁eager	-13.548
▁eah	-13.548
▁earli	-13.548
▁earliest	-13.548
▁earned	-13.548
▁easter	-13.548
▁eastpack	-13.548
▁eatable	-13.548
▁eaten	-13.548
▁echelons	-13.548
▁echo	-13.548
▁eclipsing	-13.548
▁ecol	-13.548
▁ecologists	-13.548
▁ecology	-13.548
▁economical	-13.548
▁economically	-13.548
▁economics	-13.548
▁ed	-13.548
▁edas	-13.548
▁edging	-13.548
▁edgy	-13.548
▁edi	-13.548
▁edited	-13.548
▁editi	-13.548
▁editions	-13.548
▁educated	-13.548
▁eek	-13.548
▁eeyore	-13.548
▁effec	-13.548
▁effecti	-13.548
▁efficacy	-13.548
▁efficiency	-13.548
▁eighteenth	-13.548
▁eights	-13.548
▁elan's	-13.548
▁elasticy	-13.548
▁elderl	-13.548
▁elec	-13.548
▁electr	-13.548
▁electrics	-13.548
▁electro	-13.548
▁electrocuted	-13.548
▁electronical	-13.548
▁eliminated	-13.548
▁elimination	-13.548
▁ellen'll	-13.548
▁els	-13.548
▁ema	-13.548
▁emacs	-13.548
▁emanate	-13.548
▁embedding	-13.548
▁emblematic	-13.548
▁embody	-13.548
▁embossed	-13.548
▁embossing	-13.548
▁emi	-13.548
▁emit	-13.548
▁emits	-13.548
▁emitted	-13.548
▁emitters	-13.548
▁emphasises	-13.548
▁emphasising	-13.548
▁emphatically	-13.548
▁empirical	-13.548
▁employ	-13.548
▁employed	-13.548
▁employees	-13.548
▁enabled	-13.548
▁encapsulating	-13.548
▁encased	-13.548
▁encounter	-13.548
▁encounters	-13.548
▁encouraged	-13.548
▁encrypted	-13.548
▁endanger	-13.548
▁endlessly	-13.548
▁endurable	-13.548
▁enemies	-13.548
▁energetic	-13.548
▁eng	-13.548
▁engages	-13.548
▁engli	-13.548
▁engrained	-13.548
▁enhancement	-13.548
▁enhancing	-13.548
▁enlight	-13.548
▁enlighted	-13.548
▁enlighten	-13.548
▁eno	-13.548
▁entertaining	-13.548
▁enti	-13.548
▁entra	-13.548
▁entree	-13.548
▁entropical	-13.548
▁entropies	-13.548
▁enu	-13.548
▁enumerated	-13.548
▁eponge	-13.548
▁eras	-13.548
▁ergonom	-13.548
▁ergonomical	-13.548
▁err	-13.548
▁escalate	-13.548
▁escalation	-13.548
▁escape'll	-13.548
▁esk	-13.548
▁espe	-13.548
▁espec	-13.548
▁especialised	-13.548
▁essay	-13.548
▁essent	-13.548
▁est	-13.548
▁establish	-13.548
▁establishing	-13.548
▁esti	-13.548
▁ethernet	-13.548
▁ethics	-13.548
▁eur	-13.548
▁eurospeech	-13.548
▁eye's	-13.548
▁eyeball	-13.548
▁fabian	-13.548
▁fabrica	-13.548
▁faceplate	-13.548
▁facets	-13.548
▁facials	-13.548
▁facilitates	-13.548
▁facto	-13.548
▁factored	-13.548
▁factories	-13.548
▁faculties	-13.548
▁fad	-13.548
▁failing	-13.548
▁faithful	-13.548
▁falafel	-13.548
▁falutin	-13.548
▁familiarise	-13.548
▁familiarised	-13.548
▁family's	-13.548
▁fanc	-13.548
▁fancied	-13.548
▁fanciful	-13.548
▁fangled	-13.548
▁fantas	-13.548
▁fantastically	-13.548
▁fare	-13.548
▁farther	-13.548
▁fas	-13.548
▁fash	-13.548
▁fashi	-13.548
▁fashionability	-13.548
▁fashional	-13.548
▁fe	-13.548
▁fearing	-13.548
▁feasib	-13.548
▁featu	-13.548
▁featur	-13.548
▁february	-13.548
▁fee	-13.548
▁feedbacks	-13.548
▁feely	-13.548
▁fel	-13.548
▁females	-13.548
▁fen	-13.548
▁fetching	-13.548
▁fiable	-13.548
▁fiasco	-13.548
▁fidget	-13.548
▁fielding	-13.548
▁fifteenth	-13.548
▁fik	-13.548
▁file's	-13.548
▁films	-13.548
▁filt	-13.548
▁filth	-13.548
▁financially	-13.548
▁findability	-13.548
▁findable	-13.548
▁finders	-13.548
▁finest	-13.548
▁fingernail	-13.548
▁fingerprints	-13.548
▁finite	-13.548
▁firmly	-13.548
▁fiscally	-13.548
▁flagged	-13.548
▁flapped	-13.548
▁flare	-13.548
▁flase	-13.548
▁flashed	-13.548
▁flashiness	-13.548
▁flashlights	-13.548
▁flatmate	-13.548
▁flatness	-13.548
▁flatten	-13.548
▁flattened	-13.548
▁flattens	-13.548
▁flatter	-13.548
▁flatulence	-13.548
▁flaunt	-13.548
▁flaw	-13.548
▁fle	-13.548
▁flickering	-13.548
▁fliers	-13.548
▁flimsy	-13.548
▁flippy	-13.548
▁float	-13.548
▁floating	-13.548
▁flop	-13.548
▁floppy	-13.548
▁florescent	-13.548
▁flowed	-13.548
▁flowing	-13.548
▁fluctuating	-13.548
▁fluctuation	-13.548
▁fluctuations	-13.548
▁fluidly	-13.548
▁focu	-13.548
▁focussed	-13.548
▁focussi	-13.548
▁foggy	-13.548
▁foil	-13.548
▁folders	-13.548
▁folding	-13.548
▁folds	-13.548
▁folks	-13.548
▁followi	-13.548
▁fon	-13.548
▁fond	-13.548
▁fonts	-13.548
▁foo	-13.548
▁fool	-13.548
▁football	-13.548
▁forbid	-13.548
▁forbidden	-13.548
▁forcing	-13.548
▁forehead	-13.548
▁foresee	-13.548
▁foreseeable	-13.548
▁foreshadowing	-13.548
▁forestalled	-13.548
▁forests	-13.548
▁forg	-13.548
▁forgets	-13.548
▁forgo	-13.548
▁formal	-13.548
▁formalised	-13.548
▁formalism	-13.548
▁formally	-13.548
▁formatting	-13.548
▁formu	-13.548
▁formulate	-13.548
▁formulated	-13.548
▁formulating	-13.548
▁forrest	-13.548
▁forte	-13.548
▁forties	-13.548
▁fortunate	-13.548
▁fortunately	-13.548
▁forw	-13.548
▁forwardly	-13.548
▁fou	-13.548
▁foundation	-13.548
▁founding	-13.548
▁fount	-13.548
▁fourteenth	-13.548
▁fourths	-13.548
▁fousek	-13.548
▁frag	-13.548
▁framed	-13.548
▁franc	-13.548
▁francais	-13.548
▁francisco	-13.548
▁frankenstein	-13.548
▁frankly	-13.548
▁franta	-13.548
▁frape	-13.548
▁fre	-13.548
▁freak	-13.548
▁freebie	-13.548
▁freely	-13.548
▁frent	-13.548
▁frightened	-13.548
▁frighteningly	-13.548
▁frog	-13.548
▁frontwards	-13.548
▁fruitful	-13.548
▁fruitish	-13.548
▁fruitist	-13.548
▁fry's	-13.548
▁fucks	-13.548
▁fuct	-13.548
▁ful	-13.548
▁fulf	-13.548
▁fulfilling	-13.548
▁functi	-13.548
▁function's	-13.548
▁functioned	-13.548
▁functon	-13.548
▁functs	-13.548
▁funded	-13.548
▁funding	-13.548
▁funtionability	-13.548
▁fur	-13.548
▁furnitures	-13.548
▁furthering	-13.548
▁fus	-13.548
▁fuse	-13.548
▁fused	-13.548
▁fussed	-13.548
▁fut	-13.548
▁futures	-13.548
▁fya	-13.548
▁fyoo	-13.548
▁ga	-13.548
▁gab	-13.548
▁gadgetness	-13.548
▁gained	-13.548
▁gam	-13.548
▁gambling	-13.548
▁garbled	-13.548
▁gauge	-13.548
▁gaus	-13.548
▁gauss	-13.548
▁gay	-13.548
▁gearing	-13.548
▁geckos	-13.548
▁geeks	-13.548
▁gem	-13.548
▁gen	-13.548
▁generalis	-13.548
▁generalise	-13.548
▁generator	-13.548
▁generically	-13.548
▁genre	-13.548
▁gentlemens	-13.548
▁geometric	-13.548
▁geometrical	-13.548
▁germans	-13.548
▁gestural	-13.548
▁gesturing	-13.548
▁getabdar	-13.548
▁getical	-13.548
▁gigantic	-13.548
▁gilders	-13.548
▁gimme	-13.548
▁gimmicks	-13.548
▁gimmickyness	-13.548
▁gimp	-13.548
▁giraffes	-13.548
▁girlish	-13.548
▁girly	-13.548
▁glance	-13.548
▁glasgow	-13.548
▁glassy	-13.548
▁glatt	-13.548
▁glimpse	-13.548
▁glo	-13.548
▁globby	-13.548
▁globe	-13.548
▁globs	-13.548
▁globular	-13.548
▁glossy	-13.548
▁glottal	-13.548
▁glowingness	-13.548
▁glu	-13.548
▁goed	-13.548
▁gogors	-13.548
▁gooding	-13.548
▁gorgeous	-13.548
▁gourd	-13.548
▁grabbable	-13.548
▁grabbed	-13.548
▁gradable	-13.548
▁graduate	-13.548
▁graduated	-13.548
▁grain	-13.548
▁grainedness	-13.548
▁gram	-13.548
▁grammatical	-13.548
▁grammeale	-13.548
▁grammy	-13.548
▁grandad	-13.548
▁grandchild	-13.548
▁grandfather's	-13.548
▁grandmas	-13.548
▁grandmother	-13.548
▁grandparent	-13.548
▁granted	-13.548
▁graphemic	-13.548
▁grease	-13.548
▁greasy	-13.548
▁greece	-13.548
▁greek	-13.548
▁greyed	-13.548
▁greys	-13.548
▁gri	-13.548
▁grill	-13.548
▁grinder	-13.548
▁grinding	-13.548
▁grippy	-13.548
▁gritty	-13.548
▁groceries	-13.548
▁gross	-13.548
▁grossly	-13.548
▁grou	-13.548
▁group's	-13.548
▁grouped	-13.548
▁grouping	-13.548
▁groupings	-13.548
▁growth	-13.548
▁grumpy	-13.548
▁gu	-13.548
▁gua	-13.548
▁guessed	-13.548
▁guesses	-13.548
▁guidance	-13.548
▁guided	-13.548
▁guideline	-13.548
▁guitar	-13.548
▁gung	-13.548
▁guns	-13.548
▁guru	-13.548
▁gurus	-13.548
▁gut	-13.548
▁gutted	-13.548
▁habitat	-13.548
▁hairbrush	-13.548
▁hairy	-13.548
▁hal	-13.548
▁hall	-13.548
▁hallo	-13.548
▁handbag	-13.548
▁handedly	-13.548
▁hander	-13.548
▁handful	-13.548
▁handi	-13.548
▁handiest	-13.548
▁handler	-13.548
▁handlers	-13.548
▁handshake	-13.548
▁happily	-13.548
▁hardest	-13.548
▁hardish	-13.548
▁harmful	-13.548
▁harmless	-13.548
▁harmonicity	-13.548
▁harness	-13.548
▁harsh	-13.548
▁hasred	-13.548
▁hat	-13.548
▁hatch	-13.548
▁hating	-13.548
▁hawaii	-13.548
▁hayes	-13.548
▁haymarket	-13.548
▁head's	-13.548
▁header	-13.548
▁headings	-13.548
▁headlines	-13.548
▁headphone	-13.548
▁heal	-13.548
▁healing	-13.548
▁healthier	-13.548
▁healthy	-13.548
▁hears	-13.548
▁heat	-13.548
▁heather's	-13.548
▁heating	-13.548
▁hectic	-13.548
▁heel	-13.548
▁heh	-13.548
▁hei	-13.548
▁helen	-13.548
▁hell's	-13.548
▁hem	-13.548
▁heuristic	-13.548
▁hiccups	-13.548
▁hid	-13.548
▁hideous	-13.548
▁hierarch	-13.548
▁highli	-13.548
▁highs	-13.548
▁hilarious	-13.548
▁hilb	-13.548
▁hills	-13.548
▁hin	-13.548
▁hinder	-13.548
▁hindering	-13.548
▁hired	-13.548
▁hiss	-13.548
▁histo	-13.548
▁historically	-13.548
▁hitachi	-13.548
▁hiya	-13.548
▁hmms	-13.548
▁hobby	-13.548
▁holer	-13.548
▁hollow	-13.548
▁holly	-13.548
▁holster	-13.548
▁home's	-13.548
▁homely	-13.548
▁hometown	-13.548
▁homo	-13.548
▁homogeneous	-13.548
▁homogeneously	-13.548
▁hon	-13.548
▁honour	-13.548
▁hooray	-13.548
▁hopef	-13.548
▁hopefu	-13.548
▁horrendously	-13.548
▁horrific	-13.548
▁horror	-13.548
▁host	-13.548
▁hotel	-13.548
▁hotter	-13.548
▁hour's	-13.548
▁hourglass	-13.548
▁hours'	-13.548
▁houses	-13.548
▁housing	-13.548
▁how're	-13.548
▁how's	-13.548
▁howl	-13.548
▁hu	-13.548
▁huffman	-13.548
▁huffman's	-13.548
▁huhs	-13.548
▁human's	-13.548
▁humour	-13.548
▁hump	-13.548
▁hunger	-13.548
▁hunting	-13.548
▁hurrying	-13.548
▁hurts	-13.548
▁hy	-13.548
▁hype	-13.548
▁hyperlinks	-13.548
▁hypers	-13.548
▁hypotheses	-13.548
▁hypothetically	-13.548
▁ian's	-13.548
▁icassps	-13.548
▁icky	-13.548
▁ideals	-13.548
▁identifies	-13.548
▁identifying	-13.548
▁ideological	-13.548
▁idiot	-13.548
▁idle	-13.548
▁il	-13.548
▁illuminating	-13.548
▁illumination	-13.548
▁illustrated	-13.548
▁imac	-13.548
▁imac's	-13.548
▁imagi	-13.548
▁imaginary	-13.548
▁imaginations	-13.548
▁imaging	-13.548
▁imitating	-13.548
▁immedis	-13.548
▁impede	-13.548
▁impending	-13.548
▁impersonal	-13.548
▁impl	-13.548
▁implanted	-13.548
▁implemen	-13.548
▁implementational	-13.548
▁implepe	-13.548
▁implicates	-13.548
▁implicit	-13.548
▁implied	-13.548
▁implies	-13.548
▁impo	-13.548
▁importantly	-13.548
▁importing	-13.548
▁impose	-13.548
▁imposed	-13.548
▁impressing	-13.548
▁impressionist	-13.548
▁imprinted	-13.548
▁impro	-13.548
▁impulse	-13.548
▁impulses	-13.548
▁inaccurate	-13.548
▁incidentally	-13.548
▁incidents	-13.548
▁incl	-13.548
▁incli	-13.548
▁incom	-13.548
▁incomplete	-13.548
▁inconsistencies	-13.548
▁inconsistency	-13.548
▁incorpor	-13.548
▁incrat	-13.548
▁incre	-13.548
▁increa	-13.548
▁increment	-13.548
▁incrustation	-13.548
▁incur	-13.548
▁incurs	-13.548
▁inde	-13.548
▁indestructible	-13.548
▁indic	-13.548
▁indica	-13.548
▁indicating	-13.548
▁indicators	-13.548
▁indico	-13.548
▁indirect	-13.548
▁indirectly	-13.548
▁indu	-13.548
▁induce	-13.548
▁inductions	-13.548
▁industr	-13.548
▁industrati	-13.548
▁industrials	-13.548
▁inefficiently	-13.548
▁inelegant	-13.548
▁infa	-13.548
▁influations	-13.548
▁influences	-13.548
▁infomercial	-13.548
▁infor	-13.548
▁informa	-13.548
▁informal	-13.548
▁informally	-13.548
▁informan	-13.548
▁informat	-13.548
▁informatics	-13.548
▁infrar	-13.548
▁infrare	-13.548
▁ing	-13.548
▁ingredients	-13.548
▁inhalation	-13.548
▁inherent	-13.548
▁inherit	-13.548
▁ini	-13.548
▁inigo	-13.548
▁init	-13.548
▁initialisation	-13.548
▁initials	-13.548
▁initiate	-13.548
▁ink's	-13.548
▁innos	-13.548
▁inoperable	-13.548
▁inp	-13.548
▁inpu	-13.548
▁input's	-13.548
▁insane	-13.548
▁insanely	-13.548
▁inscribed	-13.548
▁insects	-13.548
▁inseparate	-13.548
▁inserter	-13.548
▁inset	-13.548
▁insi	-13.548
▁insides	-13.548
▁insp	-13.548
▁inspect	-13.548
▁inspira	-13.548
▁inspirational	-13.548
▁inspire	-13.548
▁installations	-13.548
▁installing	-13.548
▁instances	-13.548
▁instinctual	-13.548
▁institutional	-13.548
▁instr	-13.548
▁instruct	-13.548
▁insulation	-13.548
▁insure	-13.548
▁integer	-13.548
▁integers	-13.548
▁integra	-13.548
▁integrally	-13.548
▁integrateds	-13.548
▁intend	-13.548
▁intentionally	-13.548
▁interac	-13.548
▁interacts	-13.548
▁interation	-13.548
▁intercept	-13.548
▁interceptor	-13.548
▁interchan	-13.548
▁interdependencies	-13.548
▁interesti	-13.548
▁interfacing	-13.548
▁interfering	-13.548
▁intergrate	-13.548
▁interiors	-13.548
▁interme	-13.548
▁intermittent	-13.548
▁internship	-13.548
▁interopera	-13.548
▁interoperabi	-13.548
▁interpolation	-13.548
▁interrupting	-13.548
▁interruption	-13.548
▁interse	-13.548
▁intersect	-13.548
▁intersecting	-13.548
▁intersections	-13.548
▁intra	-13.548
▁intreg	-13.548
▁intrinsic	-13.548
▁intro	-13.548
▁introductory	-13.548
▁intstru	-13.548
▁intuition	-13.548
▁inwards	-13.548
▁ipac	-13.548
▁iradium	-13.548
▁iran	-13.548
▁ironic	-13.548
▁irritate	-13.548
▁irritated	-13.548
▁islands	-13.548
▁iso	-13.548
▁isolate	-13.548
▁isolation	-13.548
▁issuing	-13.548
▁italian	-13.548
▁iterating	-13.548
▁iterations	-13.548
▁ith	-13.548
▁itsel	-13.548
▁kablouey	-13.548
▁kap	-13.548
▁kar	-13.548
▁kat	-13.548
▁katie	-13.548
▁keckers	-13.548
▁kemoro	-13.548
▁kendra's	-13.548
▁kettle	-13.548
▁keyboar	-13.548
▁keypads	-13.548
▁keyrings	-13.548
▁khaki	-13.548
▁kids'	-13.548
▁killer	-13.548
▁killing	-13.548
▁kills	-13.548
▁kim	-13.548
▁kinder	-13.548
▁kindergarten	-13.548
▁kine	-13.548
▁kinesthetic	-13.548
▁kinet	-13.548
▁kinetety	-13.548
▁kineti	-13.548
▁kingdom	-13.548
▁kis	-13.548
▁kitchenware	-13.548
▁kl	-13.548
▁kne	-13.548
▁kneipgatt	-13.548
▁knife	-13.548
▁knoing	-13.548
▁knot	-13.548
▁kop	-13.548
▁korea	-13.548
▁kree	-13.548
▁krug	-13.548
▁labelli	-13.548
▁lacks	-13.548
▁lad	-13.548
▁ladder	-13.548
▁ladies	-13.548
▁lads	-13.548
▁lagos	-13.548
▁lags	-13.548
▁lair	-13.548
▁lamination	-13.548
▁lan	-13.548
▁landing	-13.548
▁lands	-13.548
▁landscape	-13.548
▁lapt	-13.548
▁latency	-13.548
▁latino	-13.548
▁launched	-13.548
▁laundry	-13.548
▁laura	-13.548
▁lawnmower	-13.548
▁lawrence	-13.548
▁lawyer	-13.548
▁lawyers	-13.548
▁leadered	-13.548
▁leadershi	-13.548
▁leadership's	-13.548
▁leads	-13.548
▁league	-13.548
▁leaner	-13.548
▁learnability	-13.548
▁learns	-13.548
▁lec	-13.548
▁ledge	-13.548
▁leeway	-13.548
▁leftmost	-13.548
▁leg	-13.548
▁legally	-13.548
▁lego	-13.548
▁leicester	-13.548
▁leisure	-13.548
▁lend	-13.548
▁lending	-13.548
▁length's	-13.548
▁lenient	-13.548
▁lent	-13.548
▁lewis	-13.548
▁liable	-13.548
▁liaise	-13.548
▁lib	-13.548
▁liberal	-13.548
▁liberally	-13.548
▁lic	-13.548
▁licences	-13.548
▁license	-13.548
▁licensing	-13.548
▁lifted	-13.548
▁liger	-13.548
▁ligh	-13.548
▁lightest	-13.548
▁lightweight	-13.548
▁likeable	-13.548
▁likelihoo	-13.548
▁lim	-13.548
▁limita	-13.548
▁limiteded	-13.548
▁lindgren	-13.548
▁line'll	-13.548
▁linger	-13.548
▁linguists	-13.548
▁lining	-13.548
▁linki	-13.548
▁linu	-13.548
▁listable	-13.548
▁lite	-13.548
▁litten	-13.548
▁littered	-13.548
▁littler	-13.548
▁loadings	-13.548
▁loans	-13.548
▁loca	-13.548
▁localisation	-13.548
▁locati	-13.548
▁locator'll	-13.548
▁locator's	-13.548
▁loch	-13.548
▁locks	-13.548
▁logan	-13.548
▁logic's	-13.548
▁logica	-13.548
▁logitech	-13.548
▁logo's	-13.548
▁logs	-13.548
▁lollipop	-13.548
▁lon	-13.548
▁london	-13.548
▁longest	-13.548
▁longlasting	-13.548
▁look's	-13.548
▁lookin	-13.548
▁loom	-13.548
▁loops	-13.548
▁loosen	-13.548
▁losed	-13.548
▁losers	-13.548
▁losi	-13.548
▁losses	-13.548
▁lossiness	-13.548
▁lottery	-13.548
▁loudest	-13.548
▁lounge	-13.548
▁lousy	-13.548
▁ludicrous	-13.548
▁luggage	-13.548
▁luminos	-13.548
▁lumping	-13.548
▁lune	-13.548
▁lure	-13.548
▁machi	-13.548
▁magnitudes	-13.548
▁mahogany	-13.548
▁mak	-13.548
▁makin	-13.548
▁malarkey	-13.548
▁males	-13.548
▁malleable	-13.548
▁mama	-13.548
▁managements	-13.548
▁manages	-13.548
▁mandatorily	-13.548
▁mandy	-13.548
▁mangoes	-13.548
▁mani	-13.548
▁manipulated	-13.548
▁manipulating	-13.548
▁mankind	-13.548
▁mans	-13.548
▁manufactural	-13.548
▁manufacturies	-13.548
▁mapl	-13.548
▁mapped	-13.548
▁mappings	-13.548
▁marching	-13.548
▁marginally	-13.548
▁marius'	-13.548
▁markations	-13.548
▁marke	-13.548
▁market's	-13.548
▁maroon	-13.548
▁married	-13.548
▁marty	-13.548
▁mas	-13.548
▁masa	-13.548
▁masking	-13.548
▁masse	-13.548
▁master's	-13.548
▁mathemat	-13.548
▁mathematical	-13.548
▁matically	-13.548
▁matin	-13.548
▁mating	-13.548
▁mattered	-13.548
▁matth	-13.548
▁matthew's	-13.548
▁measurable	-13.548
▁mecha	-13.548
▁mediat	-13.548
▁medical	-13.548
▁medsa	-13.548
▁meeti	-13.548
▁megami	-13.548
▁mehler's	-13.548
▁meinfeld	-13.548
▁melbourne	-13.548
▁melded	-13.548
▁meli	-13.548
▁melt	-13.548
▁melts	-13.548
▁memorised	-13.548
▁memorising	-13.548
▁memory's	-13.548
▁menagerie	-13.548
▁mer	-13.548
▁mercedes	-13.548
▁mere	-13.548
▁merely	-13.548
▁merlin	-13.548
▁mesh	-13.548
▁messaging	-13.548
▁meter	-13.548
▁metric	-13.548
▁metropolitan	-13.548
▁mh	-13.548
▁miaow	-13.548
▁microchips	-13.548
▁middl	-13.548
▁mighta	-13.548
▁mikes	-13.548
▁mild	-13.548
▁mildly	-13.548
▁mile	-13.548
▁milestone	-13.548
▁mill	-13.548
▁millennium	-13.548
▁millenniums	-13.548
▁millis	-13.548
▁millise	-13.548
▁milner	-13.548
▁minded	-13.548
▁mindset	-13.548
▁minich	-13.548
▁minima	-13.548
▁minimalised	-13.548
▁minimalistic	-13.548
▁minimises	-13.548
▁minimising	-13.548
▁minority	-13.548
▁mint	-13.548
▁minut	-13.548
▁miracle	-13.548
▁miracles	-13.548
▁miranda	-13.548
▁mirroring	-13.548
▁miscalculated	-13.548
▁miscalculation	-13.548
▁mishandling	-13.548
▁mislead	-13.548
▁misplacement	-13.548
▁misschien	-13.548
▁misspelled	-13.548
▁mistaken	-13.548
▁mistreat	-13.548
▁mistrust	-13.548
▁misunderstood	-13.548
▁misuses	-13.548
▁mm'	-13.548
▁mmm	-13.548
▁moat	-13.548
▁moded	-13.548
▁modems	-13.548
▁moder	-13.548
▁modification	-13.548
▁modularising	-13.548
▁modularity	-13.548
▁modulations	-13.548
▁mol	-13.548
▁moldable	-13.548
▁mole	-13.548
▁moms	-13.548
▁mondays	-13.548
▁monitoring	-13.548
▁monitors	-13.548
▁monkeying	-13.548
▁monochrome	-13.548
▁monologue	-13.548
▁monophones	-13.548
▁monos	-13.548
▁monotonic	-13.548
▁monotonically	-13.548
▁months'	-13.548
▁montoya	-13.548
▁moon	-13.548
▁moral	-13.548
▁mores	-13.548
▁mortgage	-13.548
▁mortgages	-13.548
▁motif	-13.548
▁motions	-13.548
▁motorola	-13.548
▁mouldable	-13.548
▁moulding	-13.548
▁mountain	-13.548
▁moustache	-13.548
▁mr	-13.548
▁muck	-13.548
▁mud	-13.548
▁mug's	-13.548
▁multifunction	-13.548
▁multitude	-13.548
▁mummy	-13.548
▁munich	-13.548
▁munt	-13.548
▁muscle	-13.548
▁museum	-13.548
▁mutant	-13.548
▁muten	-13.548
▁mysterious	-13.548
▁mystery	-13.548
▁n'est	-13.548
▁nab	-13.548
▁nai	-13.548
▁nails	-13.548
▁nameless	-13.548
▁nanne	-13.548
▁nanometres	-13.548
▁narrower	-13.548
▁narrowing	-13.548
▁nathan's	-13.548
▁nationalism	-13.548
▁natur	-13.548
▁naturalistic	-13.548
▁nearest	-13.548
▁nebulosity	-13.548
▁necess	-13.548
▁necessar	-13.548
▁neededs	-13.548
▁needless	-13.548
▁needn't	-13.548
▁negation	-13.548
▁neglect	-13.548
▁negligible	-13.548
▁negotiate	-13.548
▁neighbourhood	-13.548
▁neighbouring	-13.548
▁neighbours	-13.548
▁ness	-13.548
▁nested	-13.548
▁netbeans	-13.548
▁netherlands	-13.548
▁newly	-13.548
▁newsclippings	-13.548
▁newsfla	-13.548
▁niches	-13.548
▁nicked	-13.548
▁nickel	-13.548
▁nicking	-13.548
▁nickname	-13.548
▁niels	-13.548
▁nifra	-13.548
▁nifty	-13.548
▁nigeria	-13.548
▁nigger	-13.548
▁nigh	-13.548
▁nine's	-13.548
▁nineteenth	-13.548
▁nineties	-13.548
▁nintendo	-13.548
▁ninth	-13.548
▁nit	-13.548
▁nitty	-13.548
▁nn	-13.548
▁nocturnal	-13.548
▁nodding	-13.548
▁nodes	-13.548
▁noi	-13.548
▁nokias	-13.548
▁nonetheless	-13.548
▁nonsense	-13.548
▁norm	-13.548
▁normaliser	-13.548
▁northwest	-13.548
▁nose	-13.548
▁nota	-13.548
▁notate	-13.548
▁notation	-13.548
▁notations	-13.548
▁noteboard	-13.548
▁notepads	-13.548
▁noth	-13.548
▁nothi	-13.548
▁nothin	-13.548
▁noticeable	-13.548
▁notified	-13.548
▁notifies	-13.548
▁notorious	-13.548
▁noun	-13.548
▁nouns	-13.548
▁nowaday	-13.548
▁nu	-13.548
▁nubbies	-13.548
▁nuff	-13.548
▁numb	-13.548
▁numbe	-13.548
▁number's	-13.548
▁numbering	-13.548
▁numerals	-13.548
▁numerically	-13.548
▁numerous	-13.548
▁nut	-13.548
▁ob	-13.548
▁obeyed	-13.548
▁obligation	-13.548
▁oblong	-13.548
▁obscene	-13.548
▁obscure	-13.548
▁obscuring	-13.548
▁obstacles	-13.548
▁obstructed	-13.548
▁obtainable	-13.548
▁oc	-13.548
▁occam	-13.548
▁occas	-13.548
▁occurring	-13.548
▁ocean	-13.548
▁odi	-13.548
▁off's	-13.548
▁offem	-13.548
▁offerings	-13.548
▁offset	-13.548
▁og	-13.548
▁oi	-13.548
▁okays	-13.548
▁okey	-13.548
▁om	-13.548
▁onscreen	-13.548
▁onwards	-13.548
▁oomp	-13.548
▁ooph	-13.548
▁oper	-13.548
▁opera	-13.548
▁operable	-13.548
▁operas	-13.548
▁operatable	-13.548
▁operational	-13.548
▁operator	-13.548
▁operators	-13.548
▁oppose	-13.548
▁optically	-13.548
▁optim	-13.548
▁optimisable	-13.548
▁optimises	-13.548
▁optimist	-13.548
▁oracle	-13.548
▁orally	-13.548
▁orangutans	-13.548
▁orbited	-13.548
▁ordering	-13.548
▁ordination	-13.548
▁ordinations	-13.548
▁organi	-13.548
▁organisation	-13.548
▁organisational	-13.548
▁ori	-13.548
▁orientated	-13.548
▁orientates	-13.548
▁orientation	-13.548
▁origi	-13.548
▁os	-13.548
▁osbourne	-13.548
▁osbournes	-13.548
▁oscillation	-13.548
▁osl	-13.548
▁ostensibly	-13.548
▁otherwi	-13.548
▁outcome	-13.548
▁outfit	-13.548
▁outflow	-13.548
▁outl	-13.548
▁outliers	-13.548
▁outp	-13.548
▁outputter	-13.548
▁outputting	-13.548
▁outright	-13.548
▁outsi	-13.548
▁outsmart	-13.548
▁outsource	-13.548
▁outstanding	-13.548
▁owe	-13.548
▁owner	-13.548
▁ownership	-13.548
▁owns	-13.548
▁oy	-13.548
▁packaged	-13.548
▁packed	-13.548
▁packs	-13.548
▁padding	-13.548
▁page's	-13.548
▁pager	-13.548
▁pains	-13.548
▁paintbrush	-13.548
▁painted	-13.548
▁paints	-13.548
▁paired	-13.548
▁palette	-13.548
▁palms	-13.548
▁pan	-13.548
▁pani	-13.548
▁panic	-13.548
▁panned	-13.548
▁panthers	-13.548
▁panting	-13.548
▁paper's	-13.548
▁paperweight	-13.548
▁parachute	-13.548
▁parallelograms	-13.548
▁pared	-13.548
▁paren	-13.548
▁parentheses	-13.548
▁pares	-13.548
▁park	-13.548
▁part's	-13.548
▁parti	-13.548
▁partic	-13.548
▁participated	-13.548
▁participating	-13.548
▁participation	-13.548
▁particularity	-13.548
▁partition	-13.548
▁partitioned	-13.548
▁partnering	-13.548
▁partners	-13.548
▁partnership	-13.548
▁passionate	-13.548
▁passwords	-13.548
▁pasted	-13.548
▁pasting	-13.548
▁pat	-13.548
▁patches	-13.548
▁pathetic	-13.548
▁patient	-13.548
▁patterned	-13.548
▁pauls	-13.548
▁pays	-13.548
▁peace	-13.548
▁peacock	-13.548
▁peaking	-13.548
▁pearce	-13.548
▁pearson	-13.548
▁pedagogical	-13.548
▁peeked	-13.548
▁pel	-13.548
▁penalties	-13.548
▁penalty	-13.548
▁pence	-13.548
▁pending	-13.548
▁penlite	-13.548
▁pennies	-13.548
▁pensioners	-13.548
▁pentium	-13.548
▁penultim	-13.548
▁peo	-13.548
▁peoples'	-13.548
▁pepperoni	-13.548
▁perc	-13.548
▁perce	-13.548
▁perception	-13.548
▁perceptua	-13.548
▁performances	-13.548
▁perg	-13.548
▁perha	-13.548
▁peripher	-13.548
▁peripheral	-13.548
▁peripherical	-13.548
▁permit	-13.548
▁permits	-13.548
▁permitted	-13.548
▁perrot	-13.548
▁pers	-13.548
▁personalisation	-13.548
▁peterson	-13.548
▁petra	-13.548
▁petre's	-13.548
▁pf	-13.548
▁phallic	-13.548
▁phasing	-13.548
▁phenomenon	-13.548
▁phil's	-13.548
▁philip's	-13.548
▁phoned	-13.548
▁phoneticians	-13.548
▁phosphorescent	-13.548
▁photographs	-13.548
▁photos	-13.548
▁photoshop	-13.548
▁physiotherapy	-13.548
▁pic	-13.548
▁picky	-13.548
▁pictograms	-13.548
▁pictured	-13.548
▁piecing	-13.548
▁pierre	-13.548
▁pigeon	-13.548
▁pikachu	-13.548
▁pillows	-13.548
▁pine	-13.548
▁pingin	-13.548
▁pinging	-13.548
▁pings	-13.548
▁pinkness	-13.548
▁pinned	-13.548
▁pinnits	-13.548
▁pinocchio	-13.548
▁piously	-13.548
▁piranhas	-13.548
▁pirate	-13.548
▁pis	-13.548
▁piss	-13.548
▁pitched	-13.548
▁placeholder	-13.548
▁planar	-13.548
▁plant	-13.548
▁plastic's	-13.548
▁platform	-13.548
▁plating	-13.548
▁platt's	-13.548
▁players'll	-13.548
▁playfulness	-13.548
▁ple	-13.548
▁plen	-13.548
▁pli	-13.548
▁pliable	-13.548
▁plob	-13.548
▁plots	-13.548
▁plotters	-13.548
▁ploy	-13.548
▁plug's	-13.548
▁plumbed	-13.548
▁pocketphone	-13.548
▁pod	-13.548
▁podi	-13.548
▁pof	-13.548
▁poi	-13.548
▁poin	-13.548
▁pointier	-13.548
▁pointy	-13.548
▁pois	-13.548
▁polarity	-13.548
▁police	-13.548
▁policies	-13.548
▁polls	-13.548
▁polymer	-13.548
▁polymers	-13.548
▁pomegranate's	-13.548
▁pon	-13.548
▁pondering	-13.548
▁poo	-13.548
▁poodle	-13.548
▁pools	-13.548
▁poorly	-13.548
▁poppy's	-13.548
▁popularly	-13.548
▁populat	-13.548
▁por	-13.548
▁pork	-13.548
▁porn	-13.548
▁porridge	-13.548
▁portal	-13.548
▁portamint	-13.548
▁portions	-13.548
▁ports	-13.548
▁portuguese	-13.548
▁possessed	-13.548
▁posted	-13.548
▁poster	-13.548
▁potatoey	-13.548
▁pots	-13.548
▁pou	-13.548
▁pow	-13.548
▁powerpointy	-13.548
▁pra	-13.548
▁prac	-13.548
▁practices	-13.548
▁practised	-13.548
▁pragmatic	-13.548
▁prague	-13.548
▁prairie	-13.548
▁praise	-13.548
▁pray	-13.548
▁prec	-13.548
▁preclude	-13.548
▁pred	-13.548
▁predators	-13.548
▁predetermined	-13.548
▁predicted	-13.548
▁predicting	-13.548
▁predictor	-13.548
▁predisposes	-13.548
▁preferable	-13.548
▁premise	-13.548
▁prepa	-13.548
▁prepares	-13.548
▁preprocessing	-13.548
▁prerecorded	-13.548
▁presentat	-13.548
▁presentatio	-13.548
▁pressurised	-13.548
▁presu	-13.548
▁pretends	-13.548
▁pretentious	-13.548
▁prett	-13.548
▁prey	-13.548
▁prick	-13.548
▁primates	-13.548
▁printer	-13.548
▁priori	-13.548
▁prite	-13.548
▁proba	-13.548
▁probablility	-13.548
▁probl	-13.548
▁proc	-13.548
▁producement	-13.548
▁prodyuc	-13.548
▁profe	-13.548
▁professionally	-13.548
▁profiting	-13.548
▁progr	-13.548
▁progra	-13.548
▁programmatically	-13.548
▁programmeab	-13.548
▁programming's	-13.548
▁progressed	-13.548
▁prolong	-13.548
▁prolongating	-13.548
▁promiscuous	-13.548
▁promises	-13.548
▁promptly	-13.548
▁prongs	-13.548
▁prono	-13.548
▁pronouncing	-13.548
▁proofing	-13.548
▁prop	-13.548
▁proprietary	-13.548
▁pros	-13.548
▁prosody	-13.548
▁prospects	-13.548
▁prot	-13.548
▁protec	-13.548
▁protections	-13.548
▁protects	-13.548
▁proto	-13.548
▁protoptype	-13.548
▁protot	-13.548
▁protrude	-13.548
▁prune	-13.548
▁prush	-13.548
▁psp	-13.548
▁psycho	-13.548
▁psychological	-13.548
▁public's	-13.548
▁publication	-13.548
▁publications	-13.548
▁publicity	-13.548
▁punch	-13.548
▁purchase	-13.548
▁purdy	-13.548
▁purposefully	-13.548
▁purse	-13.548
▁purses	-13.548
▁pursuing	-13.548
▁pushable	-13.548
▁pushbut	-13.548
▁puttin	-13.548
▁pyramid	-13.548
▁pyramidal	-13.548
▁radar	-13.548
▁radians	-13.548
▁radically	-13.548
▁radiohead	-13.548
▁radium	-13.548
▁rahman	-13.548
▁rainy	-13.548
▁raises	-13.548
▁rampantly	-13.548
▁ranges	-13.548
▁ranging	-13.548
▁rankings	-13.548
▁ranks	-13.548
▁rarity	-13.548
▁rate's	-13.548
▁rathe	-13.548
▁rationale	-13.548
▁rationalisation	-13.548
▁rats	-13.548
▁reaches	-13.548
▁reaching	-13.548
▁reaction's	-13.548
▁reactions'	-13.548
▁readily	-13.548
▁realisation	-13.548
▁realising	-13.548
▁realisti	-13.548
▁realm	-13.548
▁reanimate	-13.548
▁reasoning	-13.548
▁reassurance	-13.548
▁reassuring	-13.548
▁rebuild	-13.548
▁recache	-13.548
▁recalculate	-13.548
▁recalculating	-13.548
▁recalibrated	-13.548
▁recalibration	-13.548
▁recall	-13.548
▁recalled	-13.548
▁recalling	-13.548
▁recha	-13.548
▁rechargeab	-13.548
▁reckoning	-13.548
▁recognising	-13.548
▁recogniti	-13.548
▁recognition'll	-13.548
▁recognition's	-13.548
▁recognitions	-13.548
▁recogntion	-13.548
▁recommending	-13.548
▁reconfigure	-13.548
▁reconstr	-13.548
▁recre	-13.548
▁rect	-13.548
▁recta	-13.548
▁rectified	-13.548
▁recurrence	-13.548
▁recurring	-13.548
▁recursions	-13.548
▁recycle	-13.548
▁reddening	-13.548
▁redesigning	-13.548
▁redness	-13.548
▁redraw	-13.548
▁redshifts	-13.548
▁reduc	-13.548
▁reduces	-13.548
▁refa	-13.548
▁refashion	-13.548
▁referenced	-13.548
▁refill	-13.548
▁refined	-13.548
▁refining	-13.548
▁refitting	-13.548
▁refresh	-13.548
▁refreshed	-13.548
▁refused	-13.548
▁regardi	-13.548
▁regenera	-13.548
▁regenerated	-13.548
▁regenerating	-13.548
▁regional	-13.548
▁registration	-13.548
▁regularised	-13.548
▁regulating	-13.548
▁rehashing	-13.548
▁reinforced	-13.548
▁reissa's	-13.548
▁relay	-13.548
▁relearning	-13.548
▁releasing	-13.548
▁religion	-13.548
▁remained	-13.548
▁remains	-13.548
▁remedy	-13.548
▁remembers	-13.548
▁remin	-13.548
▁reminders	-13.548
▁reminiscent	-13.548
▁remote'll	-13.548
▁remultific	-13.548
▁renaissance	-13.548
▁renewable	-13.548
▁renewed	-13.548
▁rent	-13.548
▁reorganise	-13.548
▁repainted	-13.548
▁repainting	-13.548
▁repair	-13.548
▁reparable	-13.548
▁repeti	-13.548
▁replay	-13.548
▁repo	-13.548
▁reprocessing	-13.548
▁reproduce	-13.548
▁reproduced	-13.548
▁reproducing	-13.548
▁reputation	-13.548
▁reread	-13.548
▁resc	-13.548
▁resea	-13.548
▁resemblance	-13.548
▁reset	-13.548
▁resets	-13.548
▁residence	-13.548
▁residing	-13.548
▁resign	-13.548
▁resisting	-13.548
▁resistor	-13.548
▁resolutions	-13.548
▁resonators	-13.548
▁resorption	-13.548
▁resourceful	-13.548
▁respecting	-13.548
▁respend	-13.548
▁respet	-13.548
▁respondents	-13.548
▁restart	-13.548
▁restaurant	-13.548
▁resting	-13.548
▁rests	-13.548
▁resu	-13.548
▁resul	-13.548
▁resulting	-13.548
▁ret	-13.548
▁retailer	-13.548
▁retaining	-13.548
▁retarded	-13.548
▁retire	-13.548
▁retreat	-13.548
▁retro's	-13.548
▁returned	-13.548
▁returning	-13.548
▁returns	-13.548
▁retyping	-13.548
▁reusable	-13.548
▁reused	-13.548
▁reworked	-13.548
▁rewound	-13.548
▁rhy	-13.548
▁rhythmia	-13.548
▁richer	-13.548
▁rick	-13.548
▁ridding	-13.548
▁righ	-13.548
▁rights	-13.548
▁rigorous	-13.548
▁ringing	-13.548
▁riot	-13.548
▁ripe	-13.548
▁ripped	-13.548
▁rob	-13.548
▁rob's	-13.548
▁robots	-13.548
▁rock	-13.548
▁rol	-13.548
▁romantic	-13.548
▁rome	-13.548
▁romo	-13.548
▁ronald	-13.548
▁roo's	-13.548
▁roommate	-13.548
▁rooster	-13.548
▁rope	-13.548
▁roses	-13.548
▁ross	-13.548
▁rot	-13.548
▁rotational	-13.548
▁rote	-13.548
▁roundabouts	-13.548
▁rounds	-13.548
▁router	-13.548
▁rows	-13.548
▁royal	-13.548
▁rubbed	-13.548
▁rubberiness	-13.548
▁rubberness	-13.548
▁rubbers	-13.548
▁rubbing	-13.548
▁rubbled	-13.548
▁rug	-13.548
▁ruining	-13.548
▁ruins	-13.548
▁rundown	-13.548
▁runners	-13.548
▁rushed	-13.548
▁russian	-13.548
▁saarbruecken	-13.548
▁saccadic	-13.548
▁sacked	-13.548
▁sacrificed	-13.548
▁sai	-13.548
▁salad	-13.548
▁salesroom	-13.548
▁salient	-13.548
▁sam's	-13.548
▁sanity	-13.548
▁sapien	-13.548
▁sarcastic	-13.548
▁saturation	-13.548
▁sayin	-13.548
▁scaled	-13.548
▁scares	-13.548
▁scarily	-13.548
▁scaring	-13.548
▁scart	-13.548
▁scattering	-13.548
▁scented	-13.548
▁sch	-13.548
▁schematics	-13.548
▁schools	-13.548
▁scientific	-13.548
▁scoot	-13.548
▁scor	-13.548
▁scping	-13.548
▁scra	-13.548
▁scrabbled	-13.548
▁scramble	-13.548
▁scrambled	-13.548
▁scraping	-13.548
▁scrapped	-13.548
▁scratches	-13.548
▁scri	-13.548
▁scroll's	-13.548
▁scrollers	-13.548
▁scrollings	-13.548
▁scrolly	-13.548
▁scror	-13.548
▁scrub	-13.548
▁scusi	-13.548
▁searched	-13.548
▁searches	-13.548
▁season	-13.548
▁seasons	-13.548
▁seats	-13.548
▁sebas	-13.548
▁sebast	-13.548
▁sebastian's	-13.548
▁second's	-13.548
▁secrets	-13.548
▁secs	-13.548
▁sed	-13.548
▁sedentary	-13.548
▁seed	-13.548
▁seeds	-13.548
▁segregated	-13.548
▁seiko	-13.548
▁seldom	-13.548
▁selectors	-13.548
▁selects	-13.548
▁selfish	-13.548
▁seller	-13.548
▁sem	-13.548
▁semantics	-13.548
▁semething	-13.548
▁seminar	-13.548
▁senden	-13.548
▁senor	-13.548
▁sens	-13.548
▁sensing	-13.548
▁sep	-13.548
▁seriali	-13.548
▁serialise	-13.548
▁serieses	-13.548
▁serted	-13.548
▁sesame	-13.548
▁sesh	-13.548
▁settee	-13.548
▁seyfart	-13.548
▁seyfert's	-13.548
▁shabby	-13.548
▁shades	-13.548
▁shadowy	-13.548
▁shaker	-13.548
▁shakespeare	-13.548
▁shallow	-13.548
▁shameful	-13.548
▁shape's	-13.548
▁shapely	-13.548
▁sharper	-13.548
▁she'	-13.548
▁sheath	-13.548
▁shed	-13.548
▁sheer	-13.548
▁sheffield	-13.548
▁shells	-13.548
▁shh	-13.548
▁shi	-13.548
▁shipping	-13.548
▁shirts	-13.548
▁sho	-13.548
▁shoddy	-13.548
▁shoelaces	-13.548
▁shopped	-13.548
▁shortage	-13.548
▁shortcuts	-13.548
▁shortlist	-13.548
▁showable	-13.548
▁shrank	-13.548
▁shrink	-13.548
▁shuffle	-13.548
▁shuttle	-13.548
▁shy	-13.548
▁sic	-13.548
▁side's	-13.548
▁sideline	-13.548
▁sidewords	-13.548
▁sift	-13.548
▁signal's	-13.548
▁signalled	-13.548
▁signaller	-13.548
▁signed	-13.548
▁signify	-13.548
▁signing	-13.548
▁sil	-13.548
▁sileye	-13.548
▁silk	-13.548
▁simil	-13.548
▁similarit	-13.548
▁simpleness	-13.548
▁simpson's	-13.548
▁simulates	-13.548
▁simultaneous	-13.548
▁sincerely	-13.548
▁sines	-13.548
▁singe	-13.548
▁singer	-13.548
▁singing	-13.548
▁singles	-13.548
▁singular	-13.548
▁sinking	-13.548
▁sir	-13.548
▁sis	-13.548
▁sitcoms	-13.548
▁skepible	-13.548
▁sketchboard	-13.548
▁skilled	-13.548
▁skim	-13.548
▁skimming's	-13.548
▁sks	-13.548
▁skype	-13.548
▁slamming	-13.548
▁slanted	-13.548
▁slashdot	-13.548
▁slee	-13.548
▁sleekness	-13.548
▁sleepy	-13.548
▁sliced	-13.548
▁slicker	-13.548
▁slickness	-13.548
▁sliders	-13.548
▁slidy	-13.548
▁sligh	-13.548
▁slightest	-13.548
▁slimy	-13.548
▁slinky	-13.548
▁slog	-13.548
▁slogans	-13.548
▁sloped	-13.548
▁sloth	-13.548
▁slots	-13.548
▁slowing	-13.548
▁slut	-13.548
▁sma	-13.548
▁smaller's	-13.548
▁smallish	-13.548
▁smarter	-13.548
▁smartness	-13.548
▁sme	-13.548
▁smiles	-13.548
▁smoke	-13.548
▁smoking	-13.548
▁smoothed	-13.548
▁smoother	-13.548
▁sn	-13.548
▁snag	-13.548
▁snappy	-13.548
▁snapshot	-13.548
▁sneaky	-13.548
▁sniff	-13.548
▁snotty	-13.548
▁snout	-13.548
▁snow	-13.548
▁sociable	-13.548
▁socialising	-13.548
▁sod	-13.548
▁soda	-13.548
▁softens	-13.548
▁softness	-13.548
▁softwares	-13.548
▁sola	-13.548
▁soldered	-13.548
▁solders	-13.548
▁solidity	-13.548
▁solidly	-13.548
▁solids	-13.548
▁solitaire	-13.548
▁solu	-13.548
▁someday	-13.548
▁somei	-13.548
▁someo	-13.548
▁somewhe	-13.548
▁son	-13.548
▁song	-13.548
▁sonic	-13.548
▁soonest	-13.548
▁soph	-13.548
▁sophistic	-13.548
▁sophistication	-13.548
▁sounder	-13.548
▁sour	-13.548
▁southern	-13.548
▁spacecraft	-13.548
▁spacial	-13.548
▁spacious	-13.548
▁spans	-13.548
▁sparkly	-13.548
▁spatial	-13.548
▁spatially	-13.548
▁speced	-13.548
▁specialists	-13.548
▁specialities	-13.548
▁speciality	-13.548
▁specialty	-13.548
▁specic	-13.548
▁specifies	-13.548
▁spectrograms	-13.548
▁sped	-13.548
▁speeches	-13.548
▁speeds	-13.548
▁spef	-13.548
▁spelling	-13.548
▁spen	-13.548
▁spet	-13.548
▁spethisfispis	-13.548
▁sphere	-13.548
▁spherical	-13.548
▁spillage	-13.548
▁spindly	-13.548
▁spirit	-13.548
▁spiritual	-13.548
▁spits	-13.548
▁splash	-13.548
▁splitter	-13.548
▁spo	-13.548
▁spon	-13.548
▁spongeball	-13.548
▁sponges	-13.548
▁spongiest	-13.548
▁spongy's	-13.548
▁sponsor	-13.548
▁sponsored	-13.548
▁spontaneous	-13.548
▁spots'll	-13.548
▁spray	-13.548
▁spreading	-13.548
▁springboard	-13.548
▁sprinkler	-13.548
▁spun	-13.548
▁sshing	-13.548
▁stabil	-13.548
▁stack	-13.548
▁stagger	-13.548
▁staggered	-13.548
▁stained	-13.548
▁stake	-13.548
▁stale	-13.548
▁stam	-13.548
▁standard's	-13.548
▁standardise	-13.548
▁standpoint	-13.548
▁stat	-13.548
▁stats	-13.548
▁stead	-13.548
▁steadily	-13.548
▁steel	-13.548
▁stefan	-13.548
▁stems	-13.548
▁steph's	-13.548
▁stephanie	-13.548
▁stepped	-13.548
▁stereotype	-13.548
▁stereotypically	-13.548
▁stif	-13.548
▁stiffness	-13.548
▁stimulated	-13.548
▁stimulating	-13.548
▁stink	-13.548
▁stinks	-13.548
▁stocks	-13.548
▁stole	-13.548
▁stoned	-13.548
▁stones	-13.548
▁stories	-13.548
▁storm	-13.548
▁storming	-13.548
▁str	-13.548
▁stra	-13.548
▁straightf	-13.548
▁straining	-13.548
▁strains	-13.548
▁strap's	-13.548
▁strapless	-13.548
▁strapping	-13.548
▁stratagem	-13.548
▁strategically	-13.548
▁strategies	-13.548
▁stratig	-13.548
▁streaks	-13.548
▁streamline	-13.548
▁stressing	-13.548
▁stressy	-13.548
▁stretches	-13.548
▁stretching	-13.548
▁strike	-13.548
▁strikes	-13.548
▁striking	-13.548
▁stringent	-13.548
▁stripe	-13.548
▁stripping	-13.548
▁strips	-13.548
▁strokes	-13.548
▁strongly	-13.548
▁strongy	-13.548
▁stru	-13.548
▁struck	-13.548
▁structural	-13.548
▁structure's	-13.548
▁stuf	-13.548
▁stuff's	-13.548
▁stumble	-13.548
▁stumpy	-13.548
▁stupidly	-13.548
▁sturdiness	-13.548
▁stuttering	-13.548
▁stylist	-13.548
▁stylistic	-13.548
▁subaru	-13.548
▁subdued	-13.548
▁subliminal	-13.548
▁submarine	-13.548
▁submits	-13.548
▁subscribed	-13.548
▁subscribing	-13.548
▁substances	-13.548
▁substructure	-13.548
▁subtitl	-13.548
▁subtlety	-13.548
▁subtract	-13.548
▁subtracted	-13.548
▁subtracting	-13.548
▁succe	-13.548
▁succeeded	-13.548
▁succeeding	-13.548
▁succeeds	-13.548
▁succession	-13.548
▁suck	-13.548
▁sucked	-13.548
▁sucking	-13.548
▁sucky	-13.548
▁suede	-13.548
▁suf	-13.548
▁suffice	-13.548
▁sugar	-13.548
▁sugg	-13.548
▁sugges	-13.548
▁suh	-13.548
▁suisse	-13.548
▁suitcases	-13.548
▁suited	-13.548
▁summar	-13.548
▁summary's	-13.548
▁summery	-13.548
▁summon	-13.548
▁sunbath	-13.548
▁superficial	-13.548
▁superimpose	-13.548
▁superiors	-13.548
▁superman	-13.548
▁supermando	-13.548
▁supermarkets	-13.548
▁suppl	-13.548
▁supplementary	-13.548
▁supplier	-13.548
▁supposing	-13.548
▁suppress	-13.548
▁suppression	-13.548
▁surfaces	-13.548
▁surfers	-13.548
▁surpri	-13.548
▁surprise	-13.548
▁surroundings	-13.548
▁suspension	-13.548
▁suspiciously	-13.548
▁sussing	-13.548
▁swallowing	-13.548
▁swap's	-13.548
▁swapable	-13.548
▁swapped	-13.548
▁swat	-13.548
▁swatch	-13.548
▁sway	-13.548
▁sweat	-13.548
▁sweaty	-13.548
▁swiftly	-13.548
▁swimmingly	-13.548
▁swings	-13.548
▁swipe	-13.548
▁swish	-13.548
▁swords	-13.548
▁symbol's	-13.548
▁symbolises	-13.548
▁symmet	-13.548
▁syn	-13.548
▁synching	-13.548
▁synchron	-13.548
▁synchroni	-13.548
▁synchronised	-13.548
▁synchs	-13.548
▁synergistic	-13.548
▁synthes	-13.548
▁synthesised	-13.548
▁synthetic	-13.548
▁tablature	-13.548
▁tabulate	-13.548
▁tac	-13.548
▁tackle	-13.548
▁tadada	-13.548
▁tagged	-13.548
▁tail's	-13.548
▁tal	-13.548
▁talent	-13.548
▁talents	-13.548
▁talkie	-13.548
▁taller	-13.548
▁tally	-13.548
▁tams	-13.548
▁tangling	-13.548
▁taped	-13.548
▁tapped	-13.548
▁targets'	-13.548
▁tasteful	-13.548
▁tats	-13.548
▁teaches	-13.548
▁team's	-13.548
▁teams	-13.548
▁tease	-13.548
▁teaser	-13.548
▁techin	-13.548
▁techne	-13.548
▁technicalities	-13.548
▁technophobic	-13.548
▁teenage	-13.548
▁teens	-13.548
▁tef	-13.548
▁tek	-13.548
▁telcon	-13.548
▁telecom's	-13.548
▁telephon	-13.548
▁telephone's	-13.548
▁telephoning	-13.548
▁telescopes	-13.548
▁telete	-13.548
▁teletubby	-13.548
▁tellies	-13.548
▁tellys	-13.548
▁tem	-13.548
▁tempo	-13.548
▁temporally	-13.548
▁tempting	-13.548
▁tending	-13.548
▁tendonditis	-13.548
▁tennis	-13.548
▁tens	-13.548
▁tension	-13.548
▁tentel	-13.548
▁ter	-13.548
▁terminologies	-13.548
▁terminology	-13.548
▁terracotta	-13.548
▁terrain	-13.548
▁terrific	-13.548
▁terrified	-13.548
▁territory	-13.548
▁tester	-13.548
▁thankfully	-13.548
▁thats	-13.548
▁theatre	-13.548
▁theft	-13.548
▁them's	-13.548
▁theorem	-13.548
▁theoretician	-13.548
▁therapeuticising	-13.548
▁thermodynamic	-13.548
▁theys	-13.548
▁thing'd	-13.548
▁thing'll	-13.548
▁thingamibobsy	-13.548
▁things'll	-13.548
▁thingys	-13.548
▁thirteenth	-13.548
▁thirty's	-13.548
▁thit	-13.548
▁thm	-13.548
▁thngs	-13.548
▁thorough	-13.548
▁thoroughly	-13.548
▁those'll	-13.548
▁thoughtful	-13.548
▁threat	-13.548
▁threatening	-13.548
▁three's	-13.548
▁thrill	-13.548
▁thrilling	-13.548
▁ths	-13.548
▁thu	-13.548
▁thum	-13.548
▁thumbnail	-13.548
▁thumping	-13.548
▁tiered	-13.548
▁tigers	-13.548
▁tightly	-13.548
▁til	-13.548
▁tilt	-13.548
▁timbre	-13.548
▁time's	-13.548
▁timers	-13.548
▁timescale	-13.548
▁timetables	-13.548
▁timings	-13.548
▁timit	-13.548
▁tinted	-13.548
▁tire	-13.548
▁tit	-13.548
▁toastie	-13.548
▁toby	-13.548
▁toddlers	-13.548
▁toffs	-13.548
▁tog	-13.548
▁togeth	-13.548
▁toggles	-13.548
▁token	-13.548
▁tolerate	-13.548
▁tom	-13.548
▁tomatoes	-13.548
▁tomor	-13.548
▁toned	-13.548
▁tooth	-13.548
▁toothpick	-13.548
▁topic's	-13.548
▁topological	-13.548
▁topper	-13.548
▁toronto	-13.548
▁tortillas	-13.548
▁tossed	-13.548
▁touchable	-13.548
▁toyshop	-13.548
▁trace	-13.548
▁traced	-13.548
▁tracing	-13.548
▁trademark	-13.548
▁trainee	-13.548
▁tram	-13.548
▁trams	-13.548
▁tran	-13.548
▁tranf	-13.548
▁transactions	-13.548
▁transcribed	-13.548
▁transcriptions	-13.548
▁transcs	-13.548
▁transferring	-13.548
▁transformer	-13.548
▁transi	-13.548
▁transitions	-13.548
▁translations	-13.548
▁translucent	-13.548
▁transparency	-13.548
▁transponders	-13.548
▁transportations	-13.548
▁transported	-13.548
▁transti	-13.548
▁trapet	-13.548
▁trapped	-13.548
▁trash	-13.548
▁tray	-13.548
▁tre	-13.548
▁trea	-13.548
▁treasure	-13.548
▁tremendously	-13.548
▁trendiest	-13.548
▁trendly	-13.548
▁trendwatchers	-13.548
▁trendwatching	-13.548
▁triangulation	-13.548
▁trickiest	-13.548
▁tricking	-13.548
▁trimming	-13.548
▁tripping	-13.548
▁tro	-13.548
▁tropical	-13.548
▁troubleshooting	-13.548
▁troublesome	-13.548
▁trough	-13.548
▁trow	-13.548
▁tru	-13.548
▁truncated	-13.548
▁truncation	-13.548
▁trustful	-13.548
▁truth	-13.548
▁tryin	-13.548
▁tsh	-13.548
▁tucked	-13.548
▁tunnely	-13.548
▁tur	-13.548
▁turtles	-13.548
▁tutor	-13.548
▁tweak	-13.548
▁twentieth	-13.548
▁twiddle	-13.548
▁twiddling	-13.548
▁twisted	-13.548
▁twoft	-13.548
▁twoish	-13.548
▁ty	-13.548
▁typed	-13.548
▁typo	-13.548
▁ufe	-13.548
▁ug	-13.548
▁ugl	-13.548
▁uglier	-13.548
▁ultim	-13.548
▁ums	-13.548
▁unable	-13.548
▁unacceptable	-13.548
▁unanimously	-13.548
▁unaware	-13.548
▁uncertain	-13.548
▁unclips	-13.548
▁uncode	-13.548
▁uncompress	-13.548
▁unconsciously	-13.548
▁und	-13.548
▁underdog	-13.548
▁underestimated	-13.548
▁undergraduates	-13.548
▁underground	-13.548
▁underlie	-13.548
▁underscore	-13.548
▁underst	-13.548
▁understandable	-13.548
▁underwater	-13.548
▁underway	-13.548
▁undes	-13.548
▁undoable	-13.548
▁une	-13.548
▁unfold	-13.548
▁unid	-13.548
▁unidentifiable	-13.548
▁unidentified	-13.548
▁unimportant	-13.548
▁unintentional	-13.548
▁uninteresting	-13.548
▁unirs	-13.548
▁united	-13.548
▁unity	-13.548
▁unknown	-13.548
▁unl	-13.548
▁unlighted	-13.548
▁unlike	-13.548
▁unlimited	-13.548
▁unlocked	-13.548
▁unlogical	-13.548
▁unp	-13.548
▁unreadable	-13.548
▁unreliability	-13.548
▁unsatisfied	-13.548
▁unscientific	-13.548
▁unscrewed	-13.548
▁unstructured	-13.548
▁untangling	-13.548
▁unti	-13.548
▁untimed	-13.548
▁unusually	-13.548
▁unwrapped	-13.548
▁unwrapping	-13.548
▁unwritten	-13.548
▁upcoming	-13.548
▁updating	-13.548
▁upped	-13.548
▁upstairs	-13.548
▁urge	-13.548
▁urine	-13.548
▁url	-13.548
▁usefully	-13.548
▁userface	-13.548
▁usi	-13.548
▁usurp	-13.548
▁utilise	-13.548
▁utilised	-13.548
▁utilities	-13.548
▁utility	-13.548
▁utteran	-13.548
▁uttered	-13.548
▁wackier	-13.548
▁wacky	-13.548
▁wags	-13.548
▁waited	-13.548
▁walkie	-13.548
▁walkmans	-13.548
▁wanker	-13.548
▁warmer	-13.548
▁warming	-13.548
▁warranty	-13.548
▁wars	-13.548
▁wary	-13.548
▁wash	-13.548
▁washed	-13.548
▁wastage	-13.548
▁wasted	-13.548
▁wasteful	-13.548
▁waters	-13.548
▁weaker	-13.548
▁weakness	-13.548
▁weaknesses	-13.548
▁wealth	-13.548
▁wealthy	-13.548
▁wearing	-13.548
▁weekends	-13.548
▁weeny	-13.548
▁wei	-13.548
▁weighing	-13.548
▁weighting	-13.548
▁weightings	-13.548
▁weirdest	-13.548
▁wet	-13.548
▁what're	-13.548
▁wheat	-13.548
▁whee	-13.548
▁wheelchair	-13.548
▁wher	-13.548
▁where'd	-13.548
▁wherea	-13.548
▁whereabout	-13.548
▁whereabouts	-13.548
▁wherein	-13.548
▁whew	-13.548
▁which'd	-13.548
▁which'll	-13.548
▁whis	-13.548
▁whisper	-13.548
▁whispering	-13.548
▁whitebo	-13.548
▁whiter	-13.548
▁whiting	-13.548
▁who'd	-13.548
▁wholesalers	-13.548
▁whoosh	-13.548
▁whooshing	-13.548
▁whopper	-13.548
▁whose	-13.548
▁widen	-13.548
▁widens	-13.548
▁widespread	-13.548
▁wie	-13.548
▁wierd	-13.548
▁willingly	-13.548
▁willingness	-13.548
▁willows	-13.548
▁winner	-13.548
▁winning	-13.548
▁wins	-13.548
▁wiped	-13.548
▁wiper	-13.548
▁wisely	-13.548
▁wishable	-13.548
▁wishing	-13.548
▁wit	-13.548
▁withdrawn	-13.548
▁withi	-13.548
▁withing	-13.548
▁withstanding	-13.548
▁witter	-13.548
▁woa	-13.548
▁wombat	-13.548
▁won	-13.548
▁wonderfully	-13.548
▁wonders	-13.548
▁wont	-13.548
▁woods	-13.548
▁woofers	-13.548
▁wooh	-13.548
▁word's	-13.548
▁worded	-13.548
▁wordnet	-13.548
▁workability	-13.548
▁worker	-13.548
▁workers	-13.548
▁workspace	-13.548
▁worldwide	-13.548
▁worm	-13.548
▁wr	-13.548
▁wrapping	-13.548
▁wraps	-13.548
▁wrongest	-13.548
▁wrongly	-13.548
▁y'all	-13.548
▁ya	-13.548
▁yellowy	-13.548
▁yh	-13.548
▁yip	-13.548
▁yis	-13.548
▁yoohoos	-13.548
▁york	-13.548
▁youn	-13.548
▁youself	-13.548
▁youthful	-13.548
▁yu	-13.548
▁yur	-13.548
