t
##he
a
##in
the
o
w
##re
s
##nd
##er
##ha
b
##is
of
##ou
##on
##it
##ed
##en
f
c
m
and
to
##es
##or
p
##ing
in
d
##ar
##ll
##at
##an
##as
l
h
n
##om
he
##ic
ha
be
##le
I
g
e
##hat
##ot
##ion
##st
##ut
##ow
##ve
##ent
##al
##se
##ly
T
##im
re
th
##ce
##ld
##id
that
was
on
##gh
wh
it
##ir
u
y
##et
##ver
##ith
##ur
for
##ay
"
as
with
##ro
his
is
A
S
##ct
we
##ad
st
##ri
you
##ch
The
##am
##her
an
M
##ght
C
##ra
not
##--
at
##ter
H
had
##ill
B
##if
##oo
##il
se
##ould
##ain
su
##ich
by
##ke
her
##ess
de
##red
##rom
which
##pe
##ore
##ul
con
##all
me
##ation
W
##ge
##th
or
him
so
##us
P
##qu
have
##ac
##and
from
##est
##res
ex
v
##ome
but
L
all
sa
##nt
##ight
ne
1
_
this
##ers
k
##ol
##ous
##ant
##ble
##ist
##pp
were
sh
G
F
##os
she
are
whe
##em
##ust
they
r
up
my
##um
##ard
who
##our
##ie
D
##."
##art
E
##ate
man
al
##ig
com
their
one
do
##ong
##el
##ast
int
them
##iv
##very
R
##ive
pro
##ame
O
##ind
##ound
##pt
##un
##out
no
N
##ort
wor
##ood
##ity
##han
##lf
le
been
##,"
##ak
##od
##ell
ab
##ies
##ost
would
##ough
said
He
there
##ure
##ther
##reat
pl
kn
##ry
J
##op
will
##ect
##own
out
##itt
ar
##one
##ck
##ff
when
##ish
##ment
##ine
##hed
##ag
un
j
##cc
##ide
fe
fa
##ose
##ond
qu
##ci
##au
sp
##ook
more
##ass
##ence
ag
##ance
##ven
li
It
tim
other
##ake
##self
##able
##per
##ru
some
go
can
##ack
any
im
##ice
has
if
ad
into
en
(
##pl
tw
us
##end
dis
am
##ab
cl
##ally
ro
##ount
##ord
than
##are
##ng
2
##ud
##ade
what
ch
##ire
could
##ove
##ite
##ions
##fter
##ary
##fore
##urn
##ree
your
very
its
##ars
##ber
time
our
##ays
sha
##ep
##wn
##ans
great
##ress
per
##ated
##age
upon
br
##ings
##nder
pr
##other
##ace
##ered
'
Th
##ought
Mr
over
##ap
##ile
part
And
In
only
##oll
##ittle
##ved
##ious
bl
about
But
pre
##ere
now
should
like
##ach
know
gr
then
tr
“
##oy
again
off
##ied
fl
##bl
little
after
##?"
did
##tain
##hing
##ife
##av
##ick
hand
cha
too
##uch
see
##ink
made
##ty
two
may
##cl
po
##ather
pe
St
fir
[
##ild
##ull
thr
rem
des
##ward
##ue
##ful
V
##ne
under
res
ye
before
K
these
##ark
##ness
ri
such
look
##ign
how
##int
good
must
long
Y
cont
##ip
##ise
spe
##we
first
comp
##ER
##_,
much
where
##ian
sc
down
ra
bet
3
##hen
bec
##ons
##ran
comm
##old
every
##oss
##og
##ia
|
##ath
##ft
##ory
##ces
##ition
sm
##iss
##orn
men
acc
imp
cons
ob
old
ind
most
##iz
##ater
own
well
##._
even
day
att
##ew
aw
##ave
##ced
##ily
##ady
##ens
say
##!"
work
##ction
never
##hes
##ations
##man
pres
those
18
##ors
##ult
##so
##ical
gl
##ict
pass
She
being
through
##ouse
##ps
way
app
##ener
##iff
##ren
Ch
wr
ap
##led
came
might
ent
himself
##ving
think
##ract
life
seem
##land
##ried
form
many
##oth
bel
##ever
come
back
found
##ves
call
ey
##te
##The
ser
here
##ase
let
sl
thought
shall
same
rep
##ked
dist
make
##orm
fri
##ause
##less
##ject
without
##igh
##les
##pect
just
##----
ear
##aw
sub
count
##ents
This
##atter
##ock
beg
op
##ible
em
##ix
last
##the
##ople
##ged
##ished
ke
4
##ared
##ower
rec
They
word
end
ret
car
##ial
##ollow
##ang
rel
head
##ened
##sel
##omet
place
U
still
inf
supp
ac
There
##ted
people
##ertain
wom
while
inst
We
appe
away
turn
went
right
co
nat
diff
get
ord
also
har
friend
new
##ince
tak
*
##und
sec
tra
cr
far
take
follow
As
reg
##ks
##ates
cour
##ently
##ined
##cess
young
##hy
pers
##ual
arm
##ib
##uth
##ple
##ited
years
exp
te
set
child
##not
eyes
##du
##.,
house
giv
sur
##TER
##mer
three
bo
Eng
##ret
poss
though
##vers
mar
heart
war
##ont
put
##cept
##rib
yet
##ope
ev
ever
##ither
##li
##oc
##ss
another
against
gra
left
##ular
God
somet
occ
##HE
conf
gener
##ner
night
ass
##RE
inc
ext
once
##ween
tell
##ool
ref
act
disc
find
light
##air
5
##ows
At
##ways
##ning
few
ple
##AL
##ON
love
##get
##..
##ins
nothing
##ph
want
each
between
world
pur
mind
lar
##cy
face
unt
chan
near
##ived
##ody
give
##ail
##rew
##ures
##its
##sw
##ale
##har
##ised
##ier
##osed
##gg
kind
##ired
adv
saw
took
##aut
##ts
rest
##den
##erm
##ters
When
gu
##ffect
water
##ting
pu
add
father
side
##ec
always
return
happ
##00
##als
name
inter
read
called
##ief
stre
##most
His
mom
##xt
things
##thing
##rist
You
country
If
##oot
str
certain
##ee
##att
ins
##apt
##.”
##aught
present
whole
##vel
##aking
sw
##ross
among
small
##ating
mon
don
feel
##alk
6
##aid
##ton
An
##iness
For
On
hands
##ention
##ched
##ten
bre
##ute
##here
nor
##selves
soon
bu
To
fell
##ason
sent
min
seen
home
both
##ense
Then
lo
having
THE
##wards
answ
fam
##irl
point
##uring
##ully
##ments
dra
half
whom
Jo
cle
Mrs
cond
Br
done
##up
care
##),
hum
##ities
land
num
moment
art
because
##aster
thing
##eth
fact
##med
##me
sat
##ene
seemed
##erest
##vern
looked
hour
less
##ET
inv
##row
##,--
told
##IN
power
days
room
del
##sh
however
heard
##ern
##act
##outh
large
boy
##ub
belie
better
##.'
cur
##pped
dou
So
woman
use
best
course
matter
##oun
asked
i
mother
fore
sil
wind
##ield
##_.
hard
che
Ar
##lish
going
stand
##az
##ately
##ution
##iet
suff
##amp
def
##ob
pleas
got
tru
##ey
tre
Mar
ste
##ably
high
interest
##.--
##ger
Christ
bro
perf
sim
girl
rece
remain
##ured
vis
sk
enough
##You
knew
Al
##ines
##elt
taken
Ind
##ird
##ants
##ling
almost
##ider
det
17
four
el
given
##ians
##ug
es
does
##owed
8
beaut
##ison
##hn
quite
col
##osition
Lord
##ustr
##ote
##ceed
words
contin
inde
dep
That
hor
adm
De
wa
sy
open
until
publ
##aring
gave
##oice
mo
person
##haps
dire
brought
##,”
##urch
##any
something
cent
serv
morn
##AN
keep
death
##ury
Wh
##.]
mil
whose
law
Sp
fr
What
door
##AR
Re
##atch
##ific
##oud
##ives
quest
opp
char
prop
differe
No
dec
##arn
##gin
##men
##ages
##unt
##ser
##ident
Pr
bus
ele
since
others
themselves
pri
7
=
##ets
hel
full
##ually
morning
round
year
need
order
##ches
ed
cor
plac
##ank
Miss
##undred
##ism
##ery
white
##ided
##EN
##oney
cannot
John
charact
##ued
bri
##ides
##iew
##ung
fall
spir
feet
book
hon
##irc
const
##bt
##ering
##de
##ressed
##aim
##oul
necess
##ALL
Q
##ached
turned
##of
prom
rather
mean
pol
##to
fin
hundred
##enty
ill
poor
##oke
est
used
##ken
next
sun
##nce
##fully
##gether
together
real
##,'
case
king
##ative
##iting
dark
##used
Be
subject
16
Un
till
began
##It
underst
##ude
above
ide
##REE
##OR
##ham
felt
aff
##mon
##ETTER
fire
strong
gent
sure
LETTER
##ances
##hil
##empt
often
English
thus
known
##day
true
##ient
##ash
##range
##pr
myself
met
##{~
##~}
pain
##ah
##ES
consider
##ister
says
play
King
swe
##ott
All
exc
mem
##cted
##br
var
air
New
town
stood
voice
circ
##REEK
##HA
SM
sing
wife
reason
mod
passed
##GREEK
##fort
##ert
ground
##imes
son
With
children
short
X
along
15
Com
second
Sir
prin
wond
##iled
trans
lay
character
hold
produ
dr
offic
means
SMALL
six
par
run
##err
effect
speak
Is
sle
sever
##).
##uc
##ying
##read
##ended
##meric
sum
##be
body
money
repl
##rench
hope
during
sign
##uss
help
##ges
##ility
auth
##ready
herself
gentle
close
doubt
##owing
##ized
times
tri
abs
prov
##pend
succ
##cial
requ
obser
within
##overed
prev
##illed
##ural
believe
sch
9
##ames
##by
dear
##iter
beh
By
expl
Le
anything
general
fur
div
cap
##king
least
OF
Americ
question
object
itself
dev
Cl
##ime
Sc
appear
meet
##uck
How
##use
number
##ousand
##dden
lead
nature
gre
10
##eng
##ards
##ric
equ
several
unc
19
already
alone
eas
perhaps
##oint
##ius
black
proper
##itted
##aj
bra
Pro
##peri
##iful
mis
mer
import
England
indeed
##son
pat
stru
deep
12
common
##tern
thousand
success
hear
either
different
Her
human
therefore
public
account
##ists
##ety
sudden
##aint
earth
lau
held
ten
prof
##ature
wood
start
##What
brother
dead
##aptain
French
respect
Con
mount
city
desc
gone
state
command
possess
##une
bur
appro
hist
##IT
author
sea
##cha
cried
One
women
spirit
dri
##llustr
ir
##ination
##gr
conc
manner
bed
vol
view
##ane
pret
thou
leave
eng
fort
letter
Par
##iving
became
fav
##aven
##ices
bar
fre
##par
##~}{~
port
##ats
##io
comple
friends
##bit
##ax
sn
soul
become
Nor
##ring
remem
stud
##idence
remark
##iam
val
##cul
tem
sound
talk
##ley
diffic
stra
cut
##ney
My
##IS
ca
replied
##asion
purp
thy
##ream
partic
bring
clear
##cious
coll
possible
##vernment
free
fair
##rance
family
expect
##0,
exam
Will
##alth
truth
##And
##that
##fe
dest
perfect
##ster
##aves
whether
prob
mid
##for
arri
##over
##oon
red
Now
ran
five
##aughter
##ented
mus
##tained
##ics
##ught
##ording
11
mark
jud
live
decl
behind
answered
understand
past
##ising
fear
dro
express
Se
sold
##akes
lost
line
princi
##ues
lady
##Yes
##ony
##rying
wish
wall
except
##oura
road
.
##AT
##rigin
making
##lu
received
##ek
following
gold
ut
towards
mere
##Oh
##ement
business
14
##val
##iously
##olog
##ality
##ork
chief
##0.
##der
horse
regard
bes
ru
month
##ission
et
##--------
##No
##bers
##though
enem
kept
pa
around
##ex
##way
##ining
pract
##iar
fine
##mp
##Illustr
accom
##enn
Ed
sort
##But
13
coming
fig
excl
able
ship
sit
##owers
After
seems
twenty
##arent
##IL
##lled
##attle
##sp
##Illustration
beautiful
foot
##itions
##ript
##wh
##que
blood
Ger
##ron
leg
origin
##ased
disp
##ole
trou
##iment
looking
##ondon
anim
Col
Of
river
low
CHA
begin
cal
hus
why
Char
show
early
##IC
These
##ament
exist
else
##1.
really
##isf
##ones
##gy
##band
##ize
necessary
returned
sol
##cing
##orrow
school
stri
##che
treat
learn
##medi
sight
##ained
conv
ve
quick
##sequ
list
##ots
##ls
##ilt
sir
followed
dang
move
ii
##ctor
pie
cross
result
##cient
evening
dem
wonder
occasion
Ge
##bs
Go
##ship
arms
&
##ection
main
dut
relig
CHAP
later
church
##itude
sal
cause
##aving
story
##co
##ledge
draw
##oor
faith
Ad
##--"
carried
position
mag
acqu
London
‘
miles
##ging
##ases
pay
##dle
worth
cold
II
lad
##He
hur
##utes
thee
ce
ready
prot
##arch
AN
wild
Brit
front
##bed
##oly
Not
lab
Am
repres
##els
sometimes
##ounded
eye
CHAPTER
##II
##2.
mot
cast
eff
table
bad
fif
class
##pper
##but
esc
##ped
##eneral
step
sense
bene
(_
vi
##ops
##ains
pict
entire
force
##inary
idea
##antly
##inct
tou
##ann
term
vill
age
nearly
particular
##ified
Dr
##arr
party
##iod
##5.
self
across
husband
mist
answer
##ead
leng
##ries
Bl
##Well
further
##itting
##iver
bit
##ze
##ush
##airs
##itten
Fran
From
Or
##mbl
##body
quiet
purpose
##what
tend
strange
##bert
ann
##side
reached
eight
immedi
##well
ter
direct
appeared
sett
satisf
latter
continued
##cially
affect
##ples
##3.
heav
##ils
squ
longer
##riage
##ef
ask
peace
opin
build
##4.
##where
danger
master
hours
incl
##let
length
attempt
deal
pray
##sc
##aimed
##vo
##ume
forth
##ences
quar
##iers
##alked
scar
##uff
Car
##uted
##ploy
circum
##gan
sweet
Pl
##irt
rock
influ
sleep
former
##5,
visit
natural
placed
inform
imag
priv
period
##1,
##18
deg
##room
##....
ver
##2,
##ustom
proceed
##idge
hill
taking
ought
according
##oes
added
##resh
hast
sac
secret
##oe
German
history
##ape
field
##ously
late
##ina
spec
med
##ivers
surpr
##.[
post
forward
rev
wit
fellow
Ab
led
watch
rose
##ours
##ald
break
##.)
bey
occup
fac
##erv
win
forg
##ested
##angu
won
slow
la
mur
##OU
Per
##cell
send
beyond
##Th
incre
tro
employ
glad
prep
##ms
##usion
##head
France
##ogn
prison
pop
Here
army
fight
States
##ING
##4,
daughter
corn
hair
walk
##ision
streng
##6.
feeling
big
spoke
lim
hig
determ
##cend
experi
Har
##rodu
everything
##EL
##vere
##dom
##3,
died
change
##orge
knowledge
service
##ital
##ency
##rs
##stem
##7.
Z
grand
##ening
bright
Mad
sugg
creat
##ciety
##aged
##iling
##That
##ically
##We
probably
soft
mor
emb
dream
mention
hot
suddenly
thir
##6,
desp
Ne
##...
happy
although
##ium
##ivid
belong
##ected
delight
##9.
##like
distance
##app
##ump
Rom
##7,
##ighb
##DW
pal
court
Cha
living
obl
entered
dog
laid
enemy
espe
repe
plain
Du
breat
##uct
camp
jo
circumst
Do
written
##hys
conn
pretty
##ises
##hood
saying
nation
bird
##ior
intell
enc
complete
suffic
parts
##ounds
##ires
da
Let
##ories
comes
##owd
suppose
joy
attack
x
neighb
May
Christian
remember
greater
und
##ray
occur
stay
##ming
Phil
##ask
attention
##rupt
<
Some
##9,
wat
Church
##amed
##pid
##ox
fast
##my
##ixed
sens
compan
slight
##tered
##night
##joy
contr
meas
##OT
##ler
##ift
sad
##na
##mber
##8,
system
##?”
Eur
company
cra
##8.
imm
none
commun
various
Captain
pen
difficult
##erence
##ites
heaven
opened
##rif
ago
##ests
Bar
##mb
neither
den
describ
Pet
estab
appl
##atic
boys
AND
accept
polit
ty
American
##iding
toward
##ience
General
anx
mouth
bear
--
##LE
top
langu
important
Hen
doing
rich
certainly
paper
jour
##ys
William
Lady
especially
##OM
compl
##orts
sto
##aul
Europe
##lect
pleasure
laugh
##aching
##ouses
consequ
af
##velop
##ushed
coun
persons
##rest
##ingly
Man
##kes
##enth
concl
gentleman
inqu
trees
##hip
##ively
enjoy
##000
tor
##teen
Fl
##reme
##reg
generally
conce
ant
##orses
recogn
plan
##ager
ang
opinion
##note
comfort
##isted
##eness
remained
##wise
depart
gard
government
demand
##ION
fan
duty
Can
lived
##ma
makes
##ille
##itary
##ral
frequ
Ap
##you
##orted
##ivil
scarce
##olution
##inner
action
fut
##bur
##ford
battle
##ument
##AS
20
window
##cience
strength
minutes
gun
mine
##ipp
green
##hern
tried
poet
##osp
##ator
Ex
shad
condition
stat
vict
appearance
months
British
boat
heavy
##yl
│
dress
##anced
burn
Qu
##oses
trust
See
immediately
##ply
##ned
mass
##athe
##with
Mary
imposs
influence
weak
wide
youth
ast
super
crowd
thick
below
El
inn
George
blue
places
separ
##acy
didn
##?'
desire
horses
single
##ored
sister
##rent
grow
York
wanted
wrong
north
gen
##gar
##su
##oved
##ike
[1
beauty
Ro
Don
afterwards
##ingu
viol
Em
stone
Gra
oper
Paris
letters
##ilar
hat
trouble
Pe
island
convers
spo
##isc
cru
exclaimed
##mn
##lling
Oh
##af
Why
##idered
Que
gall
##AM
##ching
IN
bound
hardly
Tr
standing
ancient
##wo
trib
##OL
fresh
ves
week
suc
##oose
office
Tom
##ession
##gress
##iety
succeed
##aded
formed
broken
rapid
##eks
chance
save
furn
third
##olute
mater
##con
century
lord
##itution
exact
##ED
bott
presence
##spect
mad
situ
Ital
##Why
hop
alt
que
yourself
cry
du
##If
Pres
25
god
warm
##uous
##yn
##erc
Sh
cost
future
##iced
lips
##onel
perm
food
##ishing
filled
##oted
contain
whis
##itation
##rible
impossible
books
fle
##reek
famil
##por
##go
die
vessel
##osop
develop
lie
hy
##ogra
lines
gri
##kn
##ortun
##itable
##ourage
beginning
tree
##iant
Jack
try
##omin
individ
instead
shar
##roy
##IG
safe
happened
arrived
Sha
liter
chair
##iction
##ajor
fat
##ethod
silence
covered
liber
##osing
simple
##ication
Thus
##ootnote
##bo
phys
becom
clot
enter
somewhat
entirely
introdu
wrote
wis
direction
##urs
fun
##cil
##There
note
Ag
Gu
##hard
smile
easy
##:--
##ruction
south
works
raised
##ulation
##ulty
noble
perform
organ
eat
##aled
usual
Count
##imate
pun
##.=
glass
carry
fool
Indian
figure
22
##pond
##str
individual
civil
##oured
village
drew
##face
giving
Me
easily
meant
##In
##raid
##rop
##light
Henry
drink
sole
stream
advant
Comm
##icked
represent
guard
merely
comb
considered
phil
shore
##ae
cases
circumstances
knows
Well
24
##alley
spring
##orough
State
##esty
struck
##ales
##My
House
design
21
oblig
grave
##inc
stran
press
##ellow
thinking
Was
##acher
##-1
West
##ech
piece
walked
music
##ny
##now
##ashion
##pel
United
yes
##pan
##right
##bled
##gra
whatever
dinner
learned
slowly
paid
##erred
Yet
extra
##sembl
straight
##aries
thoughts
Charles
23
similar
journey
fing
##icate
mill
loc
expression
custom
married
fru
caught
ign
pecul
##come
started
pure
society
host
##enced
observed
street
spot
ban
##ghed
##road
scarcely
language
loved
officers
##ishop
186
##olved
##umb
peculiar
broad
allowed
board
seeing
##reed
##arrow
amount
greatest
experience
afraid
##US
bless
capt
##!'
subst
Lou
Gr
##ett
process
iron
##!”
moved
##ux
value
lower
seven
##house
La
charge
##ubl
##rel
Span
forget
##ointed
evil
ball
##com
##aff
##lt
born
##uded
{
sick
material
##dd
terr
leaving
getting
tone
##bles
impro
summer
forgot
magn
surr
utter
girls
##ctions
apparent
expected
##ether
##hel
tears
health
impress
##olly
tast
##AC
showed
##ENT
quickly
##How
##oom
scene
supposed
cloud
educ
Indians
##orth
houses
bank
walls
##form
neg
virt
firm
##noon
forms
pap
opportun
gaz
admir
North
Aug
thirty
Queen
##2]
produced
built
method
##gment
##ades
race
distingu
grace
South
##ev
James
Prince
strugg
Every
##ibly
middle
shown
write
##lend
gives
grew
stopped
due
inj
Where
----
artic
etc
##1]
##ov
outside
26
Gl
dim
deser
##erous
depend
##uses
exec
##otion
Jes
path
##umed
changed
modern
claim
assist
laughed
excell
bran
##hib
record
leaves
killed
temper
##itive
America
mess
##under
pra
drawn
##ription
##irth
troops
Sch
fal
##het
##set
discovered
##elve
Great
flowers
passion
soldiers
philosop
forest
ere
##hest
sin
unto
##oyal
winter
cop
##gel
property
##istic
marriage
##rict
lives
picture
original
mountain
cou
dread
Thom
attend
distinct
Their
tender
existence
##umn
special
considerable
Roman
earn
garden
favour
captain
authority
##iles
determined
inha
hung
sor
##ails
hath
private
eager
##zen
loss
appears
notice
reach
##3]
pull
religion
mut
waiting
27
##inite
study
##rid
fra
hero
##eds
id
##appe
wait
Our
30
fifty
arg
##ishment
breath
equal
pref
Rome
afternoon
grou
Sm
Cr
neck
##soci
rid
cat
hang
##ITH
##inal
absolute
##reet
der
names
##ables
snow
sitting
##icated
##ourt
cover
goes
##lls
pleasant
Ju
ph
sufficient
surface
conduct
##ois
declared
plant
symp
foreign
passage
##clock
##vation
conversation
28
extreme
species
Paul
1.
di
##uge
news
##zz
$
##action
likely
fixed
narrow
shout
##Footnote
receive
##known
##asp
(1
fly
##4]
appre
speaking
floor
##how
passing
##jo
reply
honour
sword
beside
interesting
While
prepared
cit
shot
...
Government
trave
escape
sand
usually
##ergy
degree
difficulty
##hold
Rev
##ander
laws
heat
##opt
##osite
silent
##pir
religious
decided
Ant
##ding
height
mentioned
kiss
##III
song
spread
##UR
##ii
##vey
Cor
##lly
wished
##irst
##ague
Dav
##5]
destroy
##lin
bread
ess
personal
storm
minute
ur
believed
broke
offered
meeting
habit
##ram
repeated
##sec
Min
Je
Such
rail
favor
doctor
fashion
"'
##ias
War
evidence
##peror
dry
##unk
speech
Cal
Duke
##arily
##arer
XX
unless
fail
ladies
obtained
av
Ear
maid
##off
##hens
Ric
cre
higher
example
princip
##6]
support
coast
required
beneath
members
discuss
simply
test
##cle
sides
+
##nal
Russ
##iments
sty
##sed
allow
exerc
smo
vain
Gre
orders
animal
lif
building
proved
moon
pale
August
##aval
##pping
sail
possession
print
Sw
officer
tit
mel
##vernor
##ibility
Father
fit
progress
box
descend
ones
cab
perfectly
##uten
twelve
apart
doll
silver
##look
Sam
rise
witness
##7]
cult
motion
concern
ordinary
##pany
crit
grad
Jew
##ocked
Even
miss
matters
fro
Mor
crown
Bo
corner
##ception
political
intellig
##bered
##IR
185
##dy
##This
Sec
29
##gu
deli
rule
##ik
rain
turning
##ology
ende
susp
##bar
wise
##iqu
##Not
terrible
##itor
Mon
band
closed
2.
##iently
opportunity
bitter
preser
portion
##ses
##IV
##ners
advantage
reb
Fe
##ify
train
sky
please
steps
native
##idently
instance
moral
opposite
ourselves
caused
game
valley
running
##ustri
##9]
187
west
##ville
##retched
##ctr
serious
reve
adopt
calm
steam
##chant
understood
##_;
##sy
##illy
regular
##ocks
##St
weight
accompl
##IA
fol
##lected
##erable
Who
bod
188
pit
space
ST
unf
##morrow
conscious
animals
writing
beat
##ogether
pot
splend
ordered
rul
##cher
##aken
aut
engaged
described
vent
hall
colour
wealth
rare
##illing
##wing
Peter
drawing
grass
loud
arch
contro
##hal
##ounced
chap
roy
##ification
sav
Bur
happiness
memory
##ho
importance
##ration
mort
suggest
TO
surprise
bill
honor
pleased
agree
intended
##rank
justice
##pered
189
imper
##aped
##RO
WITH
##respond
##arm
station
bow
spent
van
Just
##──
##She
fright
##sued
curious
star
prevent
##no
frequently
yellow
##fortun
##inent
touch
mountains
brown
##wood
##field
##ajesty
Co
corre
shut
spite
##chan
pock
lying
##ization
situation
employed
proud
cand
ignor
illustr
stop
grant
meaning
##uf
greatly
##fast
military
finally
##pon
conqu
heads
sharp
trying
##Do
##iden
vast
benef
##cip
rob
offer
##rees
##ena
takes
parent
##asc
thorough
prec
cred
prove
pieces
threat
##Then
points
speed
Frank
184
##mit
##ember
forty
courage
earli
false
ep
birds
trade
##gypt
##uments
##ril
fortune
seat
Colonel
trad
##ipped
thrown
size
endeav
pet
obtain
instant
royal
Const
mach
arrange
Louis
III
Thomas
Jud
wine
gro
movement
social
ring
search
popular
fallen
sacrif
affection
measure
disappe
Cong
emp
##0]
conditions
ris
promise
cheer
sake
##ational
ways
tong
##isters
reading
fish
information
looks
Ir
bottom
capital
earnest
##lex
##ashed
##pet
wonderful
difference
##perior
fier
stro
##ublic
aston
afford
fem
published
fully
##ees
threw
##alt
quant
spoken
sympath
##olic
presented
##aced
wid
avo
Lu
##._,
writ
clean
tall
ears
##rem
carefully
worse
##lished
named
perce
"_
affairs
##gl
##essor
remains
##ait
Bra
working
##AD
Mart
Scot
##To
Port
##ancing
taste
attract
thin
Egypt
occupied
stir
pictures
facts
breast
terms
##ege
season
##ternal
##iny
##orious
Old
fruit
quarter
obliged
##ids
##antic
weeks
##stand
Jesus
stock
excellent
rend
##min
##8]
talking
##amb
numerous
##ially
anxious
remarkable
guess
brave
judge
dism
Rep
feelings
##idenote
##ending
Jan
besides
##rence
familiar
associ
correspond
##nes
succeeded
##Sidenote
Court
worthy
weather
##CH
##ores
grat
bold
##utions
##rud
proport
altogether
servant
stage
##icious
31
questions
tow
honest
Dan
##irgin
effort
##ye
wel
hunt
##They
inhabit
##ST
univers
exped
forced
events
##urb
##----------------
##ival
##lict
##Now
##itated
powers
style
exactly
blind
##urally
exper
183
##64
darkness
##bb
##aces
##oned
Dick
##she
##ok
##ios
bas
err
advance
finished
##ailed
Madame
distant
##eal
extent
gentlemen
##ental
Mont
Jer
birth
east
##eed
hes
##alled
gate
##quis
ideas
##ien
##usted
compar
settle
freed
dwell
Pal
##==
dam
hills
suffer
settled
##ulf
Richard
##eper
glance
##ensive
fancy
regarded
aid
Tur
report
liberty
##asons
sour
accompan
rough
wounded
redu
citiz
lot
sev
32
Two
##iance
wear
holding
histor
address
##estern
diss
advent
##idden
suppl
clothes
proof
burst
pack
otherwise
serve
streets
##oles
superior
##yr
bare
marked
##!--
[2
##omm
##atures
##ators
establish
leading
yield
##TH
sought
lies
##Is
fate
highest
square
rising
Te
##ayed
##An
upper
Coll
dom
lean
thank
established
Su
practice
entertain
March
sorry
##ky
June
removed
##ora
##[1
addition
particularly
uncle
famous
##icks
opening
principle
undert
confidence
dign
##fl
event
##ams
##EC
##aked
##ulous
##pelled
Him
severe
Mac
promised
solemn
##igned
companion
interv
##orne
asc
displ
doctr
principal
##liament
glory
share
##burg
er
pride
centre
disapp
bab
confess
evidently
cook
##lebr
Street
independ
judgment
qual
Mag
dise
wouldn
mir
forgotten
Spanish
catch
cruel
##ais
Ber
sorrow
woods
vig
##een
##athered
##lo
refused
becomes
##rig
fault
soldier
##isions
##ocr
##ograph
egg
Ham
Greek
##ability
##ourse
hearts
dece
roof
clim
fond
ships
##ulated
shook
served
Vol
watched
waters
contrary
rate
##using
smiled
instru
exceed
iii
stranger
Hall
##ID
daily
prince
##isp
eld
##tering
##_)
kingdom
Mc
unw
shape
neighbour
resist
lose
beha
cool
exhib
##icy
pounds
amb
equally
pos
science
innoc
Fig
##esh
blow
empt
thro
relations
bull
celebr
##Don
interrupt
faint
district
##ilst
CH
seek
##eder
More
##erson
190
Sy
Law
price
appointed
pointed
##rose
Cath
consequence
powerful
larger
##chief
##see
priest
travel
farm
marry
distinguished
##was
##cks
necessity
une
##outhern
concer
##atory
contem
throughout
##ems
Cast
##ette
brief
increased
interp
Spain
##aret
page
##aches
##sha
Hel
double
apparently
##eg
edge
##GE
Sund
1,
advanced
carriage
possessed
nine
brill
AL
spirits
discover
aud
July
##AP
Yes
Prof
##astic
knowing
produce
follows
states
supply
mult
Pat
##Ah
##anc
papers
dollars
Many
tot
Robert
gar
33
##hem
##gen
principles
remarked
tea
##ata
expressed
kill
shadow
servants
instr
handsome
intellect
##attered
remembered
knight
occurred
President
##hant
keeping
fart
education
##bted
##hus
belief
##do
35
dropped
3.
##ama
aside
quietly
treas
Ma
desired
sacred
vo
inches
suggested
transl
##acity
##ara
Wil
holy
##which
title
mighty
##van
explain
##rang
cup
##-+
manif
##pes
divine
##itz
##nat
bell
Jose
nations
preced
played
provided
##pons
prim
En
subjects
shoulder
growing
cell
pp
Sen
##ieur
explained
##irm
##bling
Def
Hist
enemies
##ule
##aker
Oct
secure
Af
##orthern
##theless
acquaint
Arch
inhabitants
lod
taught
##uel
##.’
pocket
Island
High
rapidly
##ushing
isn
failed
##ousin
##cts
noticed
breakfast
fingers
color
group
nice
##uary
cloth
dare
reck
shoulders
##oms
##ims
San
beast
Edward
lear
##AY
##aud
##ainted
##tis
##ipe
##acle
##ode
Alex
purcha
naturally
joined
##ese
date
##umph
suffered
##key
dust
Bel
surprised
couldn
useful
##ributed
actually
##llen
Had
rank
windows
##);
pursu
East
willing
carrying
##cies
shows
hosp
##orous
proceeded
##port
##arest
bodies
description
worked
creature
saf
connected
stands
cow
major
rub
tongue
gain
unknown
##ading
crossed
golden
##--_
murm
##cture
Good
##ancy
##ror
##ique
seized
directly
faces
pair
During
##amm
satisfied
##omp
##kin
~
grown
##OW
Smith
##uries
##ico
mission
extraord
arran
##hington
Before
##rey
volume
gathered
cere
First
Philip
34
accompanied
rocks
pity
consist
##iation
##ault
##ential
log
##place
##atin
dangerous
hom
driven
##ada
trembl
completely
numbers
national
series
Perhaps
##umes
aband
Prin
skin
##cknow
figures
##utation
Sept
agreed
##esc
David
sup
##gged
tired
iv
finding
Emperor
##then
vers
spect
Virgin
guns
legs
##uls
##five
##isl
acknow
ice
April
##elle
resembl
relief
content
admitted
palace
##urd
proportion
##onsieur
Never
Your
applied
##rate
182
Jim
##ker
##overy
##enes
pred
current
##stone
##mas
##72
181
IV
##mond
Im
##berg
Franc
clearly
River
wand
myst
##bre
##can
stones
freedom
labor
arrival
India
elect
##=,
excit
hurried
writer
##umber
##verse
##._--
concerning
Ara
bore
Acc
farther
unfortun
flesh
Ben
rights
angry
shel
reader
##mony
saved
teeth
splendid
objects
enthus
##utenant
bent
##Let
Its
Bes
##dra
results
invest
waited
task
regret
Washington
twice
##sue
treated
Wor
touched
suspect
##aper
theory
bearing
##All
surely
midst
throw
Irish
fortun
Master
##atives
fill
bag
fellows
##ardon
consideration
tal
Che
40
sons
##izing
persu
##isher
[_
Italy
Wal
duties
drive
base
respons
##cked
alive
march
impression
Sunday
Red
hither
inquir
##AND
struggle
##ture
##just
Es
##vi
absence
gather
smoke
gradually
##bury
##agon
##uding
##ivered
represented
##.;
salt
##itch
##asing
correct
##uable
##ivity
telling
Heaven
proposed
##ufact
Cam
reign
soil
bal
amongst
Med
Joseph
coat
flower
myster
spr
efforts
36
minds
tail
inside
##rie
harm
shame
depth
##hand
indu
##SIL
Fort
{~
##UL
introduced
Mount
forces
dressed
talked
fifteen
lake
extraordinary
lack
needed
##ieve
##ips
orn
luck
explan
Ser
##So
Congress
excitement
##----"
Majesty
commer
aware
whispered
##ological
Germany
ain
Bet
##lection
Cle
Mil
Mo
yards
genius
level
retreat
##ica
obey
development
White
##ta
mile
demanded
##osen
z
##cles
crim
Eliz
##arted
##kind
rode
##bon
features
impl
connection
flo
closely
##ares
entrance
require
##rant
gloom
sympathy
suspic
faithful
Ph
##chen
burning
suffering
truly
tempt
listen
type
ge
putting
official
Fred
prayer
##while
accepted
cultiv
##inn
ing
member
worship
prepar
previous
shoot
##lor
##leep
hun
Ca
quantity
relation
##ishes
composed
obst
##edy
whilst
##law
rom
excited
walking
watching
##astern
yours
brain
pill
hearing
Sat
increase
busy
advice
##inity
lands
Mer
flat
##__
novel
lovely
##ittee
pick
mas
mal
counten
##cer
constit
Ire
Black
instinct
##inet
##terday
hide
milk
satisfaction
##,’
divided
minister
nearer
However
engine
##ERS
##ecause
##iform
##asant
companions
##bly
spiritual
##iest
Sal
profession
absolutely
##wed
Jul
spend
accident
##estic
happen
presently
Another
protect
hurt
falling
join
noise
##For
ceased
Still
careful
moving
assured
virtue
slave
possibly
thoroughly
gained
revol
highly
##UN
Among
affair
diam
flight
amid
prisoners
##udd
interests
surrounded
prisoner
informed
buried
wants
Royal
##Mr
Ly
Afric
##ension
##RI
admin
castle
bridge
##OD
Harry
##oring
fields
XV
column
coff
##utch
##udes
stars
##eter
Holy
devil
wore
##work
##ilities
parents
##fle
fighting
##oman
deb
reser
seated
disci
suit
tele
resolved
immense
buy
practical
project
##;"
listened
##itory
uns
##happ
supper
showing
##unch
aver
empty
partly
queen
fierce
Though
##ads
render
38
gods
##cean
rendered
Somet
##ari
literature
smiling
Defn
chamber
manufact
Ven
calling
circle
flag
Brown
##standing
local
mat
##oration
despair
ride
san
evident
##there
vessels
0
worst
dull
libr
capable
begun
Sim
parties
labour
##OS
Italian
unable
swift
##omen
physical
welcome
rooms
store
dozen
non
active
Those
moments
arranged
37
intention
##va
pros
stern
successful
exha
constant
##lessly
hopes
##50
Gree
wholly
env
keen
##looking
attached
[3
population
interested
ble
Del
##pri
##UT
deeply
Lie
cro
couple
grief
stated
striking
##ILL
Ah
ho
merchant
Company
##ober
por
##onn
Inst
branches
adopted
imagination
text
##ula
Art
##aps
singular
##Ar
friendship
kindly
Rob
delicate
devoted
##"--
skill
##Ch
wicked
##iece
approach
laughing
hence
imagine
appreci
ident
##ustomed
reven
rout
plants
Cat
exercise
##ician
indign
tells
valuable
safety
loose
xx
constitution
##De
destroyed
flour
Reg
ends
actual
Again
##four
constantly
teacher
admit
indiff
##eping
crime
escaped
kinds
causes
##enny
##See
collect
##ATION
dying
##orse
##anch
DE
arrest
##la
condem
copy
Only
desper
narr
##onscious
cord
Major
fer
##rim
liked
abund
citizens
magnific
wisdom
hab
Coun
Nature
directed
mistake
rejo
##nel
prompt
butter
##UM
reasons
smooth
concerned
trial
chosen
brilliant
gray
Pope
terror
##kins
continue
doors
Mark
stick
credit
countries
huge
lifted
drove
trem
Mal
##gs
visited
##etch
##iture
recoll
pron
Bill
##host
gle
Come
##Come
Prov
Parliament
##icip
prospect
fairly
views
Whe
Tra
180
contained
defe
##ourable
wed
remind
Nap
separate
##ols
4.
conven
##ograp
##aling
##ldom
pressed
solid
50
##olf
protection
nose
subm
##rated
repro
Jac
##64>
rad
notes
39
quality
compelled
plate
earlier
tum
Nat
impat
stead
murder
voy
stories
##entions
addressed
strict
##ana
##ointment
Ireland
countenance
improve
gas
variety
patient
exchan
Ac
##As
Ann
statement
tax
##5;
##agement
Ye
hoped
Book
mistress
bringing
Ste
Mex
##2;
##teenth
immediate
##bid
fold
##uit
##ai
Francis
sovere
grey
Catholic
cousin
sufficiently
assistance
Elizab
wings
gay
doctrine
printed
##rand
fever
##tt
##ourn
##.--_
##itate
Hill
arose
##gers
##inate
contract
sex
fleet
becoming
Er
Long
Mic
privile
##ARD
##When
Life
bord
exception
##ounding
##oused
##cho
recomm
reward
disease
##ends
##10
Society
contempt
conclusion
worn
##?--
Pers
pour
Grand
##-2
Besides
disappeared
request
towns
##has
179
proc
##,[
##ds
fought
Professor
effects
Pol
TH
##ris
Nove
sheep
mercy
convin
victory
mix
female
##aunt
##line
caval
classes
jeal
Mass
acquaintance
sigh
yesterday
dignity
cities
##iable
bay
##more
chiefly
##iber
aim
playing
City
##EM
##otes
article
##conom
shop
##3;
colon
energy
pan
rear
Feb
##aming
clouds
deck
liqu
Little
sooner
commission
policy
drop
September
region
##atively
Men
calcul
##iel
##och
avoid
October
everywhere
##they
Bishop
Hon
##thur
##Who
friendly
##1;
ended
reference
##mo
##TA
expedition
changes
choice
critic
##urity
knees
Wood
murd
##antry
Off
demon
hate
##ige
proble
triumph
desir
Aunt
##rit
Hu
oil
##4;
cattle
##6;
control
slightly
##irit
seldom
meat
Did
##uts
dogs
##pro
final
##ilty
unhapp
kit
##arse
range
teach
visible
nerv
lover
##oqu
discovery
guide
shr
throne
##ller
plenty
Tem
##ption
lat
market
commanded
Bay
wet
painted
Prot
Ver
##ston
weap
aunt
##7;
sacrifice
##acon
articles
##ulate
##Of
purposes
##eless
ruin
curios
##illa
card
##alog
praise
details
precious
gently
##ato
govern
##jud
sugar
conscience
##eding
uniform
Dor
dig
bought
##don
##win
Marg
##ounce
goods
intelligence
##oleon
jealous
regiment
Conf
explanation
##emed
##Good
maintain
attended
extended
newsp
foolish
Earl
tur
approached
nur
permitted
assembl
##oston
##rael
sentiment
##sey
##IST
message
lux
Love
##who
##father
##ribed
Val
dawn
accustomed
##,000
##usc
scient
Cont
older
convey
slaves
Elizabeth
division
##CE
understanding
Having
Po
hidden
kindness
containing
extremely
##Where
##aints
asleep
administ
banks
indul
thinks
fee
caut
observ
brothers
chapter
##oop
natives
##riot
signs
Thou
##ns
cler
ascend
pulled
##ino
mental
unex
tale
##long
Under
Indeed
strike
##rough
Scotland
growth
##after
raise
##hall
ma
##inking
##worth
services
consent
##inging
wasn
consult
charming
thousands
wishes
Bob
Like
##hire
everybody
needs
vision
##race
##9;
acts
wound
##bour
##bing
instantly
temple
condu
treatment
weary
specim
Des
amuse
ox
42
##hend
ven
celebrated
smaller
preserved
Spe
interf
##inction
source
dish
families
##pent
artist
haven
occasionally
anger
characters
##pected
singing
##Be
ben
##cember
investig
##erior
committed
defence
dischar
enl
returning
BY
Cons
fourth
##agger
nobody
Mat
defend
##acles
souls
##mosp
subsequ
##yer
greet
##onder
##gon
argument
Sl
##ulse
Britain
##On
##bro
Doctor
Nothing
##rous
rushed
##ago
Latin
Governor
eggs
hotel
awful
destruction
ner
prosper
##Al
innocent
amaz
voices
finger
blank
acquainted
-
compre
delivered
sprang
desert
accomplished
ahead
frame
Bab
##IM
formerly
calls
admiration
anxiety
infinite
##fall
difficulties
178
##omer
constru
Napoleon
vic
##urches
poison
Arthur
poetry
cho
county
Scott
Bible
##tle
contains
##aine
crew
savage
police
##icity
reflect
learning
100
odd
reality
##amps
##ELL
##board
hole
baby
ages
perpet
Hal
##omb
##atre
pages
strongly
ease
machine
##bel
enorm
sixty
ham
Uncle
recognized
atmosp
fled
furnished
inclined
VI
##arts
contrast
##rian
CON
January
unus
Win
younger
Div
boats
armed
phr
kitchen
conver
sche
##OP
Are
sentence
Union
##RA
guilty
procl
veget
Green
mechan
properly
##inese
hyp
##asions
bree
probable
cott
schol
frequent
departure
##ieved
granted
qualities
interrupted
confusion
##fulness
Corn
(18
inquired
violent
simpl
ze
clergy
asking
Each
##ste
choose
philosophy
manners
habits
wheel
dance
whence
domin
##erted
kings
instrument
reform
utterly
portra
##;--
Land
##ura
##ria
Chan
performed
##apan
aspect
emotion
plans
Other
universal
Ke
manifest
centuries
Park
miserable
fo
pardon
recon
bos
pil
November
sell
econom
5.
##pless
glorious
pup
mounted
##itect
Both
clever
majority
founded
##8;
obv
Mars
reduced
literary
Tw
fund
tight
behold
##otton
Fr
unfortunate
ax
shouted
betray
accord
curiosity
##ighed
element
Ox
Act
meal
##AU
branch
Once
throat
Jews
dreadful
##aks
##30
punishment
##book
Have
key
##PSIL
Spirit
##asm
##PSILON
thrust
household
affected
##upon
thanks
fulf
Rose
doubtless
Cham
2,
##this
comfortable
doesn
##mat
##bor
Tre
December
Sav
movements
intense
tribes
phen
##irs
##rows
##owder
tent
spark
setting
Boston
##lie
##born
stret
waste
surre
##withstanding
Lake
##THE
likewise
Israel
##rill
clo
emer
##tic
execution
##gest
Squ
buildings
horn
paused
##sm
##cest
##0,000
Emp
retired
fatal
profess
##eenth
attitude
Mid
batt
Chinese
governor
##12
excess
rene
delay
##hael
remaining
abroad
recent
FR
##ruary
thunder
tempor
readily
belonged
##iah
Austri
observe
##ugg
nav
Pri
##',
feast
Mur
waves
stairs
sounds
[4
avail
##SS
Ros
mud
library
hollow
##vol
’
northern
enjoyed
##EW
tub
ignorant
45
##pic
bid
accur
cheeks
edition
Margaret
European
warri
Mill
Univers
depos
pressure
##asy
quarters
grate
lit
consciousness
##rived
Pre
measures
##urance
referred
writers
##gend
Fer
Int
##urbed
Upon
jew
Bell
##rier
profound
##],
chest
frightened
delighted
##lers
priests
##acious
compet
silk
gift
lest
career
##ola
created
blessed
degrees
##ground
bend
obsc
schools
horiz
According
##zy
convinced
Bro
##owned
Sar
incident
Council
ocean
FOR
essential
shade
##aign
assumed
disturb
absurd
substance
wretched
approaching
lately
##olid
appeal
##ashing
stepped
Three
alike
legisl
cabin
helped
mysterious
unp
Ang
##gments
opposition
Far
bew
OM
stuff
acknowled
##will
##onds
separated
##armed
secured
Russian
operation
feared
belonging
Monsieur
##Your
##atus
sen
##bridge
##ua
Virginia
44
feather
Sil
observation
announced
RE
##umin
##._]
mode
absor
bones
exposed
club
dil
41
elder
##erent
##met
remarks
inch
nodd
acid
scientific
commenced
benefit
Japan
inse
flying
contempl
rude
##his
counter
opinions
thence
About
Step
Dutch
insc
precise
shell
mystery
breaking
scattered
##------
##erer
developed
pushed
lone
unhappy
suspicion
sovereign
##RON
##ums
excuse
humble
magnificent
rang
##stairs
191
wooden
Chap
vac
leader
eternal
##ifying
entit
mixed
voyage
##unning
Vict
indust
softly
##za
horror
43
ON
hint
pipe
council
utmost
abst
expense
intim
Cent
risk
male
withdra
swept
##illery
intellectual
Mess
frank
guests
eagerly
pause
##.—
pin
laughter
arrangement
insp
perman
enterpr
##irty
reputation
whenever
unconscious
##bell
##held
##Ex
plainly
##iring
##pass
steep
##alem
##Here
Princess
Jean
rele
islands
sust
anybody
concluded
owing
compared
Trans
acted
borne
chat
##_--
##rane
##By
##mbly
refuse
restra
distress
atmosphere
##────
ded
wing
Look
##ression
##icial
Van
##nces
propri
hitherto
signific
deliber
attempted
counsel
##arrison
scorn
related
disposed
wra
deliver
bride
obed
##back
##ici
##ka
History
delightful
collection
##idents
February
##sembly
ming
##non
hit
scheme
nervous
Mother
ideal
managed
Mel
comr
trace
mankind
oath
sees
knife
picked
generous
Martin
##_]
characteristic
stiff
surv
gif
Camp
uttered
authorities
flood
thread
distinction
Sand
revolution
#
weakness
occasions
##enger
bosom
slept
monarch
sus
fil
row
churches
##ctive
definite
##rue
fix
useless
##rog
177
match
forehead
estate
##ancholy
Since
hal
moder
les
ascertain
##urely
adventure
domestic
shining
creatures
##/2
Wall
stretched
apply
##sell
provin
vague
mood
medic
ric
##eral
##pse
##ospel
tribe
Fin
##cast
dreams
zeal
issued
##mir
Christmas
rum
instit
Castle
##org
loving
##MA
leaf
kissed
##uer
##inder
independent
##ORD
Although
rules
Sea
##atched
Spani
inner
##two
alarm
##ante
freely
bark
reported
volunt
##ington
lights
image
Part
architect
##amma
collected
##gent
Pen
rolled
nest
urged
dw
doc
##IF
cavalry
fired
Christians
##72>
transf
lighted
united
Ev
ridic
##20
community
troubles
trembling
##uther
dimin
##ache
Gen
##oh
##inth
Rem
##iasm
Flore
##Did
charm
Saint
Dar
Den
section
enormous
Secret
##phe
perceived
including
whisper
nevertheless
ren
cig
##_:
##arian
elements
western
##liness
circumstance
examination
##hank
##imony
spl
##BER
##abled
BO
##ita
ghost
##ini
##icable
ignorance
fame
swell
##iast
Sometimes
rage
batter
completed
pist
gets
vel
noted
ecc
awa
##oos
##vest
insult
##fect
##apers
supported
riding
pier
od
##ange
##fty
Hol
##peare
appropri
anticip
##17
resolution
##iated
Russia
fest
gaze
uncertain
##lands
somewhere
##had
southern
ach
interior
derived
coffee
##upid
Jane
invited
humanity
##AB
elsewhere
agreeable
Joe
interview
gazed
##At
spare
issue
disposition
melancholy
##aughters
Carol
coach
##lets
steel
scenes
reject
College
##actory
uncom
Day
tradition
falls
acquired
central
##oys
##ca
marks
Gold
##25
adj
Rog
ancest
##oln
##arl
##ESS
anch
neighbor
Ele
elev
speaks
burned
crowded
misery
Dem
altern
##aying
wondered
province
Sus
sla
##othe
##Le
brow
discussion
methods
provisions
brig
penet
glim
##15
eleven
unexpected
enthusiasm
poem
resc
attacked
encl
##adem
painful
accordingly
Fair
prejud
##yard
finds
firmly
##TS
Protest
decor
previously
##adel
retain
Thy
##aws
rent
track
hunting
turns
electric
hanging
##Go
Which
##ipping
rust
##when
widow
cher
listening
Son
##iana
recovered
net
continu
dared
##aly
##icient
consists
violence
entitled
shock
##OC
Cur
Most
outer
treasure
Germ
##[=
instances
charged
campaign
shelter
union
troubled
bul
##ero
##amped
##osure
ult
este
Hence
##gate
blame
confined
School
##oria
toler
marched
experiment
handed
##ibr
specul
Four
flame
rush
decision
Abb
hastily
invol
##add
Arab
signal
merry
begins
cheek
##-3
Africa
##mother
rope
##tr
Dra
##~,
Ep
territory
compass
residence
cart
propos
##uv
##OUN
Cap
##TON
tower
unm
glanced
assert
average
contrib
pursued
##hamed
Dou
tied
summon
examined
Alexander
accompany
sed
mild
Dun
##engers
hers
MAR
##0;
college
##16
##otted
lamp
##====
demonstr
##IGH
blaz
##burgh
Cra
structure
disgra
Gal
##PHA
teaching
##lla
Christianity
mistaken
##master
##wick
##oph
total
solution
apt
##asped
operations
Sol
##Will
##incoln
bishop
##ements
summ
##ailing
##aver
millions
Republic
consequently
App
##iveness
supplied
eleg
##abor
desperate
46
Illustr
##time
##Per
Hy
angel
##cel
##istry
grounds
annoy
error
directions
passes
conflict
tables
hurry
runs
using
maintained
##oser
Bu
stronger
Anne
attain
entering
foundation
abandoned
##greg
superst
patience
grim
##olation
48
##oubted
warning
Water
forming
failure
Rh
bask
railway
resistance
##OH
application
audience
drift
murmured
chain
##itute
seed
roads
existed
##rison
yard
Through
Freder
beloved
sym
nearest
##geon
favourite
roll
Fa
haste
barbar
##mark
##raction
##SE
VIII
6.
##aux
ling
Dev
standard
gates
adapt
##——
##lle
Bon
##usive
##eous
lonely
shru
bowed
philosopher
##IX
stout
loyal
inex
##icle
recently
neighbourhood
experienced
inher
Lieutenant
curtain
descended
symb
empire
grasp
departed
writes
##piration
##ros
owner
communication
ALPHA
rig
daughters
restored
##shine
Holl
accounts
##AV
rival
Fore
opposed
establishment
ashamed
exceedingly
swall
afterward
recall
whist
##umption
tide
presents
eloqu
##cent
bears
devotion
University
Lincoln
AR
prud
VII
##Tis
Hard
gratitude
##aph
sincere
Johnson
##olk
##ping
Any
##hearted
##,—
activity
corrupt
steady
generation
memor
flew
##mes
mart
##xed
(2
sleeping
ingen
##rer
##ulations
##enses
slightest
dram
##allel
sisters
##orter
landed
scale
##General
genu
verse
cries
##Are
poured
cliff
forgive
##ications
erected
##ography
Would
encoura
senses
dar
paint
industry
ard
loves
##car
##orus
47
##quar
wave
##iate
##water
Helen
##_).
precip
coal
midnight
##amation
brings
prayers
##IES
construction
conviction
historical
Therefore
sorts
flung
##inations
limited
captured
transp
Sur
##RY
parish
actions
##da
contact
##icit
comment
overt
begged
##igs
concealed
cotton
profit
Rel
cottage
Oxford
smell
##irmed
permit
trick
bi
marble
preceding
seriously
MR
conception
railroad
cutting
deny
3,
rese
revel
rivers
Crown
million
debt
##umped
treaty
##ulgar
helpless
Out
Ty
##some
##bac
neat
readers
Dep
##ki
straw
threatened
altar
extract
claims
antiqu
check
inferior
suggestion
conducted
noon
unusual
Walter
##tym
capacity
insisted
remove
nodded
Jacob
wag
burden
##TION
problem
largely
assembled
##OUR
##hedral
##itan
Dist
Post
##usions
situated
Canada
##quet
puzz
##ieu
rested
beings
permission
Res
Cape
##Ind
##ella
Take
tear
legal
Mean
##uting
Baron
##reen
masters
##inks
continually
##abb
gest
bottle
##pher
Gall
vii
craft
##acc
Ol
Young
relative
nurse
forb
##oral
necessarily
hungry
forever
plat
settlement
##erity
##iii
astonishment
cam
##iverse
##aments
acting
subs
##._)
distinctly
receiving
disg
imagined
joint
trail
##ensions
##bra
supreme
boast
alter
dancing
increasing
inev
##low
##rol
holds
sending
wre
sore
##ican
##usalem
safely
slavery
flow
shortly
Page
##thren
wire
AT
autumn
##olate
ped
rarely
earliest
##rels
##God
Sud
leaders
eating
Fri
testimony
##arrass
individuals
detail
China
Kent
##INE
Mus
##ricult
ceremony
commonly
sunshine
##ado
persec
om
##!_
crying
conceal
##eps
##west
prevented
notion
Pier
trip
Pruss
reaching
winds
Gard
studied
exert
driving
##OV
estim
resumed
##rep
practically
exhausted
aven
##IE
Second
tendency
EN
succession
brid
##ipt
strangers
refuge
nights
##ertainly
fears
##zed
aloud
##elf
End
tones
venture
sang
##uce
legend
unl
ours
scream
strain
throwing
##UC
belongs
scra
Jones
##.),
cas
Mem
Script
resour
##Wh
farmer
von
astonished
##elly
sank
block
sport
contents
cheerful
##achment
##Hist
slipped
Card
extrem
peril
oh
mortal
complex
##vell
##:1
##ona
remo
notwithstanding
##din
shoes
committee
recover
##quisite
Death
genuine
consequences
##[2
##ga
sul
Sax
prefer
ta
lofty
declare
abrupt
seventy
horrible
suitable
pursuit
route
absent
brand
wives
possibility
ash
[5
plun
scru
##ras
##bow
deserted
##arded
selected
##icken
shield
victim
##vent
ambition
describe
##aus
seeking
stupid
homes
##gels
haunt
maiden
##vity
originally
##ida
resol
shadows
discipl
Pass
49
##net
Inf
Sant
muttered
guest
##omed
somehow
##ules
scr
chim
##ANT
doth
conj
eighteen
Southern
##hum
commander
##Very
##icted
hundreds
agent
emperor
instructions
##vin
Cross
##40
##wl
torn
root
powder
60
##OTA
admire
Michael
Without
Romans
enabled
Portug
##mod
Bert
##URE
contrad
gracious
pover
drinking
resting
prophe
##Have
reckon
echo
phot
##pended
idle
heavily
##ients
Sever
masses
embarrass
##eling
Cy
shake
Gent
undoubted
##Qu
revealed
ruins
##sal
##isation
##OK
extensive
cree
##esar
##aration
Lee
external
moreover
merc
Jerusalem
Poor
materials
fathers
fitted
furniture
Pur
##aping
ability
##HER
poverty
##ustral
##regular
existing
drunk
triump
##ucky
temperature
landl
sale
##ulp
##riff
chem
protest
objection
inquiry
Max
respond
##OHN
impulse
regarding
##icing
lap
##oup
##estion
suspected
rebell
commerce
##natural
rifle
Est
metal
##iary
indicated
hell
chose
Gar
immort
Secretary
composition
Vi
thine
passages
##anned
vote
crossing
##rage
disturbed
##mouth
##from
7.
##abel
dismiss
shed
requires
##course
Word
##Can
Temple
purple
##assad
##OND
##resses
merit
bind
colours
grateful
saddle
Also
sensible
##ICRON
leis
engra
OMICRON
anyone
##_),
patriot
reflection
borrow
##bacco
##tes
phrase
touching
##bler
Grace
indifferent
patron
IOTA
Constant
stared
##ART
production
sevent
wondering
##outs
leather
##ATE
exquisite
incon
chapel
fearful
##iege
##EY
terrif
ga
tomb
raising
##lem
##IP
##keeper
knock
prem
perceive
##One
OR
copper
included
rav
imprison
quoted
eastern
COM
Alb
##icians
##idel
feed
##ded
naked
intelligent
##anim
tar
##vy
obvious
Columb
Shakes
##era
wrath
thri
divers
##vant
Meanwhile
lawyer
##ties
##uns
##wr
Spaniards
sailed
lin
rot
pains
waist
portrait
reasonable
leads
swim
retire
##OG
fires
wanting
##,)
##chester
magist
stayed
##alls
enable
Next
hospital
##IAN
cared
somebody
##lessness
##13
artillery
lesson
ranks
introduction
badly
XXX
Hor
##hetic
encourage
condemned
##urday
shone
limbs
slender
unlike
deed
cards
disgrace
##oked
sins
Hugh
PR
Haw
steadily
##........
combined
folk
Etym
bade
##19
##alks
##bes
deeds
Luc
Constitution
##itors
##pers
seas
##omach
stair
awak
villages
overcome
##eman
training
anywhere
performance
##miral
Atl
staff
##riptions
comparison
tiny
burnt
fasc
Germans
advantages
Gil
princes
induced
fastened
Turk
##arson
##.'"
Bre
bath
deeper
##six
regions
multitude
##kerchief
##eries
##14
lightly
Austral
##mann
apprehens
selfish
provide
pronounced
##vet
Western
##";
bapt
prepare
##denly
employment
Empire
hastened
##equ
Bern
toss
assure
neglect
limit
##atr
cheap
pound
clerk
Bas
stim
parted
Tell
EPSILON
artific
displayed
##erring
finest
repeat
comparatively
sounded
Leon
Leg
##izes
##useum
##ulating
##anks
parallel
##amental
##urre
gardens
relieved
quarrel
##Sir
##pton
Judge
vivid
folks
courts
##yes
civilization
shalt
consisted
sem
Turn
blessing
realized
##illes
##May
gifts
Grant
remote
Maria
limits
intervals
thereby
beaten
medicine
##rust
basis
princess
##osh
exchange
dwelling
patter
##65
wedding
##wich
convention
election
Moses
sheet
preserve
arts
adorn
folly
denied
Kn
SC
##lot
##unction
interpret
job
queer
##lying
sharply
intimate
clay
politics
##uthor
heavens
fert
JOHN
prize
fortunate
au
##--'
##omena
lic
decide
authors
signed
##ormal
wrought
endure
purchase
conquer
beasts
fatig
##encies
permanent
##AG
##ifications
manufacture
##geant
enterprise
Moreover
finish
##cia
mars
slain
##vert
starting
Bal
Andrew
pant
administration
##wor
brethren
detect
confident
motive
criticism
hadn
volumes
pace
arrive
##ulars
corps
mead
World
occupation
##umm
candid
leaning
commercial
apartment
Ba
theatre
endeavour
##burn
tick
student
gazing
Florence
##isk
4,
irregular
SP
largest
perfection
##gly
connect
mast
narrative
##leton
cents
wherever
##chess
attracted
groups
lock
unre
##inated
Mexico
duke
beheld
goodness
##EST
bloom
##col
travelling
##From
People
moist
startled
mould
determination
physician
##azz
##ustrious
##ulpt
Ned
lun
considering
songs
Rock
satisfactory
grain
pine
supplies
Tim
boil
visitor
vary
gallant
disag
observations
minor
lan
##ifully
records
BE
vine
##-18
leaned
doubtful
yell
##phia
recorded
##alo
entreat
lively
tu
##inence
##uated
breeze
Commission
distrib
##order
delic
FIG
attempts
covering
magic
##itudes
respects
manage
/
##itating
crack
outward
prominent
sixteen
##rd
lion
##fortune
ju
hatred
Rich
strengthen
Sun
tin
primitive
##otions
##Look
examine
executed
##uscript
Army
fran
Rec
pointing
inspired
preferred
##ogue
embra
abandon
customs
##rates
##asure
thereof
gloomy
commence
Suddenly
Shakespeare
dining
##phant
dragged
surrender
thirst
##anny
Penn
fury
##leness
##eur
tobacco
proceedings
fourteen
examples
##iations
fount
National
Holland
feature
##aur
hospit
Eve
hesitated
plays
laying
##case
cease
graceful
##onsense
##bishop
ward
security
solitary
armies
Chief
department
shaking
Sub
Time
wash
hid
Soon
##LY
appar
cleared
platform
attrib
garrison
Greeks
revenge
##ints
coward
convenient
##brew
furnish
sanct
##rot
##_."
preparing
##ieties
buff
##erness
Burn
##force
lust
8.
Americans
Chapter
Stra
mob
Cro
##quarters
followers
transform
feeble
steamer
independence
Very
cure
reception
assume
Child
coo
Town
thither
mock
##iot
recognised
##andal
Stephen
##agues
painting
indignation
Pan
awake
##iner
##ws
chron
Ob
writings
enlar
Revolution
positive
stomach
obedience
bat
additional
Light
concent
conceived
eaten
jump
oak
##istics
prel
roots
respectable
whereas
200
exists
Pac
arrangements
##anqu
boots
##AK
##itious
studies
creation
contempor
OX
##irk
sensation
##hol
precisely
colony
dict
##iano
sighed
sne
passions
traged
plot
gathering
Alice
##oof
Dec
Ill
Nevertheless
apost
amusement
grows
Ass
Night
##whel
buck
##____
##ez
##His
##52
groan
happens
musical
comprehend
##terior
timid
##mar
slip
hind
##foot
arise
capture
offering
streams
involved
##60
mischief
##alys
##atherine
##fa
##LES
flu
admirable
hed
knee
procession
fet
ruined
map
Sk
##cut
Mos
beds
clock
climate
demands
Rod
access
daring
select
picturesque
cannon
##gain
instruction
cryst
**
disgu
earnestly
##eer
peasant
Alf
##irect
medium
institutions
mixture
afforded
majesty
score
##lyn
##rat
Na
##lest
52
##pled
recollect
attained
Being
##gram
##headed
responsible
myth
plains
vulgar
newspaper
Billy
string
coarse
disappointed
##cont
mingled
##oping
Boy
Senate
##leg
Sher
brass
Test
vanished
preparation
elected
washed
Saturday
rays
Shall
0.
##Pl
privilege
jest
##adelphia
wars
reflected
beach
##UB
##ibus
Os
claimed
Caesar
columns
##QU
##anda
students
paying
##ISH
##eight
respecting
##Cl
##iforn
disappointment
Chic
Ral
honey
irres
##ribe
defect
area
##fts
##obe
drank
plates
##ester
retained
rolling
depths
Over
##With
poets
grandfather
swear
modest
mant
sculpt
##ocratic
prey
varied
mostly
conspic
IX
stroke
rein
##bye
handkerchief
phenomena
##tw
provinces
prosperity
##racy
enjoyment
flatter
NU
surrounding
Lucy
defeat
Protestant
doub
Met
invitation
summit
impressed
depends
##aneous
reports
arrested
unple
##igne
##SON
##lesiast
landing
##itty
insist
discipline
lightning
##seen
hated
SIG
Adam
injury
constructed
medical
preparations
##rich
elabor
##vis
sentiments
##ials
Six
rat
keeps
##ba
##inger
##inson
desires
##IGHT
lift
##90
feels
##aria
##uming
aged
##occ
##othy
darling
bloss
##En
##oid
heed
Minister
clothing
##ishops
harmony
Wind
appet
##rily
##HO
fed
##olph
Cart
virtues
##arly
ugly
cir
simplicity
races
undoubtedly
Whether
translation
formation
PL
horizon
neglected
engagement
agricult
proceeding
champ
CL
basket
overwhel
subsequent
wherein
##UST
##inted
provision
Isa
##houses
ceremon
harsh
pink
fishing
Samuel
charity
init
criminal
##dig
##dro
##oiselle
persuaded
Admiral
vener
##akers
propriet
pond
confused
Up
##ushes
ate
cave
eighty
##part
locked
owe
Stan
##utive
survey
##bet
display
Carl
siege
fruits
candle
visitors
bone
##three
ministers
Mah
knocked
treacher
##Re
misfortune
Att
##ouch
##AST
erect
regards
##agn
Committee
accused
wearing
##[3
weapons
specimens
venge
##agle
assault
ener
##ggy
offices
##riages
tremend
##urious
shores
##tery
Serv
intercourse
BR
##sing
##vag
poems
cunning
##ques
Wy
polite
manuscript
Californ
##olen
flash
acknowledged
wandering
nois
vest
##ilton
verses
Bru
Asia
pled
humour
beating
summoned
##Jo
mour
##mble
infl
philosoph
beard
Luther
trunk
republic
timber
##END
angels
trif
perple
##ills
balance
comrades
persist
##grat
wages
Ruth
Englishman
Fra
Arist
rises
##sters
##icles
Ell
tun
UN
upright
FO
##orthy
companies
##licted
institution
park
nephe
Brother
invari
farew
##arc
##pical
gig
deer
##3)
Tor
Down
##gn
fain
satisfy
##necess
176
cens
rud
planted
mate
complain
improvement
vigorous
organization
##omy
##bu
occurs
cultivated
##hered
Add
surround
dried
##cs
Greece
jumped
Wat
##going
shells
confession
offence
anchor
slee
crept
jack
Angel
substant
considerably
entertained
encoun
##Pro
5,
dressing
farewell
##oting
experiments
clam
bol
rhy
incred
funeral
##:0
##awn
favorite
qui
Philadelphia
##onia
rug
musk
53
Mond
55
papa
##ensity
induce
diameter
dur
tenderness
##dess
behalf
Comp
hut
diver
daylight
Footnote
destined
handle
motives
##:2
##haw
##never
accomplish
##ervation
responsibility
PRE
OXIA
Jeff
Mort
##Or
##graph
##called
discl
Pot
indic
##boat
bond
refer
##olis
wagon
chiefs
##inus
feathers
##utenberg
exhibited
model
##inery
NEW
Si
mamma
Knight
bewild
reproach
agony
associated
recommend
warriors
pile
confirmed
gru
##sych
appointment
occasional
ventured
54
dirty
cloak
9.
formal
exagger
arist
namely
##emon
Several
Frederick
cy
##ano
mutual
distinguish
instruments
deadly
##ORY
closer
##iac
culture
##asting
risen
irr
##chn
##vas
effected
Presently
Bart
fifth
##ila
saint
vice
##ounted
lend
Put
fanci
##lement
adding
proposition
##plom
losing
hostile
##onies
firing
Ple
illness
Lew
load
LE
messenger
accommod
à
portions
giant
internal
Middle
nerves
##urg
tom
##osity
ber
subl
remainder
Author
bush
mans
##ala
stirred
flames
passengers
gown
Hebrew
Hay
##MAN
##00.
cu
educated
tour
repent
##uously
Sum
abol
Libr
foe
##aging
##Perhaps
childhood
gang
veil
roses
Confeder
invent
advoc
##olas
secretary
Hart
wake
fragments
Nich
boiling
Edition
yer
transport
critical
correspondence
staring
##mind
lessons
romance
Ralph
available
Northern
##reement
##whe
designed
roar
##umps
universe
engage
Nav
##urrection
##Never
drops
`
##throp
́
##bec
liberal
editor
TAU
##Con
reprodu
images
spell
cream
Chat
symbol
forests
##sch
abundant
acres
judges
##achel
accum
vengeance
righteous
descent
negot
colonel
##enna
Dis
ens
Tri
fisher
Buck
##uity
calculated
sunk
president
bron
##adise
Neither
SIGMA
Hind
##Un
promptly
##fare
intend
tid
175
improved
##scape
pleasing
##artment
chimney
silently
##borough
haz
yonder
wounds
districts
alarmed
##Se
##uish
combination
extravag
review
resign
consisting
##-4
reluct
##atisf
Arm
##oonful
##grim
desk
sailor
border
certainty
Roger
occupy
moderate
disagree
##eers
indifference
##ocracy
hunger
oun
##othes
fancied
Bi
palm
weapon
##.[2
reserve
10.
infant
visits
wilderness
Bull
quart
calmly
Supp
contest
fairy
infantry
missed
unjust
##tree
based
inquire
Office
holes
incons
##irds
glow
τ
Jewish
£
##uk
SE
conceive
Head
Wales
mourn
mail
##point
Marie
navig
##Mrs
warrant
bushes
submit
Swed
courtes
heap
indisp
romantic
Liber
confessed
realize
##ighted
congrat
##zo
##eyed
brick
##glass
blows
prevailed
##ulus
Lo
##ersed
peas
annual
altered
contented
##75
grin
stores
##wall
tales
citizen
brush
##ippi
Kate
##herent
degr
liquid
##ographical
##uation
smart
##llers
RO
footst
pressing
canoe
incap
pig
##].
##gging
##ashes
Egyptian
Project
##00,
sadly
##kward
##wa
troop
placing
attractive
Hot
lieutenant
recognize
strictly
advancing
pir
##racted
elephant
voc
peaceful
sober
[6
sailors
site
wheat
assigned
heartily
weigh
trump
##ioned
##text
Cab
pleasures
Fle
colonies
Ha
invention
##rained
##ands
org
}
gesture
##aired
imperfect
Fox
healthy
dus
superf
##box
determine
amused
sympt
Edin
colors
##zing
temporary
holid
##only
pious
PER
ashes
desirable
Bed
##ingham
commanding
ske
deemed
wheels
unnecess
painter
conspir
PRO
inevitable
payment
prophet
marvell
Mir
resources
flashed
announce
Gib
Brig
##piece
gravely
Fre
EX
##rive
Ohio
##bbing
##apping
merchants
counted
##onic
##iger
injured
hook
tremendous
seats
loaded
ninet
ample
purchased
salvation
Finally
##Miss
tranqu
Fel
cel
jur
nephew
prosec
##agan
MS
##azine
Imper
bitterly
Low
##ifies
disgust
##36
Austria
discharge
pretended
##isible
dense
changing
sketch
Lar
throng
##ARY
disappear
trained
advised
obeyed
resent
arguments
Sid
preacher
##ylvan
indicate
remedy
absorbed
toil
representative
Scotch
knights
prolong
Field
##ournal
Kings
repose
hem
frost
temp
tract
designs
Ash
awkward
propose
upward
##pson
Lam
guilt
purely
nut
Pacific
gran
oppon
vanity
##11
County
##irts
saints
##iron
Should
wandered
hiding
Barn
California
congreg
##emoiselle
##coat
combat
pitch
bund
Gran
swiftly
##sels
##Thank
Because
CO
##arte
shooting
Jackson
smoking
unpleasant
chin
yielded
ashore
seam
##ACE
transm
Japanese
conspicuous
conquered
Has
Gospel
Babyl
generations
ol
##oming
linen
dearest
pool
discussed
##."--_
##ribly
Were
meantime
##bbed
Conn
nobles
prohib
##umbled
convent
trusted
cock
angle
##ibilities
protected
renewed
effective
corpor
Ru
inward
Apost
dashed
viz
defeated
##forth
squad
##acks
acknowledge
fence
fox
represents
garments
##ctures
errors
##iciency
Till
Countess
Reform
deceived
trembled
Rus
strangely
##asper
heels
recognition
newspapers
ridge
##ima
58
Gray
bust
sets
conquest
consec
56
pha
assembly
Gord
Berlin
ridiculous
Clare
lasted
Thor
subsc
silly
favourable
motor
statue
jealousy
Herr
publication
nob
Point
grie
vault
ly
roused
resemblance
***
Place
therein
speedily
Divine
##boy
neighbours
stuck
##resent
stolen
Cambridge
##'.
##uset
landlord
curse
sunset
##osa
specimen
illustrated
ecclesiast
##UD
Di
Eastern
afore
oft
weeping
reminded
journal
reverence
diplom
murdered
uses
##aire
corresponding
Wel
##chard
stole
expenses
##-+--------
traveller
FROM
##plain
floating
Pop
duck
Monday
##fold
kne
wrapped
Hum
##ENTS
elegant
##why
dre
##table
XIV
57
Museum
leisure
Venice
joke
6,
##hin
recalled
amusing
rebu
traces
climbed
easier
witnesses
##AIN
Pap
##urred
edges
cells
bells
bud
disple
machinery
longing
discont
##ctors
##gage
XXV
heir
upwards
Gutenberg
breathing
##break
##oche
Providence
extending
6_
adventures
function
##Am
##Just
closing
Anton
springs
##Ad
whirl
monument
tragedy
careless
seal
XI
achieve
eminent
##cra
artificial
##ICK
Var
swung
Home
Sac
Esq
stable
##might
extend
neighborhood
management
widely
##liver
##asse
Sn
artistic
conveyed
##imately
aroused
##rants
abundance
##Fig
Club
Georg
##LD
glit
crimson
travelled
admired
##rain
wha
damp
HE
illustration
abruptly
puts
##achuset
##quer
talent
##acing
betrayed
##inating
##achusetts
Ori
Could
lowest
esteem
Polly
vit
photograph
presc
168
Ward
##nut
warn
specially
##wen
passionate
newly
ancestors
##pha
##orable
spots
bestowed
Edinburgh
Str
##nold
reserved
##intend
Chicago
##PER
emphas
max
Betty
##35
liable
heavenly
witnessed
##mun
dispute
Bour
gorge
##usal
center
ram
##po
##des
IS
##eches
eldest
chase
severely
unity
professional
##AGE
##John
cyl
TR
emotions
barn
triumphant
insol
discourse
charges
lament
assurance
prayed
warned
Nay
temples
restore
##issippi
##uz
dangers
##Ne
Sign
shepher
##idable
##Greek
##Mar
##ORK
Matt
teachers
##rene
Carolina
tyran
ferv
##rusted
WILL
sink
copies
crest
##ti
wool
anxiously
moonlight
adapted
suspended
##lder
outl
scholars
deserve
##FF
seeds
repair
##ITY
chairs
##tical
##pen
##ridge
petition
wret
fug
Marquis
inval
##enery
answers
responded
pretend
pip
idol
subsequently
ambit
##minded
##bery
tube
mun
##leans
##ademy
promises
Barbar
##utor
insects
Burg
##ilian
##owl
##zes
70
##Because
converted
##andy
returns
##bably
earthly
flut
particulars
Nic
lovers
justified
##OUS
owners
doorway
verd
income
dwelt
##ositions
Les
saving
wax
professor
whit
Hell
##70
Massachusetts
dishon
chances
perpetual
##."--
griev
Py
##ships
exercised
Dam
conject
Cardinal
##ACK
brut
Vill
§
convict
translated
vicinity
continent
Islands
shy
dramatic
##oard
Tay
interfere
##maid
fog
##icular
struggling
##PH
Pitt
##ylvania
hesitation
hopeless
Mississippi
##post
##oore
##assador
vap
##usively
il
Atlantic
encouraged
##UE
puzzled
##erers
colle
Testament
fortunes
indef
mainly
impatient
##arth
formidable
cares
Belg
warmth
Right
Last
nurs
surprising
probability
gross
nay
folded
invariably
parting
precaut
canal
advers
commands
veins
interval
##iae
sources
##ava
Albert
##oped
##minster
rings
furious
impart
NOT
##32
organs
declined
rushing
luxury
Wilson
Faith
spared
##rons
Central
Common
som
stem
wept
discern
##rooms
##iolet
frontier
Wild
dilig
peop
##agne
investigation
rescue
pursue
challen
questioned
owned
abode
Ay
irre
fetch
pupils
##unci
naval
affections
justly
sickness
producing
avoided
climb
##berry
PH
stopping
cruelty
gladly
deprived
Tal
##ederal
##wer
quit
##oric
practised
Instead
pole
association
differences
enlight
##New
laz
----,
174
jury
agreement
##brance
sphere
Imperial
hymn
Greg
enchant
openly
Give
neut
flies
thirteen
##oves
abb
adds
##+--------
Spring
pall
sufferings
Norman
vigor
breadth
160
##Pr
ordin
clust
Mod
75
##cester
inhab
##ilda
##shaped
assisted
##ICH
magnet
wont
plunged
shirt
164
varieties
##arms
gam
worsh
Et
landscape
##ela
seize
obscure
10,
##cham
ornament
affectionate
heroic
experiences
attacks
withdraw
Than
##ui
##mans
##illings
periods
scarlet
believing
##idd
##aning
##TE
scandal
flushed
foul
##alysis
positions
lords
representation
##ensation
##,_
inherit
scant
wholes
lantern
alle
monaster
dreamed
Ten
wander
##itively
exhaust
quantities
divisions
restless
trap
##stra
boldly
##rad
shouldn
7,
##hi
savages
##even
flowing
##ressing
##_,"
51
vital
rigid
lip
Lawrence
awakened
XII
##lock
agitation
pupil
jewels
59
##iastic
Alexand
##good
Tit
estimate
##uen
parliament
amidst
unnecessary
drag
bands
recommended
missing
aug
revelation
##inge
Cas
boxes
requis
##ICE
tang
walks
corners
apolog
##cker
punish
nonsense
Hamilton
psych
torment
CHAR
##Take
##umer
8,
##ouri
##Tell
apple
##eb
immortal
replaced
interpre
channel
recollection
relating
leaped
representing
Fif
gallery
marvel
Mas
##LL
goin
faire
##hor
normal
incom
youthful
incor
blew
Whatever
##hable
[8
disagreeable
AD
Fur
##ARE
baron
Cre
trim
learnt
cathedral
pluck
alleg
Ball
MAN
lace
mend
liquor
Lang
Hunt
inspiration
sailing
glimpse
##iche
imperial
80
hay
##landers
Inn
attributed
##Eng
carved
Commons
##icer
##amin
woe
stamp
drama
tie
speaker
Maur
subtle
[7
##ciences
stretch
##weet
describes
##."[
crushed
traced
Stu
halted
##ivering
organized
Ret
invisible
##unken
##Col
procure
rod
mechanical
Rail
doctrines
harbour
##shire
doubts
marvellous
intent
travellers
##rick
awoke
tort
pistol
bench
killing
166
bars
Tro
##ipl
alas
delicious
surm
##raham
Early
differ
bloody
dyn
selection
tact
Gordon
Goth
##smith
stately
wi
prodig
artists
conform
##rum
divide
Imp
guards
##omon
meanwhile
##oli
##isons
Oliver
omn
declaration
soot
beer
rows
goss
arrow
dealing
shrew
##spr
dun
appropriate
rebellion
##inement
separation
embrace
##drew
spin
asserted
rocky
solitude
##ball
flock
victims
Associ
significance
##apped
whip
nerve
judged
soci
##itia
wreck
Theod
##ennes
Turkish
seconds
expressions
orange
Han
##oster
spectacle
inconven
undertake
##29
trifle
hereafter
##vention
##war
Pierre
suited
##press
margin
Pray
wealthy
francs
Daniel
measured
Whit
##ulties
bills
privileges
AM
##GH
##ilight
temptation
blast
games
endeavoured
requested
Anth
forbid
##_{
harmon
Grey
threatening
lecture
##ISS
butt
Duchess
file
muscles
##Sc
monks
##alty
etern
humor
##iven
lads
meetings
rejected
analog
punished
##spe
##ORE
##ranean
##joining
draught
Short
deserved
partial
##atoes
Pa
purse
Earth
##retion
mines
surpass
outline
glowing
wilt
Dur
##ceptible
Bank
appetite
document
Athens
##woman
continuous
bullet
quaint
Simon
battery
happily
fors
##oper
##faced
hearty
Roy
##nex
##stead
##half
push
##eau
morality
partner
embro
mirror
gravity
Budd
introduce
steal
elaborate
condemn
expecting
##ceptions
din
guarded
Bridge
proposal
faded
filling
courtesy
endless
confirm
drowned
faculty
comprehens
##umerable
Laura
charms
##erences
neighbouring
fib
##izz
flee
##ithe
COL
encounter
motionless
11.
heights
##dale
Justice
Lind
cash
letting
pockets
sung
smallest
##riday
compliment
countrymen
accus
heroes
crimes
##ront
Valley
wishing
uncommon
humil
driver
Ellen
Franklin
flav
explos
Homer
needle
##athemat
sermon
dated
Brun
##NE
Fitz
withdrew
Beau
sweep
##ulsion
carbon
##Her
willingly
dumb
vols
##hers
Pra
controvers
haught
##inch
ribb
Tower
##agra
witch
woo
Library
Ray
agents
##Our
amazement
rice
##inkled
Babylon
purity
impressions
torture
submitted
madam
##ieves
circular
##Some
carries
crowned
##La
##chers
defin
Hug
##DER
innocence
##34
##cian
coin
violently
fortnight
strongest
regularly
##fashion
##got
influences
ruff
version
pulp
Persian
##isms
glasses
unwilling
sustained
##pels
battles
##gence
stirring
elevation
Fam
ecclesiastical
cris
##ilful
##Nothing
subdu
Relig
Abraham
Half
serving
Ing
##apsed
py
whither
sinking
##anton
Ter
Within
##have
Row
##your
clasped
ink
##IAM
##ipper
sulph
expectation
Lewis
##bal
##orney
obtaining
##umbling
Herbert
##ponse
consented
specific
haw
honourable
##door
successfully
##imer
opera
conclude
Say
mothers
Peters
##rington
latest
disorder
accordance
##oven
valleys
##Sh
MRS
Anna
screw
likes
##38
fragr
Palace
##adj
##LAND
embark
dealt
shillings
##NOT
tumult
##athetic
treasures
swords
##rors
150
observing
cultivation
fortress
##24
costume
curiously
“_
Wed
Canad
bargain
rejoined
Brad
scenery
solic
monot
carpet
CAP
$1.
je
##iour
neighbors
reasoning
prime
greatness
##/4
##gic
Dorothy
##hast
approved
fiery
shared
chuck
cub
##Bl
##ustice
##about
tons
murmur
##DE
bon
##inter
offers
welf
Order
##amented
talents
finan
forbidden
visiting
##making
##egr
prior
welfare
Williams
functions
##VER
Flor
moss
wolf
inquiries
thief
9,
canvas
Board
##ecil
##cellor
invented
Lane
##essie
##pert
Der
##iating
collar
##IB
sails
resort
12.
telegraph
response
Penns
Sing
awe
overth
Cond
apparatus
Care
compare
heathen
antiquity
Hand
backward
velvet
##hent
fulfil
remembrance
belt
fountain
##37
##kee
incidents
Jon
##⁄2
##ountered
XIII
advis
##versed
officials
##Book
benevol
##ffic
dat
Blue
anguish
secretly
asks
grandmother
##ito
##Lord
##ader
array
##stru
##ensed
evolution
##blin
towers
BL
merits
Hope
brood
continues
spear
fel
ratt
boiled
occurrence
symptoms
##uy
##Tr
Tex
##sex
##entially
procured
##cal
compassion
dew
Orleans
encountered
illustrations
faults
disciples
characteristics
##ira
faced
inscription
shri
innumerable
##such
shif
architecture
##ée
tore
naught
hoping
64
greeted
Sa
assass
warrior
##away
##.).
penny
##pool
African
Call
appoint
65
##iend
Sel
subord
twilight
##ollo
incapable
##folk
##000,
Cop
winding
frown
Catherine
possesses
##real
miracle
statements
piano
eman
##cus
lawn
sho
upstairs
prejudice
pattern
##rical
##olated
memories
Mack
Brand
Taylor
Crom
respective
doubted
searching
torrent
welcom
persuade
nomin
theirs
footsteps
##did
envy
dismissed
##rec
communicated
Ross
acquire
##OOD
waved
alliance
puff
harvest
SEC
##iage
distributed
product
polic
eloquence
Domin
surgeon
saith
solemnly
vow
Note
##would
MY
##aste
Missouri
##qual
##itimate
WH
seeming
balls
shouting
commit
##aparte
xxx
##:—
##bear
shrewd
deaf
aboard
extremity
calam
##mund
Francisco
Sem
nobility
Plato
170
##-5
##gone
tempted
##eys
receipt
Kat
##asses
chains
Frances
apprehension
12,
loudly
blowing
prices
languages
Hur
vag
##soever
sunlight
##idelity
##EG
##idences
breathed
##inding
injustice
##iders
tap
breathe
##down
##aders
##ASS
despite
relatives
fatigue
destiny
evils
##estine
##ords
Sarah
oldest
##ym
attent
Westminster
##vous
literally
##uits
maybe
Lords
Athen
##upp
appreciate
personally
Assembly
##itations
Amb
Gentle
wasted
##anche
sensitive
##said
relieve
caution
dug
##lotte
longed
elevated
amiable
##inety
##odes
##serv
##ouched
backs
skull
inclination
creed
Peace
offend
regiments
FIN
fant
guessed
##rup
##mont
##asty
jun
shops
affirm
##1)
resolute
madness
Pennsylvania
Department
Everything
tribute
complaint
produces
revere
haul
quot
prair
contributed
eh
##uese
syn
facing
ine
successive
beef
offended
termed
lucky
relate
unworthy
Richmond
totally
weep
tops
dazz
acute
LORD
yourselves
arbit
discharged
advise
lordship
sear
##39
Eli
##duced
Rou
bending
lowered
admission
##ogs
Between
##ani
accurate
##aton
##orum
##rown
Tar
serpent
##pin
ardent
##icking
favorable
techn
##After
abstract
Turks
##uty
crisis
Hud
Walk
tents
marching
lunch
##orce
enqu
thresh
rightly
fitting
Susan
wip
emig
bedroom
clothed
##ati
opportunities
goddess
spoil
xv
overlook
beautifully
##28
True
superiority
##inine
dependent
Five
boot
Mist
documents
cul
Mademoiselle
dru
Archbishop
shaken
Sic
##Thou
positively
hideous
waving
Hann
globe
Constantin
##imp
##aneously
Surely
sequ
adjoining
dies
##were
Lis
bishops
incess
Alfred
raw
##obody
##made
None
shallow
ornaments
impatience
missionary
##trees
cove
intentions
turb
exchanged
funny
battal
##orical
monster
##orial
creek
SH
stag
transferred
Capt
cert
Stone
unfortunately
##white
relax
##fashioned
preached
mansion
uneasy
Hung
Bey
##oughs
##tra
165
scholar
imposed
##icism
germ
perish
estates
Stand
hunter
autom
169
(?
Victor
surroundings
economy
Sult
enclosed
hasty
prose
##sworth
bitterness
smiles
Lanc
secrets
##olves
perse
Prop
uneas
##oni
thoughtful
Square
bef
rasc
AS
##stein
release
rapt
lur
escort
bee
monk
##isten
polished
Something
##,--"
ov
arrows
##je
addressing
briefly
##ungs
cigar
Horace
Naples
equival
bru
##natured
worry
sauce
rational
##oir
blown
##.=--
niece
possessions
distribution
intol
riches
##ccess
civilized
GR
##blest
##rove
hearth
##cular
##irg
desirous
proceeds
Jerry
##elled
drum
faculties
Friday
tha
Matthe
Past
errand
##",
Santa
Ped
Continent
hospitality
seventeen
Pom
enjoying
##uing
restrict
representatives
Luke
thanked
Scripture
Vienna
Sabb
decent
##._;
Mun
Juan
##'-
##IVE
bodily
##PP
ther
##4)
##-1/2
exciting
eth
posts
##tell
##ulent
Portuguese
shine
Nicholas
lodge
released
antagon
Solomon
##anor
team
illustrious
barren
exclaim
##acre
ascended
protested
Cecil
fashionable
destro
shaft
lent
invasion
contradict
entertainment
##isive
##utt
threshold
Unt
AC
background
##keys
Australia
bury
peasants
checked
traditions
poll
sits
##ICAL
preach
##ooped
circles
horns
##?’
hol
Ast
Constantinople
##past
pear
Julia
borrowed
##agraph
##interest
enters
..
duly
##imum
gleam
diseases
Gab
fundamental
##78
kid
##wind
genus
types
##riv
sofa
nour
Creek
pulling
dine
Does
jer
ec
##hile
bonn
boards
brisk
##-----+
##stri
##amph
pave
ster
Much
answering
##oure
equip
##IRE
clergyman
melted
sticks
leap
Gilbert
GE
Third
##phan
essentially
proves
Scar
##keness
porch
Form
Ho
interpretation
##via
Later
allies
—
##[4
HER
jar
##istle
frozen
potatoes
##sen
##nty
stages
##mighty
##hara
Bernard
##seven
##arant
##inkle
dislike
clung
Big
imitation
##forced
11,
gigantic
##gue
workmen
phenomen
tip
realm
lots
##isd
FOOT
##anted
Public
##aved
danced
rebels
##phy
15,
bronze
Adams
##26
unsu
attending
resembling
tren
vex
Dal
cham
notions
robbed
##ansas
mol
proofs
mes
frightful
irresist
Charlotte
tram
insign
create
##iere
cav
cordial
revenue
##power
removal
speeches
##ECT
Road
properties
McC
Anthony
Balt
##joice
navy
Guy
superstition
##guard
justify
deposited
Terr
rect
Way
Hun
Byron
Lamb
##oa
Lion
manager
Accordingly
villain
horrid
Pil
Cook
adequ
bows
catching
Fal
contrived
##rise
feud
##fig
abuse
##arers
SIR
consolation
##roll
successor
comprom
Bos
##33
cheerfully
disaster
couch
thorn
guardian
uncon
68
##umberland
##cile
gospel
remon
proclaimed
Lat
appearing
##hur
Association
Murray
leagues
##gard
##munition
Illustrations
rede
[9
compact
childish
patri
skins
##agers
substances
##rell
Eug
##unks
Cru
planned
cheese
retorted
##acht
##ban
oppress
bonds
sack
##verb
vegetable
Hotel
Ni
strife
hered
Saviour
awaiting
jail
##dened
##elia
packed
sket
uncomfort
VAR
##Ay
Scottish
suspicious
14,
sublime
decidedly
##.|
spreading
historian
attachment
commod
Ram
products
##eties
Highness
ascertained
apprehend
sheets
##cible
Women
##aug
ceremonies
##.-
dishes
undertaking
158
##bus
##ORT
lakes
corpse
capit
plague
fulfilled
##may
hesitate
proportions
##olics
##ecess
presume
##Certainly
##onym
brook
farmers
##oft
decline
brigade
personality
159
nit
instructed
##Dear
Suff
excurs
twisted
##Ab
##ENI
sixth
##ATH
##pie
##gery
##hist
jolly
exclusively
Fanny
##heart
link
Hudson
drunken
Mis
##_"
Rad
preaching
subdued
subjected
##SILI
##utable
respected
Academy
Syl
##fish
##────────
##These
Prussia
processes
prudent
Messrs
expend
Cour
superintend
adorned
readiness
Milton
13,
PSILI
traffic
treason
veh
gilt
varying
Ut
##neath
sanction
corrected
cooking
commencement
##version
foliage
fertile
##APP
Mexican
##odge
stake
Squire
Ze
##sl
##viour
##perhaps
dreary
dropping
disd
extingu
Henri
Bapt
inspect
barely
ladder
##inqu
Circ
brute
ending
##eline
feeding
##glas
Pas
apartments
sustain
Bow
paragraph
gau
swore
Journal
Victoria
preceded
coinc
defended
session
90
##eled
GRE
desolate
everyone
Hast
horseback
##alling
Wr
167
grasped
##aze
punct
Illustrated
courte
300
##inals
industri
helping
Alas
Price
peculiarly
##spring
decay
##gings
XVI
##class
lifting
engineer
##ucer
##pence
Philosop
##thel
allowing
##HAT
Ga
fluid
”
ammunition
bulk
assertion
predecess
rash
harbor
##vertis
damage
Bad
ow
62
##organ
sullen
##cheon
receives
##gus
##wart
dollar
Aristot
fare
printing
tune
sports
Fire
HIS
frankly
lodging
Moore
13.
##acent
gasped
owed
Clar
enthusiastic
staying
##OME
pint
##inently
indebted
craw
amend
trifling
##isting
ingenious
pencil
Country
dia
Kenn
tidings
foes
##ota
guided
Ra
cows
tools
##inton
dignified
pillow
Maurice
herd
identical
Ess
sweetness
encouragement
perplex
warfare
glittering
stub
si
(2)
partially
CONT
depended
eagerness
Frenchman
##hill
unb
Dear
##,[1
##bby
volcan
delicacy
Chamber
Agnes
Barbara
anticipated
struggled
##ouncing
astron
BOOK
##ettle
##ocity
##uate
chill
impet
dates
Isaac
governed
##reading
customary
bees
brains
##oult
Els
##rod
curtains
umb
ministry
paths
awhile
###,
PE
Stud
##odox
succeeding
Star
hydro
washing
vind
##ANS
cliffs
gossip
##full
reverse
hypothes
problems
maj
##OLD
fiercely
kins
viii
##45
fabr
Rue
ft
essence
##general
morrow
obligation
Woman
equivalent
studying
Lab
Bol
deliberately
exult
##gered
perished
circuit
Abbey
complained
animated
ambitious
exal
rebel
baggage
##pection
sections
cake
Herm
##actor
mourning
##-6
haue
Inc
rests
snake
chemical
##ete
##Christ
nowhere
ninety
sprung
ED
chival
##AW
semi
likeness
parl
worldly
##incerity
Sabbath
##kel
epoch
##Mad
##'--
significant
Gerald
principally
vale
##XX
##TLE
magistrate
Duc
Free
Hosp
##gie
##osal
decree
##gle
declaring
Rand
horizont
##Indeed
Moham
##reath
shouts
##Poor
westward
complexion
bounds
Stuart
hoarse
stove
settlers
##ilding
pilgrim
chorus
petty
reaches
##arming
enact
Cf
syll
66
defined
##========
##Every
seasons
negative
##Ge
festival
##berts
pad
tramp
tenderly
eventually
wonderfully
heated
Pad
contemporary
awaited
##Par
congregation
insens
Brah
##ieth
##actions
sworn
##icus
##lan
##ixt
embraced
lou
excellence
holiday
nigh
##umble
bits
Beaut
##-8
illumin
rounded
nom
borders
16,
era
Madam
##ocation
inhabited
##.(
Cow
agitated
labours
ruled
bliss
Catholics
##urned
Cass
##hon
venerable
spy
##osis
supposing
Clara
flank
Science
##79
##fire
examining
##chair
##elson
glac
##ometer
consulted
rejoice
##Com
##lasting
pomp
exhibit
XL
angrily
occasioned
disguise
hammer
skies
excite
crop
scent
Legisl
na
casting
lamps
plane
Power
##ethe
##mates
omitted
thankful
deepest
loyalty
remorse
tempest
Social
Saxon
multipl
Upper
##vial
considerations
Tow
##ursday
##isen
##uminous
grandeur
Civil
##green
truths
substantial
alco
entry
##és
Morgan
ton
faithfully
Excell
echoed
approval
virtuous
WILLIAM
solely
Soc
bowl
expressing
basin
156
tongues
guarant
Treat
rubbed
##ANC
sunny
particip
hired
refres
theories
mathemat
teleph
Poet
##yers
plum
rab
terribly
dreaded
conclusions
wonders
cars
pony
##urable
FOOTNOT
##22
lime
decorated
sheer
##_!
prett
someone
prolonged
indispens
alluded
Pel
20,
allied
tack
chant
elbow
upset
##erem
##icating
ff
theme
Pont
riv
width
undertaken
(1)
##orning
tread
reveal
manifested
besie
Edith
behaviour
descendants
sou
Ur
##because
arriving
causing
gover
##Nay
diamonds
Monte
staircase
##MENT
exile
manly
doctors
suspicions
tossed
Hans
constitute
sends
##uesday
quad
appreciation
Full
surf
believes
gy
##nie
PO
whistle
attraction
Phys
imprisonment
unhe
UPSILON
soup
impatiently
consumed
taxes
##utter
hurriedly
tiss
##enz
##ippers
opens
##Ye
Others
##orship
##igan
attempting
warmly
Wol
##anna
imagin
carriages
esp
robe
Robin
promising
##amy
15.
Davis
plunder
trades
Liter
corrid
communicate
involunt
Yor
##inkling
##town
limb
14.
honorable
Think
wildly
deserves
include
##giving
Ted
Sultan
Mu
orchard
Douglas
Ever
##Me
AB
Horse
Ot
joyous
clad
155
##ivities
whites
attendant
##lar
blade
Campbell
Fortun
Cromwell
Indies
burial
refresh
discom
##cht
oppose
circulation
diamond
##Was
refined
ripe
##every
inheritance
hanged
deceive
faintly
##rude
##sk
applause
appealed
anyhow
##olo
patent
##:/
Morris
monsieur
strip
ultimate
prostr
bundle
##asmuch
Allen
##verted
##History
resigned
aer
harder
weighed
rapidity
fraud
concert
indignant
##mus
gale
sympathetic
##castle
glor
##76
Clay
wretch
Austrian
trous
##say
Kentucky
moves
##esses
##east
piety
##bird
captive
Satan
pepper
seventh
accent
unqu
cigaret
##fles
constituted
attendance
##bation
fiction
thickness
##broken
withdrawn
prelim
##anity
##atum
##VI
cum
FL
##ths
comrade
mouths
##alogue
##oled
dash
Glad
##LEY
gird
##ATIONS
peoples
stamped
##aned
roast
ix
infinitely
##icket
vegetables
##oons
mos
lane
extension
##dam
button
Ce
swallowed
Lad
penalty
##Man
constitutional
##inois
perception
discoveries
##fly
descending
##ooner
eloquent
coron
brandy
brows
dresses
spake
breaks
knelt
locks
philosophers
Mayor
suppressed
##000,000
Occ
flowed
discretion
Above
Get
COMP
Roche
Story
Friend
spectators
excessive
Soph
Moor
##rah
##ello
energet
cabinet
disreg
Clark
strikes
Method
winning
covers
renew
##isdiction
##rete
Dom
##haired
##44
##oland
##grown
guine
##oust
sulphur
##REN
mirth
sep
Make
69
Ta
lighter
##ainty
Matthew
ultimately
ceiling
gn
orth
tricks
##://
floated
meek
Charlie
hats
Nov
Venet
pipes
shades
exceeding
explo
##anse
convince
Ord
inconsist
Review
costly
clasp
##hot
accuracy
##IFE
sacrifices
hears
Benj
##uzz
manhood
professed
fret
sergeant
pas
pouring
Mohammed
hedge
wrest
Happ
Merc
mysteries
startling
anyway
overfl
Letter
Mountains
cant
61
Dublin
ringing
remarkably
shudd
Ald
sund
youngest
##run
##Old
analysis
Bath
##lig
dismay
##atches
whereby
bewildered
##ulch
commend
primary
breach
##ombard
legislation
defiance
phenomenon
severity
##ishers
conve
##Gl
glancing
sweeping
prosperous
lined
dirt
debts
Howard
angles
163
halt
intrig
scept
##sq
##kers
cos
continual
dost
parson
identity
unanim
obviously
recru
cavern
ME
adjust
##encing
Englishmen
Mission
##inous
enlarged
Cad
reaction
shorter
##imo
##ihil
monastery
##rating
Dave
##—_
63
sparkling
trials
despised
latitude
##OCK
blend
repaired
##zer
guid
mule
##ulsive
##:--"
Russell
##ISP
##ifice
planet
terrified
##somet
welcomed
##DA
martyr
oars
alleged
tightly
Mountain
unite
Wolf
faster
dreaming
rosy
##ERN
wits
##uis
17,
##dinand
misunder
supernatural
deceased
sacrificed
beggar
cautiously
dined
Himself
despot
gramm
##lings
endured
massive
slumber
Year
physi
prudence
juice
highway
pushing
inspection
influenced
Golden
##liest
trenches
Devil
Works
financial
keys
PAR
corruption
18,
Vic
##ctic
Gregory
hypocr
##000.
172
eighteenth
armour
chal
Bacon
##craft
Bless
plent
Ren
cush
greeting
kindred
##BERT
debate
ante
meadow
generals
headquarters
sums
25,
##cap
##requ
emphat
Batt
wider
objections
##!’
##oug
##Only
Blake
musket
##aude
monstr
refusal
richly
chast
outrage
temperament
fres
Further
foremost
##vings
Arnold
Av
happier
interven
incredible
##tin
Cub
bunch
##maker
uncomfortable
declares
legitimate
searched
fools
:
tyranny
Liver
TW
##Sec
##ENCE
shower
Sab
feminine
intox
murderer
indispensable
##cott
Federal
Small
systems
##ENE
##7)
##thorn
sandy
dialect
substit
##mons
patch
earl
barrel
sixteenth
##isle
diet
Columbus
blaze
resemble
attendants
insignific
##Life
reckoned
##nesday
##agu
bite
morals
##cca
candles
treachery
sealed
quote
exalted
##una
boundary
##cession
PI
Letters
tastes
chambers
detailed
compound
Corps
vacant
expensive
Aust
git
Jeh
##idity
Canadian
funds
##:00
assent
esteemed
Made
Ref
unseen
schem
Tha
Chester
typical
##icide
blocks
Certainly
assistant
Rest
estimated
pamph
sentences
Yan
162
Sup
philosophical
exhibition
disposal
diminished
κ
recognise
##ère
plough
Work
##arf
exercises
expand
##eded
ruler
##velope
Dry
mic
grove
##IAL
alongside
hurrying
Chron
devote
clearing
##ecd
statues
shat
hue
Winter
ej
blessings
'_
Tot
##fit
hoof
persecution
isolated
QU
##----+
pleasantly
Dean
offensive
inserted
Eight
securing
vigil
Creat
arising
MA
sincerity
##tte
poo
##bod
##upt
surrend
##matic
Nort
sect
##worthy
penit
Vinc
endowed
sam
eagle
submission
allusion
viv
ray
controversy
##inged
clut
Shell
Roberts
jurisdiction
Produced
detected
explore
Convention
blush
traitor
monuments
Russians
generosity
##Would
FINAL
baptism
terrace
##48
##KE
##riel
conference
##him
allowance
oppressed
miracles
patients
Bir
CAR
amazed
recl
##itzer
##emen
ay
lav
##aware
everlasting
drown
cooked
tavern
organic
Kingdom
##ja
propriety
selling
Loc
anecd
##6)
oz
Gene
resulted
intensity
##oda
##azar
##venant
bidding
gi
lungs
##peak
Garden
##nels
perfor
split
Clement
##arned
shew
Children
reckless
profits
Nile
proprietor
cups
associations
Bright
Illinois
factory
##2}
##sor
pump
dissolved
[10
gloves
breed
##hole
##iscop
67
repet
pest
Welsh
cursed
squire
Forest
lemon
slaughter
##Char
Graham
integr
——
##suing
##adle
splendour
resolve
##ulously
##oirs
player
##Give
Ul
##ONG
sag
##itical
eternity
Bonaparte
##chal
dominion
dusk
##bag
realised
hasn
decisive
Josh
##tion
Antonio
##Pe
preservation
prevail
Harold
Jun
climbing
Twenty
##hab
reflections
simult
relates
##azed
preference
sorrows
stretching
university
Ferdinand
onward
##coming
##odd
stu
poetic
##ROW
assign
arches
proclaim
##give
kin
alien
##wealth
##500
##xton
exclamation
Poly
vile
revolt
Lor
workers
apples
civ
summons
exclusive
unreason
π
downward
tremble
locality
##pa
joys
Philipp
dans
##insula
thyself
Portugal
titles
##entric
prow
Coo
##icker
##Say
##Phil
120
Almighty
Senator
handful
##sar
##riers
##ppers
sheriff
reass
##upiter
##lee
Id
foreigners
Ghost
objected
Emily
caps
##itably
bestow
16.
Cic
arbitr
22,
##enne
##voc
##nant
persisted
ragged
Oriental
VARIA
##vens
##rett
agricultural
("
horsemen
##ttp
despatched
envelop
squadron
Die
prophecy
praised
fidelity
glances
pierced
portraits
recovery
Norm
monstrous
fath
crops
poles
tooth
ecst
robes
Aristotle
Jimmy
swing
##first
restoration
revolver
##cloth
engines
headed
78
cellar
Palmer
shrill
victorious
casual
##68
sadness
reduce
##ando
tracks
Broad
notable
resentment
bred
finer
Thee
beauties
Bou
Gothic
interference
imposing
extends
strengthened
##elfth
ted
spur
154
orphan
tragic
insect
ou
finely
profitable
##athed
append
Det
##ANCE
exh
stationed
illum
19,
schemes
Phill
curve
wholesome
substitute
pavement
Tu
Thursday
utterance
##aphys
##iterranean
##31
forgetting
##lam
aught
rugged
veter
dial
annoyed
##hind
##itus
blanket
##,"--
lawful
detective
##archy
##roc
complicated
intern
##Americ
inflicted
neutral
concerns
possessing
economic
##apes
Kitty
shepherd
Georgia
falsehood
Fro
aspir
equality
LAM
Beth
proverb
females
labors
Leonard
draws
requisite
Nelson
Guard
observer
MON
hunters
ale
tribun
libert
reads
coffin
accounted
brutal
Times
##UG
##dal
Sally
##ector
failing
undertook
confounded
Rap
hen
Publ
detached
##advant
paste
batteries
serves
chlor
Edmund
yo
describing
##must
Maid
swinging
porter
improvements
pope
Bent
Joan
pledge
adult
achieved
contracted
trains
##55
Sin
laden
repeating
intr
stoop
trousers
##Ed
##nothing
##London
suffice
memorable
ports
fragment
ost
peep
Horn
Owen
tenth
rendering
whereupon
meals
aided
Ages
lance
##xter
Harr
Mason
##';
compr
arises
Cathedral
Truth
##Sp
##igo
PRIN
competition
pleaded
##atching
screen
Intern
Az
cruc
salary
##nine
imprisoned
21,
foll
[18
Bohem
reigned
token
enumer
parlor
bravely
critics
recip
presenting
supporting
crazy
quitted
thoughtfully
husbands
Assy
relics
whar
Orange
roughly
##twas
irresistible
Nancy
knot
unconsciously
dimensions
Louise
prophets
foundations
Tuesday
paces
72
hypothesis
haughty
##ya
serene
##augh
##ench
fist
Probably
industrial
alert
riot
monop
honesty
rider
emerged
mit
Shar
HAR
##unciation
28,
radiant
haunted
Regiment
settlements
171
##itic
virgin
challenge
##change
skilful
harmless
24,
shoe
##ITION
panic
astonishing
axe
Vers
XVIII
FOOTNOTES
##.:
mules
Plate
northward
##iantly
##udding
disdain
##encer
##OSE
##Cha
lamb
indirect
Log
swallow
##thy
secondary
motions
##TY
Percy
##Mon
##penter
Scots
Cousin
##-9
##lic
patiently
dainty
lectures
##AMES
comparative
Mediterranean
flows
##estone
##ivable
sarc
cad
crowds
machines
Texas
flush
prairie
Cher
##Obs
overhead
wist
##bster
adequate
bottles
Press
vigour
rejoiced
##pole
Braz
17.
conferred
pillars
universally
authent
conserv
cherished
insuff
piled
dedicated
righteousness
suggestions
confeder
wiser
##bred
##.[1
ambassador
157
Rub
##writing
folds
152
173
##ni
Staff
##oux
pilot
oxen
forfe
##------+
##cules
Know
pige
Molly
offspring
secl
Nell
Glen
announcement
20.
losses
##mill
stations
161
granite
##ouring
definition
coldly
mantle
##eller
missionaries
removing
Near
modified
thumb
visions
KING
chapters
exertions
74
posted
earned
crust
comfortably
##avia
loos
pathetic
carelessly
##cas
plus
Milan
plead
logical
Nan
##nor
##uke
##rigg
gradual
Evan
invite
forthwith
##chus
Dolly
spont
##alle
ounces
##iser
##undered
blankets
Martha
aux
Benjamin
banquet
Remember
appreciated
players
impert
buffalo
Herod
wisely
##etta
##itches
Chancellor
competent
delayed
Ern
pang
Anglo
##arks
strove
cate
Scriptures
subd
##assed
lingered
mask
unfold
theology
tyrant
Tart
##fortunes
cane
##estial
fearing
1/2
##ropolis
classical
##INS
impass
SER
await
epit
nails
strained
Tommy
Cornwall
##shot
##epend
schooner
Columbia
Stock
Jefferson
chanced
repeatedly
##ILD
##IND
gorgeous
disadvant
devout
hazard
gaining
Venus
doom
Proof
Cloth
sway
surrendered
avenue
advertis
rural
##itories
convenience
homage
prejudices
disturbance
swimming
##5)
##thought
befall
proudly
degener
efficient
Cut
Sweet
##owered
device
##these
GEOR
inquis
founder
affords
cited
##pres
beam
honoured
refers
##tre
anci
meadows
lodged
##ellig
Jupiter
elapsed
##child
jewel
defense
tab
##."]
ful
Liverpool
Bat
popularity
cust
garment
##onial
##ENS
yielding
singularly
Augustus
phrases
##works
Bruce
##chi
consistent
##isse
##being
scram
##IRST
##ribes
Religion
ware
beams
conspiracy
acquaintances
sincerely
wagons
Girl
cage
##onge
Cort
Caval
Whose
touches
RHO
effectually
hunted
inherited
stillness
##opher
##velled
harness
##ili
southward
##bri
18.
suggests
sensations
Marion
regulations
vexed
proclamation
gal
Jos
choir
meets
evenings
exertion
##Dr
Song
anti
Madrid
Stat
Rhine
Ethel
Il
praying
##ww
##Ant
Quebec
Foreign
agency
##pre
Turkey
storms
shapes
olive
springing
seventeenth
logs
##ANG
honours
30,
banished
descriptions
fantastic
##gency
Suppose
Mind
lass
##enser
##books
##hames
Acts
extravagant
historic
lasting
flashing
thieves
##empl
malice
Hospital
##Ap
stare
guidance
##sues
##yrus
exposure
envelope
149
##grave
##ilies
revived
Aven
asse
##74
sadd
yacht
precept
cakes
Darwin
stealing
league
herald
ENG
##ONDON
##YN
ensued
##cation
mentions
85
##pendicular
prospects
deliberate
opponents
usur
invested
##rings
apprent
##anger
Geoff
fails
Excellency
memb
Ext
##path
##plete
blazing
duration
Jersey
tel
Persia
ath
##raged
penn
##oso
##;'
unnatural
Robinson
Must
slay
imaginary
23,
woke
Ken
##Gr
destination
drain
madame
##Two
ramp
discoura
clinging
speculation
indefinite
steward
##oma
Paradise
blossoms
##www
##udder
##lements
shocked
Miller
Desc
especial
exaggerated
mig
mustn
soap
##parable
##ummer
Opp
||
hail
Johan
rulers
resembles
##First
squee
bounded
penetrated
##olitan
kneeling
Wag
travels
disob
hereditary
Haz
##anners
##imore
##rift
Rachel
##salm
Spart
refusing
##tem
##rances
unacc
##18.
thrill
hostess
rites
oxy
phant
productions
advert
##court
actor
##amous
creeping
chronic
##ean
##FN
##vered
emble
remed
lodgings
inland
Arabs
roofs
telegram
Jove
##69
eastward
##________
##eron
##ureau
assail
##enet
shots
##ali
numbered
Gulf
Almost
Tru
pursuing
##Gu
##wy
Ach
underneath
Lyd
sheltered
##aron
##rophe
essay
Beyond
Notes
##ernon
binding
‭
dearly
verdict
##ORN
Nether
Quar
ivory
stif
##ben
Harri
oy
bount
tiger
rifles
##ét
lazy
Fourth
##---+
attributes
scound
accompanying
trunks
bursting
##iley
Amy
##cond
oven
##found
invalid
##.--"
Caroline
Ali
connex
alcohol
electricity
##athan
enlightened
roared
poly
bayon
ascribed
remembering
##vard
Ry
##hour
mare
Wednesday
79
▁
##e
##t
##a
##o
##n
##i
##s
##h
##r
##d
##l
##u
##c
##m
##f
##w
##,
##g
##y
##p
##b
##.
##v
##k
##I
##-
##"
##T
##A
##S
##'
##_
##E
##H
##M
##;
##C
##x
##B
##L
##1
##R
##W
##N
##P
##O
##D
##G
##q
##F
##j
##2
##?
##0
##!
##3
##:
##z
##8
##J
##4
##5
##Y
##6
##7
##)
##9
##(
##]
##[
##K
##V
##U
##’
##“
##”
##|
##=
##*
##~
##X
##—
##}
##{
##Q
##+
##Z
##‘
##é
##/
##&
##>
##─
##<
##│
##æ
##$
##á
###
##ν
##`
##α
##τ
##ο
##^
##è
##ε
##·
##ι
##à
##ς
##í
##ρ
##–
##ā
##σ
##⁄
##μ
##π
##κ
##â
##λ
##ä
##ó
##ö
##§
##ê
##ī
##́
##ē
##£
##ō
##ü
##―
##œ
##δ
##ú
##Æ
##°
##═
##\
##ñ
##ç
##υ
##ί
##ô
##ð
##ω
##γ
##þ
##η
##έ
##θ
##‭
##ό
##ά
##ἐ
##¶
##ὶ
##É
##ū
##χ
##ẻ
##ἀ
##%
##ë
##Ï
##φ
##ï
##»
##î
##ὸ
##ύ
##′
##ῶ
##@
##„
##ῖ
##┼
##«
##û
##×
##ù
##ῦ
##ò
##ὰ
##
##ὐ
##β
##ή
##ὲ
##
##ǣ
##
##©
##ὴ
##ῆ
##ξ
##Á
##‐
##ἰ
##ì
##ἔ
##Ð
##†
##ĭ
##ă
##ĕ
##ώ
##ἡ
##ἄ
##✿
##ὁ
##Œ
##┴
##ζ
##┬
##ὑ
##ʼ
##ã
##
##õ
##Π
##Σ
##ȝ
##ȳ
##Ἀ
##ŭ
##ὺ
##Κ
##ἱ
##ě
##Α
##š
##ῷ
##ὅ
##Ο
##Τ
##ψ
##¬
##Í
##ß
##ř
##Ü
##ᾶ
##ῳ
##Ε
##•
##י
##ý
##ŏ
##ḍ
##̆
##Ι
##Δ
##̓
##¤
##Ν
##
##ἑ
##♠
##Ā
##ˈ
##ἴ
##Â
##̍
##ו
##̄
##Μ
##ὀ
##Þ
##ῇ
##ἶ
##č
##̃
##♂
##È
##⏑
##À
##♣
##ה
##Λ
##ẽ
##ב
##±
##‒
##ž
##̧
##├
##ə
##¢
##┤
##Ἐ
##Ó
##ę
##ˀ
##Ö
##ḥ
##ר
##ṭ
##ῥ
##א
##ע
##ῃ
##ὔ
##╤
##ὡ
##ל
##Θ
##ὖ
##Ç
##ת
##♀
##å
##ὄ
##ἁ
##ḳ
##ẹ
##ἢ
##ʹ
##ש
##ד
##ἕ
##⸺
##÷
##ὕ
##‡
##♦
##מ
##ּ
##Ø
##⁂
##Υ
##ָ
##Χ
##ὼ
##¿
##Ρ
##ǫ
##℥
##Φ
##ȧ
##━
##ְ
##ᾳ
##♡
##ἅ
##┌
##✱
##Ñ
##ʒ
##⁊
##Β
##ṣ
##ἵ
##♢
##Η
##̈
##ἂ
##ַ
##נ
##Γ
##ǝ
##ם
##ἦ
##℞
##└
##ὥ
##Î
##Ī
##ἠ
##♥
##ا
##√
##
##┐
##○
##ÿ
##ŋ
##ἤ
##ꝓ
##Ἰ
##Ä
##ṇ
##⛀
##−
##⛂
##Ω
##ח
##ů
##ἷ
##
##┘
##ִ
##Ô
##Ἄ
##✠
##ć
##¡
##ọ
##Ḥ
##Ḳ
##ꝭ
##ʿ
##Ê
##¦
##Ú
##כ
##〈
##〉
##‹
##Ἑ
##ل
##ȼ
##›
##‛
##ː
##ɔ
##ἥ
##Ō
##פ
##ֶ
##ὃ
##̇
##ק
##ś
##║
##‬
##ן
##ʇ
##Û
##ὗ
##­
##Ē
##͠
##◊
##Ë
##☞
##→
##↷
##ֹ
##‚
##ὧ
##ֵ
##ס
##ˌ
##Ἡ
##ṛ
##ꝥ
##Ý
##Ζ
##ֽ
##ׁ
##∴
##ġ
##Ὀ
##ג
##Ἔ
##ϊ
##⨀
##ǽ
##Š
##צ
##е
##ֲ
##̋
##Ū
##ὠ
##Ὁ
##〃
##а
##Ṭ
##Ῥ
##ي
##╪
##р
##ħ
##و
##ʃ
##ᾷ
##ر
##̀
##ΐ
##ḗ
##̅
##ũ
##ῤ
##¥
##о
##Ṣ
##⧸
##م
##ᾰ
##ὦ
##‮
##Ἕ
##●
##ب
##∕
##ʞ
##
##ἧ
##ɑ
##♭
##ن
##ͤ
##╧
##ך
##Ἱ
##ז
##ἣ
##ἃ
##
##Ὑ
##╱
##□
##
##Ã
##ᴗ
##ט
##╲
##ų
##ʺ
##ъ
##Ḍ
##子
##Å
##℔
##‰
##♯
##ὤ
##ῴ
##Ξ
##Ὅ
##®
##‪
##ṅ
##⏖
##ῡ
##Ẻ
##ṓ
##
##ه
##ň
##█
##▨
##Ψ
##℣
##н
##ť
##ẓ
##⸻
##د
##ỹ
##ت
##■
##ῑ
##ع
##̱
##ƕ
##س
##Ἴ
##ˉ
##ø
##ᾧ
##ɳ
##☉
##̨
##͡
##ĩ
##┃
##Ò
##ʌ
##͂
##ἳ
##̤
##‖
##Ʒ
##▶
##ὢ
##ȯ
##֖
##Ↄ
##◀
##Ꝝ
##в
##ἓ
##ᾱ
##Ĭ
##ď
##̝
##Ἥ
##Ȝ
##ϛ
##Ἁ
##Č
##ʾ
##ق
##ح
##ạ
##͐
##Ἠ
##⋅
##֥
##字
##ł
##и
##ἆ
##♈
##с
##т
##у
##ῐ
##之
##̳
##ͭ
##ῄ
##ῠ
##♄
##־
##ṉ
##П
##д
##֣
##
##ʻ
##ف
##̲
##к
##
##ḷ
##ᵹ
##♃
##∞
##ὓ
##Ὠ
##⏔
##卐
##Õ
##Ś
##ة
##ḣ
##ᾗ
##╕
##Ă
##☿
##ͬ
##ĝ
##ϋ
##б
##ك
##Ὄ
##л
##̑
##Ի
##ֻ
##₵
##Ù
##г
##ᾖ
##╒
##▢
##。
##ꞃ
##ẖ
##人
##Ž
##◡
##ᶙ
##ǵ
##ج
##᛬
##◯
##國
##͞
##Ἅ
##ↄ
##С
##⸗
##ᾴ
##ĉ
##ᾠ
##♊
##∂
##十
##ċ
##̂
##ף
##ụ
##ŷ
##⚹
##Ì
##∷
##̭
##Ȼ
##☛
##☽
##大
##ỳ
##✓
##ı
##͜
##☌
##ė
##ş
##ׂ
##ᾤ
##℈
##ꝯ
##ꝺ
##ὂ
##ŝ
##й
##♎
##⌃
##
##֔
##ᵬ
##ṳ
##⎜
##ش
##ط
##ᛁ
##ị
##≡
##
##ɛ
##п
##ḏ
##♏
##❦
##ƿ
##֑
##四
##
##Ὕ
##◆
##英
##̯
##ֱ
##ّ
##Ὡ
##̸
##ϝ
##ץ
##ز
##⏗
##☍
##Ĕ
##М
##中
##Ř
##Ǫ
##̔
##̥
##ص
##َ
##ḋ
##公
##書
##有
##
##ΰ
##я
##⊙
##⋀
##♑
##♟
##家
##خ
##ὣ
##♓
##ў
##ᚱ
##ḃ
##∫
##一
##་
##ᚢ
##Ỹ
##‿
##♐
##Ŭ
##ᾔ
##❧
##二
##ꞅ
##🂭
##̣
##ᛆ
##ᴐ
##ṫ
##⎟
##♙
##̶
##Ṇ
##Ὦ
##♌
##ꞇ
##
##Ć
##̵
##Д
##♉
##孔
##者
##Ἤ
##Ἦ
##⎪
##△
##三
##ȣ
##♋
##經
##з
##і
##ى
##⁠
##語
##🂧
##🂫
##🂾
##ń
##ż
##ᾄ
##⊕
##地
##м
##ἲ
##Ὥ
##⎭
##⏓
##┯
##♒
##記
##🂡
##🂮
##🂷
##🂻
##🃞
##ث
##ذ
##ṁ
##⅌
##⎫
##♪
##文
##🃑
##🃘
##
##Н
##ḵ
##Ṛ
##⌅
##☊
##♍
##🃋
##غ
##不
##🃔
##🃝
##ɒ
##͝
##Б
##є
##ᛌ
##Ἆ
##☜
##ꝟ
##🃗
##🃛
##đ
##ź
##Έ
##В
##ե
##ֳ
##ׄ
##ᚿ
##ṯ
##ῒ
##⎬
##⚲
##⭘
##五
##ꝼ
##🃇
##Ę
##Ġ
##Ŋ
##ʽ
##̊
##Ẓ
##∛
##☧
##♅
##山
##庸
##說
##🂨
##🃄
##ɩ
##Ά
##А
##Ԁ
##ṵ
##⎧
##⎩
##上
##何
##卷
##所
##爲
##🂱
##Ĉ
##ɫ
##ч
##ն
##ᚴ
##ἒ
##▂
##其
##禮
##🂤
##🃈
##🃍
##🃎
##🃖
##Ɔ
##ր
##ᚦ
##ḁ
##ṷ
##Ὃ
##╫
##♩
##傳
##🂸
##🂽
##🃆
##🃙
##ƒ
##ˆ
##Ͱ
##К
##ь
##ُ
##ᵭ
##ᾐ
##天
##帝
##🂴
##👉
##Г
##Ж
##ѣ
##ᛚ
##ṡ
##Ἵ
##⎛
##⎝
##╮
##▪
##♚
##下
##世
##也
##六
##年
##🂺
##🃁
##Ŏ
##ŵ
##̩
##Ϙ
##֤
##ṃ
##ὒ
##⊏
##明
##論
##🂩
##🂹
##🃊
##🃓
##🖙
##
##ы
##֙
##״
##Ἃ
##‸
##♜
##♞
##以
##在
##此
##氏
##百
##皇
##聖
##ꝫ
##🃅
##ȩ
##ո
##ض
##ᚠ
##ᛅ
##ᛐ
##ḕ
##ẏ
##‧
##‫
##∓
##⏕
##╭
##南
##可
##考
##🂪
##🃚
##ą
##ɧ
##Ϝ
##Ͻ
##Е
##֨
##֭
##ֺ
##ḡ
##⎨
##♝
##⸫
##且
##事
##史
##成
##方
##王
##相
##縣
##而
##行
##遠
##集
##🂥
##🂶
##🃉
##
##ɪ
##ա
##ِ
##ک
##ܐ
##↑
##≈
##╯
##⚀
##商
##多
##安
##左
##師
##平
##正
##民
##河
##清
##石
##華
##🂢
##ğ
##į
##ц
##գ
##ᚮ
##ᛘ
##Ἓ
##⁞
##⊐
##⎞
##⎠
##╦
##►
##☋
##⚁
##仲
##卍
##太
##府
##易
##水
##海
##顏
##🂦
##🃃
##Ě
##Ż
##Ǝ
##Ǣ
##ɣ
##̦
##̷
##ء
##٘
##ܝ
##Ṽ
##Ἢ
##╔
##╗
##⚂
##七
##周
##學
##寺
##本
##橋
##篇
##與
##🂣
##🃒
##ɥ
##̴
##ͣ
##ͨ
##ͪ
##О
##ф
##х
##ի
##ւ
##֜
##ܚ
##Ὧ
##ᾀ
##↓
##╰
##⚃
##⠄
##ⲏ
##⸪
##但
##來
##八
##叔
##古
##司
##各
##得
##手
##日
##殿
##無
##西
##解
##通
##馬
##ɱ
##ʍ
##Ή
##Ό
##Л
##Р
##ш
##ܳ
##ག
##Ἣ
##ↆ
##∠
##∩
##⌠
##⌡
##╢
##☚
##✝
##✩
##ⲓ
##ⲙ
##Ⲭ
##、
##九
##于
##佛
##作
##光
##則
##又
##名
##塲
##夫
##如
##常
##思
##是
##江
##父
##生
##皆
##等
##續
##證
##道
##非
##魯
##Ɩ
##ǐ
##ǧ
##Ȧ
##ͩ
##Ѣ
##֗
##׃
##׳
##أ
##ོ
##ᚭ
##ḙ
##←
##∵
##⊼
##╘
##╟
##╡
##╸
##☾
##♔
##♖
##♗
##♛
##⚄
##伯
##先
##內
##千
##吏
##向
##孝
##季
##志
##或
##時
##為
##略
##白
##矣
##義
##船
##萬
##開
##陳
##餘
##高
##🂲
##
##
##ĵ
##ő
##ǁ
##ǖ
##ǭ
##ͦ
##Ч
##ҫ
##֛
##ظ
##ٌ
##ْ
##ܠ
##ܡ
##ࣨ
##र
##व
##ᚨ
##Ṡ
##ẅ
##ᾅ
##ᾑ
##‟
##⇌
##⊂
##┰
##┸
##╛
##╨
##♘
##♮
##⛃
##Ɑ
##乎
##口
##土
##外
##州
##心
##意
##新
##曰
##李
##武
##流
##漢
##田
##福
##秦
##至
##致
##表
##被
##要
##註
##長
##陽
##龍
##ǎ
##ǔ
##ɭ
##ɶ
##ˑ
##͒
##И
##э
##چ
##ܘ
##ܣ
##्
##ད
##བ
##ུ
##ᛋ
##ᴜ
##Ἶ
##Ὣ
##⁎
##ↀ
##∝
##∟
##⋃
##⏒
##╞
##◉
##☼
##⚅
##⛁
##✲
##⟙
##代
##冉
##出
##即
##哀
##士
##夏
##孫
##定
##尼
##晏
##歷
##永
##物
##獻
##理
##知
##神
##菩
##薩
##見
##諸
##象
##都
##音
##
##
##
##ţ
##ű
##ɯ
##ϙ
##Є
##֫
##ی
##ܕ
##ས
##ṗ
##ṽ
##ᾆ
##ᾕ
##ῂ
##Ὶ
##ῢ
##ῼ
##⁝
##∥
##∶
##┓
##╥
##▕
##◖
##☩
##♕
##✴
##乘
##仁
##侯
##儒
##列
##因
##圖
##害
##小
##尚
##川
##張
##戴
##拓
##於
##春
##曹
##曾
##治
##法
##由
##番
##異
##祖
##秋
##粵
##若
##言
##詩
##貿
##賢
##達
##釋
##里
##鋪
##關
##阿
##陀
##韋
##黑
##點
##🂳
##🃕
##Ĝ
##ļ
##Ŷ
##Ÿ
##ƚ
##ȫ
##Ʌ
##ͧ
##З
##Ъ
##ј
##Ԃ
##Ե
##կ
##ղ
##վ
##؟
##ܓ
##ܗ
##ܢ
##ܬ
##ब
##ང
##ར
##ᚼ
##ᛂ
##ᛍ
##ᴊ
##ḟ
##⌒
##⎮
##╳
##☘
##✶
##⬜
##Ⲉ
##・
##亞
##亦
##伊
##侍
##力
##加
##博
##原
##友
##合
##嘉
##坪
##奈
##孟
##宜
##客
##宣
##宰
##嶺
##已
##彼
##往
##德
##恩
##教
##普
##月
##服
##木
##梁
##樂
##欺
##母
##洋
##渡
##然
##申
##界
##發
##第
##自
##色
##花
##茲
##街
##觀
##護
##財
##鄭
##重
##金
##銀
##魏
##ꝉ
##ꝑ
##Ꝭ
##🃂
##İ
##Ŝ
##Ũ
##ǟ
##Ȳ
##ɹ
##̉
##Ί
##Т
##Х
##Я
##ж
##ю
##җ
##ծ
##ք
##֩
##֮
##پ
##ܒ
##ܙ
##ܪ
##མ
##ལ
##ᚾ
##ᛏ
##᛫
##Ḡ
##Ḣ
##ḯ
##Ḷ
##ẇ
##Ẽ
##ἇ
##ῗ
##‵
##₰
##⊔
##⋯
##⏌
##┣
##╂
##╚
##╝
##╬
##▼
##▽
##◇
##♁
##✕
##⧫
##⪌
##⸸
##主
##井
##享
##任
##伋
##元
##全
##典
##凌
##分
##利
##到
##前
##印
##參
##及
##君
##命
##和
##問
##嚴
##埠
##好
##守
##官
##尊
##少
##島
##工
##帶
##序
##彌
##彙
##徒
##從
##復
##必
##應
##撰
##敢
##敬
##旗
##既
##昌
##晉
##望
##期
##未
##朱
##板
##栖
##次
##步
##毛
##照
##牛
##特
##產
##甲
##疏
##皙
##祀
##章
##籍
##纂
##羅
##美
##羔
##老
##聲
##能
##藝
##處
##衙
##襄
##親
##訓
##貴
##賤
##路
##身
##這
##進
##邦
##門
##雅
##雲
##頂
##順
##風
##體
##黃
##🂵
##Ş
##Ŵ
##ƥ
##ư
##Ǖ
##Ƿ
##ț
##ɲ
##͆
##͕
##͵
##Ύ
##Ώ
##Ϛ
##϶
##Ϻ
##Ђ
##У
##Ф
##Ш
##Ь
##щ
##ё
##Ԋ
##Փ
##ց
##֝
##֞
##֠
##֧
##ׇ
##ئ
##ܩ
##ܫ
##न
##ന
##ཉ
##ན
##པ
##འ
##ི
##ེ
##ྲ
##ᒥ
##ᕼ
##ᖤ
##ᛟ
##ᷛ
##Ḋ
##Ḏ
##Ṅ
##ṙ
##ẍ
##Ἂ
##Ὢ
##Ὤ
##ᾨ
##ᾲ
##⁐
##∘
##∾
##⊃
##⊖
##⌓
##⎵
##⏊
##⏘
##⏞
##┏
##┻
##▌
##▎
##▐
##◍
##◠
##★
##☥
##❀
##❌
##⦿
##Ⲁ
##Ⲃ
##Ⲛ
##Ⲡ
##ア
##ッ
##乃
##亢
##交
##令
##似
##使
##例
##係
##倘
##做
##入
##兩
##兵
##兼
##准
##刷
##刻
##勒
##勾
##北
##卜
##卿
##厚
##受
##叢
##句
##右
##同
##吳
##吾
##咸
##品
##哉
##唐
##善
##城
##堂
##增
##墨
##夾
##奇
##奉
##女
##奸
##妄
##孺
##宋
##容
##將
##尉
##屢
##屬
##岷
##峨
##市
##廟
##廣
##引
##律
##御
##忌
##情
##想
##慰
##懷
##打
##摩
##放
##故
##敵
##斯
##旨
##昭
##晢
##景
##智
##朝
##村
##東
##林
##極
##榮
##横
##樹
##歸
##沙
##泰
##溪
##漆
##濱
##犬
##玄
##玉
##班
##瓦
##男
##町
##疆
##登
##目
##省
##眉
##眾
##睦
##祿
##端
##紀
##索
##終
##統
##總
##羊
##耕
##良
##蒧
##蒲
##藏
##虛
##衛
##補
##許
##該
##謂
##講
##豈
##賜
##赤
##越
##車
##輿
##近
##遇
##鄉
##錄
##鎮
##間
##阻
##除
##陸
##雕
##雖
##難
##青
##頭
##飛
##饋
##魚
##鳴
##黨
##齊
##Ꞇ
##
##
##Ĥ
##Ĩ
##Ł
##ŧ
##ǡ
##ȗ
##ȱ
##ʊ
##ʠ
##˔
##˕
##̠
##ͥ
##Ϟ
##ϡ
##ϫ
##І
##Й
##Щ
##Ы
##Э
##ђ
##ћ
##Ը
##լ
##հ
##մ
##պ
##տ
##փ
##֒
##֕
##֘
##֡
##֯
##ً
##ٱ
##ڙ
##گ
##ܛ
##ܤ
##ܦ
##ܰ
##स
##ा
##ཁ
##ཆ
##ཇ
##ཧ
##ྟ
##ྨ
##ྱ
##Ꮩ
##ᒪ
##ᗜ
##ᛉ
##ᛒ
##᠅
##ᤦ
##ᴣ
##ᷗ
##Ḵ
##ṑ
##ṕ
##ậ
##ắ
##ữ
##Ἒ
##Ἧ
##Ὗ
##ᾂ
##ᾡ
##Ὲ
##ῌ
##‍
##⁁
##⁓
##⁘
##ↁ
##ↂ
##ↇ
##ↈ
##∑
##∜
##∧
##∺
##∽
##≅
##≏
##⊞
##⊥
##⋂
##⌶
##┚
##┷
##╋
##╠
##╣
##▔
##▭
##▱
##▲
##☓
##♆
##⚎
##⚪
##⚬
##⛢
##✙
##❯
##⟂
##⦻
##⬯
##ⲁ
##Ⲓ
##ⲛ
##⳨
##⸧
##⸲
##⸴
##エ
##ガ
##ト
##ン
##ー
##丕
##丘
##丞
##両
##久
##亶
##今
##伏
##修
##備
##僕
##共
##具
##冤
##凡
##初
##制
##功
##勢
##勤
##化
##匯
##反
##叭
##吉
##吽
##告
##呢
##呼
##唵
##啟
##單
##嗚
##噲
##嚤
##回
##固
##坡
##垣
##垻
##基
##報
##塔
##壓
##壤
##壩
##壽
##夜
##妙
##姓
##威
##宇
##宏
##宗
##宮
##寇
##實
##寶
##射
##尾
##居
##峰
##幾
##庄
##度
##庶
##康
##廉
##廷
##建
##廿
##式
##弓
##弟
##忠
##忻
##恆
##恒
##悉
##患
##悲
##惠
##惡
##惹
##慈
##慶
##憲
##戀
##我
##戶
##折
##拉
##指
##捷
##接
##損
##撫
##救
##敝
##散
##數
##施
##旋
##昆
##暗
##最
##會
##束
##柔
##柳
##柴
##校
##案
##條
##棖
##楊
##業
##楷
##榕
##樣
##歐
##止
##歲
##死
##殊
##殺
##比
##池
##汲
##沉
##洛
##津
##淨
##淳
##淸
##湯
##溫
##滄
##滋
##燕
##營
##爭
##爾
##牟
##狄
##玀
##琁
##用
##甫
##甸
##當
##疾
##的
##皮
##盛
##盡
##直
##真
##破
##社
##祥
##私
##科
##程
##種
##米
##約
##納
##素
##緯
##繫
##罪
##羽
##翁
##耳
##聞
##職
##肅
##興
##般
##芝
##范
##茢
##荀
##荒
##莊
##莫
##落
##著
##葢
##蒙
##蓋
##蓮
##蕭
##藥
##蘭
##虔
##蝻
##蠻
##衣
##袁
##裏
##製
##視
##課
##請
##諭
##謊
##譜
##讓
##谷
##豐
##貢
##貨
##賈
##賊
##賓
##起
##趙
##蹄
##軍
##輯
##辦
##農
##迷
##連
##逸
##遂
##過
##遜
##邊
##邱
##郢
##郭
##鄔
##醫
##量
##鑪
##閂
##閔
##防
##陋
##院
##隆
##隨
##雚
##雷
##靈
##領
##願
##餉
##香
##駐
##駟
##騎
##驛
##鯉
##鷄
##齋
##龜
##ꝏ
##Ꝑ
##Ꝺ
##Ꝼ
##𐅵
##𓎆
##
##Ė
##Ħ
##Ń
##Ň
##Ŕ
##ŕ
##Ů
##ƀ
##Ɛ
##Ƨ
##Ƶ
##Ǐ
##ǒ
##ǥ
##Ǵ
##ǹ
##Ț
##ʅ
##ʘ
##˭
##˳
##̌
##̢
##̾
##ͅ
##ͮ
##Ϊ
##ϗ
##ϟ
##ϥ
##ϯ
##ϻ
##Ј
##Љ
##Њ
##Џ
##Ц
##Ю
##Ѳ
##ѳ
##Ѵ
##ѵ
##ӑ
##ӱ
##Ա
##Զ
##Ն
##բ
##զ
##թ
##խ
##չ
##ս
##օ
##֓
##֚
##֟
##֢
##֦
##֬
##׀
##ױ
##ײ
##،
##آ
##ؤ
##إ
##٢
##٥
##٦
##٧
##ۃ
##ܥ
##ܵ
##ܿ
##ट
##ठ
##ढ
##म
##ल
##़
##ि
##ी
##ཎ
##ཕ
##ཚ
##ཛ
##ཨ
##ཱ
##ཾ
##ྃ
##ྐ
##ྒ
##ྭ
##ྷ
##Ⴤ
##Ꮋ
##ᐯ
##ᐱ
##ᚤ
##ᚩ
##ᚳ
##ᚷ
##ᚺ
##ᚻ
##ᛑ
##ᛖ
##ᛗ
##ᛞ
##ᛦ
##ᴂ
##ḅ
##ḻ
##ḿ
##Ṉ
##Ṓ
##ṥ
##ẃ
##ẉ
##ẋ
##Ẍ
##Ạ
##ả
##ừ
##Ỳ
##Ἲ
##Ἳ
##Ἷ
##Ὂ
##ᾇ
##ᾒ
##ᾓ
##ᾣ
##ᾬ
##ᾭ
##Ὴ
##Ῑ
##ῧ
##Ὺ
##ῲ
##※
##⁔
##⁙
##⁮
##€
##⃨
##℟
##⅁
##⅄
##↙
##↰
##↿
##⇄
##∋
##∨
##∪
##∹
##≍
##≎
##≐
##≚
##≠
##≢
##⊜
##⊝
##⊤
##⋮
##⌗
##⎿
##⏝
##⏟
##⓵
##┗
##┛
##┫
##╺
##▤
##▮
##◬
##☙
##☨
##☰
##☱
##☲
##☳
##☴
##☵
##☶
##☷
##♇
##⚊
##⚋
##⚌
##⚍
##⚏
##⚐
##⚔
##⚫
##⚳
##⚴
##⚵
##⚶
##⛳
##✟
##✡
##➔
##⠁
##⦠
##⦾
##⧧
##⧼
##⨁
##⩀
##⩋
##⩡
##⪥
##⫍
##⫎
##⫛
##⫨
##⫶
##⬆
##ⲕ
##ⲟ
##ⲧ
##Ⲫ
##Ⲯ
##〔
##〕
##ひ
##イ
##カ
##グ
##ジ
##ス
##ゼ
##ソ
##ダ
##チ
##ナ
##パ
##プ
##ベ
##マ
##ャ
##㇀
##㇁
##㇏
##㇐
##㇑
##㇒
##㇔
##㇚
##䷞
##丁
##丸
##乾
##亂
##了
##予
##云
##京
##亭
##什
##仇
##仍
##他
##伸
##伽
##住
##佩
##侃
##侈
##侏
##侗
##依
##侵
##俗
##信
##候
##值
##偃
##假
##偕
##停
##健
##偪
##偶
##傷
##僎
##僚
##儀
##儻
##允
##充
##克
##免
##兒
##兗
##内
##冕
##冶
##冷
##切
##別
##刲
##剋
##剎
##劉
##劍
##助
##勉
##務
##勝
##勸
##勿
##包
##匡
##匿
##卅
##升
##卒
##卞
##卧
##卯
##危
##卹
##厤
##厲
##去
##后
##吠
##否
##味
##呷
##哆
##員
##哨
##哪
##哲
##唫
##喇
##喚
##嘗
##嘴
##器
##圻
##均
##坐
##坭
##域
##堅
##墜
##墩
##墳
##壁
##壬
##壺
##夀
##夕
##夥
##夷
##奕
##奴
##妥
##妹
##妻
##始
##委
##姚
##娶
##嬰
##存
##完
##宓
##室
##宿
##寅
##密
##寉
##富
##寐
##寕
##察
##寰
##寵
##封
##專
##尹
##尺
##層
##屺
##岡
##峻
##崇
##崖
##嶓
##嶲
##巫
##巴
##巽
##帖
##帛
##幵
##并
##幸
##幹
##店
##庭
##庵
##廡
##延
##廾
##弁
##強
##彝
##形
##彭
##待
##後
##徐
##循
##徳
##徵
##徼
##忘
##快
##怒
##性
##怱
##恐
##恕
##恨
##恭
##息
##悟
##悼
##惕
##惟
##愍
##愚
##愛
##感
##態
##慎
##慕
##慧
##懼
##懿
##戈
##戎
##才
##扶
##批
##承
##技
##抗
##抵
##括
##拱
##拷
##按
##振
##捨
##授
##掌
##掣
##措
##插
##換
##揭
##播
##擾
##攝
##收
##攻
##斂
##斃
##斗
##料
##旂
##旅
##旦
##早
##旺
##昇
##星
##映
##昺
##晌
##晚
##曉
##朶
##杜
##松
##析
##果
##柱
##栢
##根
##格
##桂
##梅
##梓
##梢
##棋
##棟
##棹
##楠
##樊
##機
##橫
##欖
##欣
##欬
##歆
##歛
##殤
##毋
##毎
##每
##求
##汎
##汝
##汪
##沅
##沖
##沛
##沿
##波
##泥
##洗
##洞
##洪
##洱
##洲
##活
##洽
##派
##消
##淫
##深
##淵
##減
##渠
##港
##渴
##游
##渾
##湘
##溝
