[PAD]
[UNK]
[CLS]
[SEP]
[MASK]
'
a
b
c
d
e
f
g
h
i
j
k
l
m
n
o
p
q
r
s
t
u
v
w
x
y
z
##i
##g
##h
##t
##r
##e
##s
##n
##l
##a
##c
##u
##v
##o
##p
##m
##b
##d
##k
##f
##y
##w
##x
##z
##q
##j
th
the
##ou
##in
##ea
##at
##er
##on
it
yea
yeah
##nd
we
uh
you
##re
so
##ing
to
##ll
that
##an
##ay
and
##ve
##ut
##es
##se
##or
##it
ha
##en
##st
wh
##ot
in
of
on
##et
but
be
##le
re
##ro
is
um
##ow
##ic
##ke
##is
##ig
have
##ion
##ld
ok
okay
##ct
##ould
##me
li
##ar
for
mm
like
##al
##ed
do
can
##ust
##ink
this
##ht
think
co
##as
just
if
##ight
what
##ch
##mm
##ent
##ly
or
well
##ith
##id
##lly
##oo
not
an
hmm
one
with
no
se
st
con
##mp
mo
sh
kn
are
know
pro
they
then
##ur
ne
don
al
##au
##pe
##hing
ch
there
##ere
##ause
##ver
as
##ter
##ant
ma
rem
##ce
##ill
ab
remot
##ton
##el
button
would
thing
go
right
##ive
remote
##out
##ra
some
cont
##her
##our
use
##ally
##ind
may
at
##ble
rea
##met
ex
tw
oh
mea
##ation
about
all
somet
##if
contro
was
bec
##be
mean
##un
maybe
something
because
control
su
##ir
want
should
wor
us
de
##na
more
loo
could
##ction
look
##op
will
your
##ign
##ich
##ess
which
ll
ver
me
pre
ve
##ge
any
say
te
##ment
po
##nt
see
buttons
two
how
sc
make
sa
very
yes
our
##ck
##ood
des
##ite
need
up
get
tr
##us
really
##og
##so
sor
##oug
qu
##ep
spe
##ul
chan
##est
kind
##art
##ose
##ice
gon
##ate
design
##ol
##pp
##rom
##fer
si
also
pe
from
gonna
ti
good
comp
peop
##ber
people
here
ba
pl
dif
##il
fun
##um
##rea
##ther
##int
got
now
##ide
work
##ab
act
when
out
##eting
inter
other
##ss
##ine
my
##pt
##ually
##ty
function
ca
##ree
things
per
put
##ure
does
dis
time
id
ta
differ
##mple
them
##xt
##ip
##ough
did
col
than
sort
##ect
colour
ever
rec
idea
int
different
##ial
has
gu
##dy
these
##ort
##ven
##ound
actually
cause
##ue
##ain
##ark
bas
every
sp
##ast
bit
cl
##itt
point
meeting
ad
mu
##ard
too
five
##ff
much
##du
##ear
only
basic
eas
##nel
user
channel
going
en
sure
##ire
ag
##act
##way
where
##ition
mark
way
##ace
##ick
##ma
##reen
##ong
new
he
##ity
litt
##one
little
three
who
##ably
##im
yep
##qu
##thing
pr
##right
prob
by
man
hu
##eel
produ
bet
imp
give
quite
##get
fr
fir
let
##ies
probably
screen
bu
##orm
first
recog
##ie
recogn
sha
cur
lot
into
might
had
##de
##and
stu
##ore
##anc
ke
back
##ision
were
##atter
still
##ject
part
##sent
same
##ry
##able
exp
tech
inf
dec
alright
those
most
find
min
##own
ru
##king
guess
sl
spec
take
##age
##ise
even
down
over
##ist
techn
##ssi
tal
next
##ture
##no
cost
##een
##ach
hand
recognition
##om
##ens
##blem
problem
##bo
stuff
easy
start
##ption
rub
##ated
##ech
import
##pl
##ments
ah
four
possi
product
present
num
speech
##ower
##ving
rubber
batter
big
basically
huh
doesn
bl
##cus
again
number
##lev
##ile
try
un
ho
ar
##lf
lo
chip
off
important
project
##ers
interf
kay
minut
scro
fea
##ting
scroll
##ous
le
##son
##th
doing
##ater
res
##ual
curve
functions
##ond
##red
app
##ume
simple
inc
power
##ph
word
interface
fa
##uit
##ms
feature
ind
option
##ical
supp
sorry
true
##ys
##ap
##ever
why
##ell
##reat
##ft
set
used
market
lea
ph
##ult
##cess
exa
##ance
minutes
vo
said
displ
display
##ought
feel
cour
telev
inform
didn
bo
com
add
television
their
discus
each
vol
##ger
ac
##ad
men
##estion
course
come
bot
fin
looking
keep
##ete
##sed
alrea
information
##iv
already
presentation
##nder
##ked
volume
controls
case
##ash
dev
##ush
wan
top
done
question
better
##are
anything
##body
exact
##raw
fif
nice
colours
wanna
op
##other
thought
using
def
##ert
##olog
af
##atch
under
inst
##fore
thr
whatever
example
everything
exactly
fl
last
another
change
through
end
tre
wr
##enty
draw
el
eu
having
thir
pret
voice
##ri
menu
euro
sy
whole
push
##ype
technolog
##ious
##ary
cool
anyway
six
trend
person
sma
before
pretty
been
working
na
requ
shape
##ning
twenty
##gra
looks
ev
##astic
dun
##ord
##ru
after
har
small
dunno
isn
require
fo
possible
##cond
ext
discuss
long
##oup
battery
dat
press
many
##ead
##vel
stand
##alu
##ence
suppose
fanc
##ish
##ctr
##ud
##ful
tra
##cept
thank
defin
plastic
##kes
##ular
mater
##eak
interest
else
special
line
sign
functional
betw
material
hig
##cent
wheel
hard
##ack
between
light
able
fruit
easi
ob
mod
adv
evalu
fancy
play
##onent
data
sound
second
device
less
yell
component
thinking
gr
progra
enough
fe
tur
##ether
real
yellow
##row
ele
##ways
gen
##ia
##io
percent
side
##self
whether
compl
##ensive
curved
##enc
always
##ific
fash
rat
seven
made
talk
fashion
speak
cons
##les
eight
though
twel
cor
channels
signal
watch
fifty
##gy
seg
gener
twelve
##em
##cu
cover
sell
show
##pect
means
wa
buy
expensive
both
great
features
tell
definite
fact
##ount
toget
##ang
together
wouldn
marketing
talking
##earch
around
ten
##ium
sol
##pend
##elete
dou
##ag
ener
##lder
##vious
##inet
##itch
br
sw
energy
##wh
youn
high
left
extra
##ics
concept
definitely
tit
ins
rep
##ative
red
##mo
reg
am
dire
comm
ideas
agree
thirty
ban
options
fine
moment
words
technology
compan
telete
saying
syst
teletext
##ild
ones
move
least
board
form
interesting
turn
##ans
##ically
price
specific
prot
being
spong
jo
banan
guys
group
mic
won
open
euros
double
roo
##mes
##ouch
##ense
advanc
incl
##por
##par
docu
banana
kinda
call
advanced
vide
happ
half
main
depend
standard
company
spongy
video
det
es
chang
rather
titan
sing
##eap
##where
cheap
titanium
##ially
##ility
components
possib
sense
log
year
##ations
slide
numbers
separ
cert
##iew
##ze
##ither
trans
decide
acc
certain
##ory
batteries
few
micro
decision
single
##ruct
fre
far
name
ima
diff
without
##vent
works
away
sour
ter
touch
program
switch
comput
em
##od
##ass
##ider
##ided
makes
type
creat
norm
ow
inno
remotes
model
must
##ange
send
black
##gr
choo
cr
evaluation
file
##ating
intern
system
own
haven
clear
requirements
protot
innov
lose
soft
once
white
str
either
fra
##ible
##mber
##idd
sele
hold
diffic
##iver
##ward
room
##ail
microph
##mit
##ides
users
infra
underst
separate
run
rel
seems
quick
source
aud
cent
everybody
##imal
costs
##ase
technical
ema
la
tar
##ouse
process
shouldn
hope
##teen
##sion
##ute
such
save
difficult
age
mind
read
##porate
found
speaker
pen
##rent
wanted
bad
list
forty
const
page
##sing
##eri
##ont
##mpl
che
prefer
research
##ek
instead
email
spectr
current
choose
prototype
kinet
##not
itself
##ndred
hundred
trying
##ude
making
##elp
electr
reme
consider
understand
easier
remember
fit
##ones
##ustr
getting
never
char
somewhere
write
kinetic
##ings
##ied
obvious
logo
frequ
cir
##icated
partic
##aps
solar
direct
says
inte
key
setting
circ
goes
useful
inside
brea
ro
ut
##pes
designer
ga
nothing
fair
fi
later
sub
based
close
av
its
perh
##ages
round
within
needs
record
##board
utter
hour
##ten
##ces
##ices
front
decided
finish
##ivid
wait
da
help
##ress
ask
lost
personal
perhaps
wood
animal
actual
day
pic
yet
##gg
phone
view
she
given
level
trendy
individ
crit
##mil
bel
##ari
mach
att
frequenc
mone
summ
incor
segment
normal
money
##ier
##lex
place
build
fil
mill
sk
reason
integr
met
tas
##ines
text
times
##iend
comes
terms
task
##ention
seen
points
bott
break
old
mob
general
imple
mult
##vour
##wise
aspect
depends
programme
microphone
##ract
veget
regular
electron
otherwise
friend
bud
frame
bottom
sin
##po
##ero
stick
usually
audio
target
##put
##eam
##ors
implement
##day
controll
favour
budget
##ware
rece
##ctions
inde
computer
sens
##gine
conf
ass
plus
complete
mouse
zero
expert
check
best
fig
##eable
ord
settings
iss
code
necess
devel
segments
include
eff
##less
orig
younger
innovative
picture
mobile
develop
fu
nine
wind
##eal
##ict
##uring
loc
young
##iddle
origin
hear
##ities
beep
click
dig
dist
er
##ves
espe
infrared
individual
cannot
complicated
document
espec
cust
cell
gra
prof
result
watching
since
easily
favourite
especially
rest
ser
often
meetings
blue
supposed
sounds
obviously
matter
##per
##rop
care
table
print
univer
industr
circuit
custom
cra
##ates
wasn
##ieve
fifteen
cat
middle
team
##ta
##sal
##ome
tha
parts
industrial
cas
mis
pay
##gin
frequency
figure
##all
web
conc
size
base
perf
functionality
digit
pap
##ions
almo
##arent
flat
avail
coup
coming
couple
pick
##ager
station
##ences
criter
sample
simpl
fix
par
##ye
week
anal
plea
experi
slides
final
materials
bright
cal
sm
sugg
train
happen
friendly
almost
aut
count
tot
exce
came
everyone
questions
##rib
object
particular
bro
cut
lar
##ale
##ering
##iple
##imes
expl
load
phase
box
comb
report
changing
original
available
aim
##era
##med
limit
topic
trends
bring
select
order
mention
##sure
##ness
manager
gi
stay
sometimes
focus
ear
fur
lear
##sh
##part
##oth
track
documents
window
dark
test
cod
stra
##unch
##pping
simil
band
difference
clo
leave
machine
car
ra
ready
gotta
access
similar
low
sent
squ
##ution
prov
spend
##ances
thanks
universal
criteria
ent
mess
tool
complex
##ables
presentations
folder
corre
format
quickly
smart
fast
mon
version
unit
spectrum
today
previous
putting
possibly
gl
mat
##lic
while
someone
class
discussion
internet
construct
incorporate
dy
range
sur
##iz
wants
home
discussed
imagine
aver
pie
val
wi
went
conn
somebody
scale
tri
production
instance
please
mar
##nch
##man
begin
step
years
ty
##cul
##ove
rech
##itional
gives
##ised
joy
software
completely
dyna
search
contin
plan
takes
manage
resp
electronics
profit
rechar
his
sit
##itive
##stick
slight
covers
##fort
wha
measure
selling
results
average
##gor
##ee
##ork
aren
alph
pres
##itting
shall
appro
oper
wrong
programm
##ructure
##point
joystick
link
throw
##ren
##ank
##ify
looked
space
third
includ
triang
##hod
##work
taking
phones
method
analys
calcul
older
##ib
alth
allow
cam
keys
powerpoint
devices
create
files
million
controller
although
green
pu
wond
##ient
sevent
child
##ately
##ability
##wards
effect
value
##gon
##sor
##nda
repl
anybody
pos
products
command
whiteboard
alpha
et
mute
ug
vis
wid
##llow
structure
saw
slog
fairly
drop
eye
##ced
##eat
appear
follow
integrated
receive
card
sever
ident
manu
instru
believe
suggest
width
slogan
several
lines
##to
##ron
sty
absor
exist
expect
conceptual
detect
possibility
selection
issue
autom
wire
##etera
##ops
paper
ed
##fact
##que
drawing
##ording
corporate
according
image
lapt
automat
brow
div
him
mor
mine
oo
relev
worth
meet
shapes
lots
decisions
utterance
cate
dial
equ
lay
sch
##side
##ump
##more
##fu
soon
input
noise
cho
couldn
gets
bigger
running
vegetables
learn
manufact
del
##pose
##ern
shot
anyone
problems
coding
straight
square
slightly
aff
ninet
rad
unt
##ior
##lish
score
job
large
##fully
ly
pur
##ken
##ator
##ote
##mples
increa
evaluate
direction
indeed
ugly
bra
rate
##ax
forward
worked
##umb
lead
flip
lights
amount
called
summary
casing
perfect
further
beginning
ooh
lunch
pop
##iting
handed
##ivity
feed
utterances
bus
head
##ug
##xim
beh
post
##iled
account
agenda
spectral
sensor
lab
##how
##hip
##ser
##aint
##bit
thumb
forget
stop
##sol
sixt
impro
recognis
sixty
interested
higher
##arily
analysis
until
during
ye
##over
##ped
##ons
reaction
worry
happy
lang
match
pages
##rew
##resent
##ission
somehow
reach
outside
sorta
##ffee
findings
##istic
represent
ergon
sixteen
langu
ergonom
##gth
##li
##py
##ality
seem
hopefully
preferences
piece
seventy
##ci
##eas
coffee
##cking
disc
clust
talked
started
ahead
cheaper
certainly
directly
full
explain
recharg
ninety
lyman
free
gal
wow
##lier
##ah
told
wher
##ook
temp
synch
strong
necessary
event
mi
##sw
##view
answ
store
##ational
adj
enter
hey
chips
broad
continu
position
##apping
##lling
##llent
designs
unless
minute
##ript
nah
multiple
cells
excellent
combin
mentioned
management
absorption
late
lower
##ique
##av
##ared
##ved
init
onto
coll
notes
mode
short
exc
designed
ball
handy
technologically
personally
detail
finished
entire
approach
triangle
adjust
fill
##ems
##ny
##mon
along
tried
hell
art
player
digital
galax
whereas
gre
##ner
##cur
##sel
##led
##ross
goal
anymore
designing
took
televisions
opin
fruits
commun
essent
models
totally
fing
ip
ret
##ew
##ection
##line
##ues
thi
##rodu
tele
added
strange
directory
vegetable
laptop
grey
fut
lin
pract
var
zap
##gle
##aces
tend
script
needed
simp
output
produce
apple
series
earlier
children
radio
communic
ipod
bur
pan
##got
##iness
##ret
becom
meant
quality
##ilities
bits
arrow
menus
finance
summar
automatically
##selves
mot
##ditional
##oring
asked
arr
curves
feeling
skip
necessarily
##iction
morning
language
area
face
len
nat
parent
dog
docking
moving
##ified
gone
introdu
guy
spl
ada
shaped
comfort
traditional
consum
emission
dynamo
deal
##ses
##lo
##ailed
##fe
forgot
copy
algor
##naire
mem
fru
supple
questionnaire
detailed
related
days
attract
customers
correct
connect
types
replace
relevant
rechargeable
length
bea
led
oc
##end
##cing
##ope
knows
absol
depart
yourself
##ogue
sil
topics
smaller
seconds
changes
transmit
pictures
training
simply
algorith
absolute
bul
est
pot
##back
redu
##iding
willing
however
desc
##pped
myself
env
finding
overall
blink
appeal
examples
flash
advant
below
reasonable
improve
synchron
opinion
various
fruity
apart
bar
opp
##ling
##up
##os
##br
cable
prior
shared
mostly
overl
blank
longer
creativity
rob
dur
her
wer
##old
##zy
wel
##ising
nobody
above
##ift
activ
enc
ways
hands
unique
apparent
signals
particip
assume
month
future
adapt
memory
house
im
##ux
##mb
##ky
##res
##ird
plug
others
apply
fits
aspects
graph
total
limited
clock
provide
instructions
style
dialogue
panel
department
hil
##ext
mov
context
##ogra
##istics
corp
depending
international
innovation
charact
message
existing
choice
feedback
teleph
weren
apparently
fore
ic
ju
non
sle
##ience
##tas
##sus
##come
##oud
##rase
contra
starts
starting
##ership
scrolling
phys
finally
pressing
wheels
systems
processing
incorpor
issues
heard
wonder
participant
fal
kid
opt
oops
past
pack
##gan
##ock
##vest
coach
##ural
##ters
stud
support
common
microphones
brightness
hello
algorithm
corpus
sitting
##vig
##ying
thin
##ean
invest
##icity
##mped
except
slow
love
navig
factor
insp
mainly
sends
restr
increase
leadership
posteri
answer
elder
med
tun
##cetera
##ays
refer
##ently
anno
sta
stat
star
proper
##tern
mail
maxim
##rap
##bert
##ream
spea
eng
huge
share
acqu
fashionable
happens
role
electronic
etcetera
split
welcome
hilbert
pitch
pass
##ian
##ize
##sen
whist
conver
world
yours
envel
voc
thoughts
requirement
eighty
generate
concepts
sheet
millise
integrate
glow
links
camtas
advantage
envelope
camtasia
hi
lit
net
##lus
##uck
##vy
##oid
##dd
thous
##ional
dom
prep
seeing
compress
prim
minim
writing
gave
distrib
latex
occur
false
speaking
millisecond
thousand
ease
wal
##gory
##lt
##oun
##icient
become
##iron
trick
kinds
applic
define
normally
relative
centre
subject
windows
effective
category
ergonomic
environ
smo
##light
##amet
offer
likely
doh
##ents
stage
shift
remove
upd
funny
basis
##ief
minus
importance
feels
changed
##ground
charger
damped
building
multi
paramet
behind
comfortable
character
environment
book
pet
rid
sides
##ges
##ror
##but
thre
##ene
##asar
organ
annot
state
prom
propose
maj
quasar
losing
pushbut
solution
region
groups
##idden
constra
machines
receiver
concern
including
recognisable
becomes
estim
kids
english
hit
hidden
lat
mist
rab
##gn
##vol
##eath
weight
##lls
life
note
##itten
agre
news
impo
frustr
indic
adding
thirteen
playing
opening
audience
listen
gaze
cases
perform
simplicity
experience
combine
giving
included
received
clustering
practical
major
pushbutton
rabbit
fire
hea
hon
zapping
##action
##by
##ined
towards
triple
taken
recover
manual
additional
requires
functionalities
covered
possibilities
tools
dynam
programming
pub
wondering
commands
supplements
annoying
maximum
ach
hy
hum
mil
##iar
##ily
##ps
##pid
##eto
##iced
stere
sho
compare
compared
##abul
disk
stupid
##uitive
displays
across
written
generally
agreement
clearly
recording
hours
miss
figured
##medi
smartboard
marked
popular
details
overlap
contrast
restrict
boring
ce
cetera
gest
paint
vari
##geting
##ming
##raid
##osed
engine
##ield
background
famil
displayed
afraid
technological
shows
showing
creative
fronts
digits
papers
##shold
carri
##ization
categor
layout
manufacturing
afford
brand
continuum
combination
initial
##load
attractive
silver
threshold
impossi
flex
field
ge
kick
rough
##gs
##ging
##ster
##chang
##mmick
stream
chun
veg
compet
screens
recognise
handle
keeping
wrote
eleven
brief
simpler
gimmick
messages
surf
##ibr
following
affect
purpose
finger
natural
movie
sleek
agreed
honest
stereo
di
goo
near
pens
##iant
##ral
##neath
##ety
##isation
##ales
cha
therefore
twice
uses
##cket
##using
##ips
spin
unfort
lemon
fam
underneath
harder
wave
frames
holding
targeting
locator
grab
careful
teamwork
visible
equip
sche
##ledge
essentially
beaut
absolutely
bulb
months
physical
smooth
##changeable
unfortun
dump
ful
kep
sat
##hood
##ne
##ac
##ob
wee
tom
reck
seb
prop
god
super
sudd
versus
ourselves
cap
colourful
intuitive
hasn
held
ruud
afterwards
required
defined
modern
brill
extract
transl
dave
independ
developed
development
fixations
experiment
happened
presum
galaxies
burst
immedi
investig
familiar
impossible
kept
reckon
sudden
dr
dete
hop
hang
kate
mass
war
##go
##ueto
##form
##onse
##isf
likeli
sec
knowledge
asso
remo
suc
compar
ago
blueto
feas
consist
charge
attach
implemented
assign
objects
particularly
respons
response
operating
calculate
visual
manufactur
label
telephone
posteriors
domain
characteristics
constraint
equipment
fulf
sebast
brilliant
associ
bluetooth
aw
ampl
emp
jav
nite
pad
##dle
map
prec
spon
pointing
shake
technically
arg
##phant
financ
##ival
extend
discussing
easiest
realise
elephant
buying
doub
regard
separately
location
cradle
webs
fixation
excel
larger
bands
accessible
matth
descri
flashy
opposed
elderly
distribution
milan
cele
scheme
unfortunately
likelihood
actions
diction
erase
wo
##gest
##bed
inj
##ident
ant
nope
##antly
##ference
##abor
backup
##ensity
against
datab
lighting
tells
brought
specification
transform
saved
preference
currently
consideration
avoid
filter
confusing
customer
missed
conclus
paris
connection
reduce
robust
whistle
walk
carrier
presumably
java
matthew
celebr
action
bunch
catch
luck
pin
pink
##tle
##ries
##ping
theme
##oured
sum
dem
anywhere
##ula
nowad
buil
sets
symb
names
##iod
speakers
repet
animals
frequencies
fixed
surve
wik
continue
respond
busy
galaxy
transmitter
potent
vocabul
primary
minimum
application
feasible
symbol
vocabulary
dim
hor
mer
sess
valu
##imet
##aced
##word
##ato
weird
##lled
##itude
invol
review
convent
##ury
remind
##iful
usual
usability
screw
desk
comprom
interchangeable
coloured
cloth
block
turns
standards
config
crazy
aiming
carry
measures
array
network
latest
spinning
satisf
hoping
sponge
nowadays
built
dimens
ble
crea
couch
density
sales
wise
##iour
##iable
##hes
##spect
##vid
##pr
thick
##ndo
soph
##iture
liked
##chan
section
chose
trou
speed
##ules
##ulation
##umin
spot
##ired
download
biggest
blah
powerful
bob
##ried
##ios
switching
crash
cents
reading
keyboard
david
levels
distance
missing
suggestion
closing
##ized
pressed
operate
equal
behav
media
achieve
beautiful
detection
sebastian
dictionary
database
repetitive
survey
compromise
behaviour
dot
ell
hot
ir
pa
ran
ult
##ime
##ipping
##orrow
##ism
nok
sender
stress
contain
wanting
mechan
pred
##oles
places
interact
idi
##fficient
address
evaluated
turning
specifically
centimet
error
craig
weeks
early
raw
complexity
pieces
suggested
wireless
browser
divided
essential
scripts
introduce
connected
graphical
##ograph
optim
prepare
tricky
effectively
dynamic
categories
suddenly
financial
website
conclusion
du
dro
jog
jump
weak
##te
##niture
##cial
##mine
##esign
##etic
##ishing
orange
notice
shar
align
altern
##vert
asking
master
excu
worried
tie
capt
tape
clay
minimal
specify
presented
respect
displaying
bother
technologies
extent
players
grip
element
percentage
showed
redesign
computers
internal
labe
gamm
index
assum
counts
broken
furniture
approxim
programmable
##ibility
camera
layer
discover
excit
fingers
linear
communication
consumer
priority
inspir
liter
public
human
demograph
values
trouble
nokia
idiap
excuse
bal
cute
dan
dead
fish
gau
nar
port
rout
##rate
##ca
##ded
##atic
whoo
ref
live
##lying
straw
knew
contact
deg
demo
plate
plates
interaction
period
everywhere
mango
decod
##isticated
optional
boss
synt
corner
watches
telling
movement
segmentation
metal
sensitive
effort
distin
##ropri
cats
experiments
cutting
strain
planning
pull
identified
shots
initially
collect
modelling
motion
parents
parental
stamp
acquaint
gesture
google
immediately
fulfil
injury
session
sophisticated
alternative
narrow
strawber
aye
bear
ol
rand
wou
wide
wrap
yo
##iqu
##han
##cked
##of
##dated
##ks
##zing
item
##ctor
sequ
known
##elt
mayb
designers
tim
outdated
rule
fall
install
##gram
##ification
term
centred
considering
circle
roll
individually
tasks
controlling
confu
loads
loading
learning
correl
programmes
allows
allowed
identify
browse
relevance
recogniser
tempor
communicate
durable
navigate
compression
parameters
organic
independent
success
deskt
creating
random
boo
bird
cross
eh
eat
jan
loud
mid
pal
pus
pound
via
water
##ipped
##ged
##am
##vin
##val
##ature
##room
living
##aser
concent
nee
neither
chr
magn
meaning
samples
ours
plenty
acts
themselves
##iph
hash
cloud
stuck
fourteen
appropri
accept
flux
videos
logic
sending
prototy
closed
recorder
attention
tracking
glob
choices
brain
cluster
artic
arrows
tune
milliseconds
relatively
subjects
concerned
estimate
heavy
shoes
family
tomorrow
clothes
centimetres
assuming
inspiration
synthes
dia
delete
felt
hist
lau
mush
patter
sna
vote
wish
##ring
##ns
##lab
##bles
##for
##llar
##arm
##aries
dollar
angle
self
cond
conference
convin
modu
neb
alarm
dema
scr
scen
upper
##read
interp
recon
advert
##imin
stands
obser
solid
highest
title
boards
specifications
deter
games
controlled
fully
serious
printed
analy
faster
units
matlab
typ
edge
delay
deliver
scores
ergonomics
consumers
leds
forest
incorporated
update
annotation
mista
pushbuttons
engineering
ultim
desktop
module
demand
bound
boun
fant
gad
hide
ion
ni
nich
neat
pear
ri
zoo
##ugg
##mant
##set
whe
rect
conven
shell
prog
##pel
##ived
content
excess
extern
upon
treat
##pple
disag
clean
manag
costly
interfaces
resid
fac
##rible
modif
waves
extraction
ami
opened
transm
lapel
framework
confir
tracker
searching
situ
throwing
identity
expected
automatic
exciting
goals
retur
linked
##ressed
navigation
roughly
drive
comparing
sharp
demographic
##cape
pushing
christ
appropriate
prototypes
nebula
gadget
cord
dra
ey
hur
sme
sar
vibr
##ilder
##gen
##rit
##si
##sy
##let
##zer
thes
online
##mend
likes
##arant
##mming
##ool
ang
ste
mold
shel
contrib
usage
seemed
scrap
##esth
sim
plain
##ured
tam
intell
guarant
basics
prices
builder
hadn
deciding
supply
finishing
##erties
flipping
standing
signific
hardware
generation
solve
highlight
regions
escape
computation
choosing
strate
central
considered
waiting
wooden
local
versions
triangles
positive
laptops
sched
events
mix
dealing
potato
describ
quasars
flexible
properties
secret
manufacturer
constraints
associated
precise
gaussi
pounds
fantastic
niche
convenient
external
confirm
eyes
shelf
aesth
bought
cou
date
dash
ec
fest
ja
kil
mus
nu
pat
rank
site
till
##rary
##eet
##lu
##ave
##cut
##vable
##ode
##pad
##eapple
sold
##oting
##isk
forth
##enth
noticed
novel
shou
shop
propo
proof
ability
gosh
##unction
quant
whenever
sport
spread
producing
impress
study
guessing
lock
phrase
body
drawn
drawings
##ruction
extre
definition
hardly
turtle
insert
comment
companies
protect
transist
acco
sources
terrible
embed
strip
charging
keypad
helpful
critical
skin
sensible
beeps
eraser
codes
mono
math
presume
browsing
division
meets
straightfor
representation
eventually
mike
collabor
retr
becoming
synchronization
activate
incorporating
student
inspired
acquis
massive
pineapple
symbols
bleep
ellen
dropped
degree
oliv
sequence
confused
mushroom
condition
zoom
disagree
return
sarah
festival
kilo
straightforward
ama
cow
hom
ped
pil
sun
yay
##ix
##ev
##sa
##sp
##ame
##app
##ule
##oc
tho
##itors
##etch
##icate
##ises
##igh
##ases
asse
asci
##ives
telly
##mental
tail
sorts
recom
clap
wherever
probability
manually
firm
party
minor
slash
legs
powered
fail
setup
##rix
anyways
focu
elements
fashions
eighteen
##aging
highly
joe
changeable
##ationship
fewer
french
understood
relationship
emails
recorded
helps
views
attrib
multip
documentation
univers
broke
focusing
provided
matrix
cards
instruction
widths
stylish
detected
divide
continuous
motto
introduction
supplement
blinks
appealing
##ogram
package
properly
convert
occurs
performance
restrictions
describe
merge
suggestions
literally
balance
palm
synthesis
scratch
interpret
rectang
residual
situation
intellig
strategy
schedule
acquisition
ascii
recommend
drew
fly
hier
lack
mould
ou
pause
peak
tea
tel
##has
##ners
##vo
##ple
##bble
##yc
##atible
##erate
##ets
##arch
forms
consen
ali
mando
react
desire
trig
chance
##pper
siz
peg
compatible
plugg
##iles
interru
clip
produced
beta
implic
expand
decrea
sliding
arbit
resour
phil
##ology
##udge
turbo
dependent
images
reliable
sketch
##poses
efficient
developing
locate
originally
grand
crap
squish
steps
appearance
instrument
purple
furthermore
business
adjusting
synchronize
duration
activated
icsi
mister
investigation
wiki
potential
involved
mechanism
distinct
strawberry
concentrate
##iphone
scenar
reconst
thesis
extreme
pedro
focused
hierarch
ap
air
aware
ben
beam
cu
celp
dut
gain
iron
jus
nic
ring
rain
rules
roles
wast
##iation
##imming
##ted
##sc
##lied
##vice
##bing
##ining
##rel
sof
##ites
rew
##mmet
alt
alone
##ault
abst
somewh
worse
spect
activity
perspect
puts
tap
sorted
recent
recently
spo
clapping
marking
impact
techniqu
unc
appar
leaving
leaves
addition
finances
nicely
flu
discussions
rating
ratios
among
turned
transfer
fresh
switches
lazy
electrical
keyword
picked
programmed
implementing
checking
ordin
circuits
figures
##allel
parallel
reports
testing
raid
sentence
surpr
recharge
camer
seventeen
purposes
increasing
artistic
summarise
telephones
wonderful
students
lovely
prepared
parameter
petr
promin
warning
responsible
awes
empty
regarding
celebration
conventional
configur
capture
clouds
dollars
convinced
secretary
music
sports
amazing
consensus
interrupt
resources
techniques
bes
cinet
der
dice
gun
hun
hate
ign
jean
ki
lumin
oth
pain
win
wear
wider
##ections
##ned
##ler
##liness
##und
##use
##mn
##bow
##iny
##att
##atus
##ingu
##utral
##its
##itor
##othing
cos
##ches
neutral
mac
mak
##ceed
##raff
##ifunction
deep
demon
silly
gotten
outline
cach
ideal
spent
pointed
enh
curvy
overview
uncur
resol
resist
falls
flo
flag
elimin
afterno
standby
corners
factors
swap
repeat
comments
calling
cheapest
transc
accur
accident
cheers
game
subm
sky
breaks
multifunction
beeping
picks
country
explan
ordered
giraff
##sheet
tracks
tested
closer
lowest
corresp
previously
classes
methods
calculator
appears
##like
entirely
correctly
encode
icons
posterior
medium
statist
environmentally
variety
chunks
briefly
surface
investigate
emphas
argue
anti
celebrate
irrit
prediction
labelled
gamma
correlation
temporal
determine
mistake
progress
significant
highlighted
gaussian
proposal
spreadsheet
embedded
trigger
plugged
squishy
rainbow
somewhat
apparatus
cameras
awesome
cinetis
demonst
uncurved
correspond
aur
bi
bene
cush
die
gy
ill
jord
mir
oug
risk
sn
son
ts
tick
##gant
##tain
##round
##efficient
##land
##cious
##uary
##vant
##mark
##xy
##jo
##oura
##ators
items
##nded
##ane
andrew
##ormed
##ica
##key
libr
##ustry
cov
stur
stren
shown
nei
cher
##verse
thingy
##outh
becau
##unity
##unky
sufficient
##oph
safe
ups
qui
##ulate
tip
placed
##aby
outer
disad
dissol
##ortunity
cla
##itted
adult
marks
prin
bye
manip
recognize
curv
express
info
influ
decor
decent
specified
##ptions
fourth
numer
industry
markets
pushed
fancier
speaks
generated
moved
transp
relea
quicker
dama
expertise
funda
simplest
simplistic
entity
classical
surround
exists
expecting
wires
edges
schem
answers
combined
exclus
arrange
nathan
dogs
blinking
opportunity
physically
tuning
indicate
competition
competitors
removable
attached
labels
amplitude
argu
potentially
excitation
stamps
acquainted
successful
january
brainst
launch
guarantee
retrie
olivier
intelligent
decrease
arbitrary
scenario
dutch
rewind
perspective
configuration
cosine
cache
afternoon
multifunctional
giraffe
benef
ought
strength
disadvant
due
gir
hoo
judge
lith
nor
night
pity
rich
tough
vi
vir
##iers
##gh
##ght
##hold
##tion
##nes
##lies
##acing
##yond
##atory
##erc
##ndem
##utions
##ora
beyond
##lect
##iger
##arse
dol
cop
##iday
stages
kno
als
##peech
mael
##illed
useless
exerc
someth
preview
upgra
tied
bag
perl
dispo
disapp
tandem
intention
guill
spam
clunky
hemant
hubble
bull
keen
expense
specially
technique
##omb
rubbery
arch
offic
projects
incre
informative
keeps
default
ends
elabor
harmon
fold
trade
modify
evaluating
gran
elegant
conscious
brings
joint
rooms
transition
created
law
constantly
##mpling
breaking
damn
##ariance
filters
skimming
reasons
texture
olds
experts
serial
calibr
happening
countries
selected
mentioning
raj
raised
connections
steph
recharger
sits
equival
##lished
bracket
languages
stored
balls
approaches
areas
replacement
silence
encod
household
movies
reference
statistics
password
vocal
frustrations
listening
flexibility
chair
proport
manufacturers
filtering
convention
blocks
satisfaction
chosen
excited
decoding
magnitude
global
typical
ultimate
aesthetic
conditions
assemb
university
abstract
keywords
besides
floor
statistical
aurora
jordan
mirror
covariance
sturdy
lithium
equivalent
bh
bat
cau
cru
dar
dear
dict
fro
fidd
grow
hm
hol
mut
mes
none
oval
pas
psy
ron
rot
rare
sea
sque
tight
tenth
##tical
##speech
##ak
##cr
##omp
##book
##dnes
##fl
##fety
##zz
##ery
wednes
habit
revol
##roo
ish
##ctile
##mmy
sexy
stable
story
knowing
chi
##tered
abund
worst
usable
deb
meg
member
pocket
scal
saving
safety
desi
trust
##ulated
##ppy
peel
funct
funky
interior
interview
interspeech
tast
tactile
##iped
recap
guide
pointless
admit
surely
whoa
frank
lets
backwards
backlight
export
finder
overr
overwh
##achary
presenting
numbered
unl
marketable
acron
flick
throughout
symmet
##grams
traject
advance
reality
fashioned
watched
wall
separation
imagin
compute
norman
internally
string
strict
processor
construction
friends
sensors
profess
experiences
trained
explore
cars
raise
similarity
provision
entrop
glad
glass
margin
marbles
operation
includes
calculation
calculated
suggesting
detecting
accordingly
morse
school
inputs
learned
leader
shortly
filled
##rete
summarised
forgotten
robin
activation
forever
paste
referring
property
updated
proposed
honestly
translate
consists
consistent
doubt
satisfied
crashed
equals
interactive
gammas
acquaintance
booking
##cutive
pilot
implications
extremely
hierarchical
nicer
spectro
##attachary
sony
cherry
claim
brainstorm
exercise
bhattachary
psych
squee
wednesday
overwhel
acrony
bhattacharya
bin
bun
bri
beat
cables
dw
dad
fab
fitting
grea
gap
kidd
land
mel
mond
mari
pure
ray
tiny
undo
vary
##ien
##iest
##imed
##tically
##rot
##ric
##nek
##lude
##lined
##air
##cer
##omet
##pean
##mas
##bur
##zen
theore
##inbur
##aten
##ather
##ercial
##ndra
##reg
invent
##eted
bee
door
coefficient
anna
sector
states
##mpag
shock
neg
chat
chall
##ills
##illa
##ourg
exe
suit
suspect
dep
##nable
loose
vera
verb
poly
sad
sale
sampling
##cks
triphone
##usoid
##ogether
##soft
quar
##ulty
silic
actu
active
disp
disable
differently
bass
span
client
clothing
produces
frib
friday
bug
##ores
kendra
slick
slider
species
unus
loss
leg
##phin
faces
falling
phot
phases
voices
wrist
european
smac
lightning
modes
modules
programs
##ency
ratio
eighties
generating
directions
agreements
moves
movements
protection
separated
microsoft
named
difficulty
runs
constant
##ontal
frequently
circular
film
mobiles
friendliness
sinusoid
sticking
assump
profile
server
criterion
limitations
stays
providing
constructs
##izontal
marlo
profits
preser
thrown
styles
absorber
detector
edition
edible
edinbur
brown
diva
worrying
represents
combining
artist
practice
tends
summaries
summarisation
redund
improvement
herve
encoura
applying
panels
studies
occurren
annotated
frustrated
indicator
dynamically
hynek
nearly
champag
grabbing
capac
pads
elephants
woah
wikiped
horse
horizontal
reviewed
dimension
ranked
contains
dull
alignment
labelling
whoops
reflect
decoder
pattern
patterns
boundaries
bounce
modifiers
contribution
describing
path
novelty
transistors
stripes
teach
desires
altogether
prominent
derived
ignore
enhance
transcri
accidentally
irritating
illumin
princ
exclusive
virt
dolphin
dispos
elaborate
revolution
spectrogram
marius
challen
fribourg
marloes
edinburgh
champagne
wikipedia
apr
cart
cum
cred
din
dio
east
heal
hook
jig
jas
jun
kit
lect
lux
mart
mount
nort
pi
pau
sight
sate
ton
tone
tang
wing
##gic
##su
##lear
##page
##ba
##yn
theory
##ered
##erning
##onom
##relev
##llite
##utes
##esc
##orn
hav
whil
##eth
bells
##icked
##iser
##issa
##cted
lie
##arf
dood
thinks
cold
##asing
##ashing
##mmod
sev
##aught
remain
contents
exit
##ationally
sometime
became
sup
vertical
prepar
teen
scene
dest
qual
til
##ila
dislike
spaces
##male
newer
probab
letters
bump
sli
slim
handling
hole
holder
office
lef
resem
appre
voila
bold
adds
##ivate
opens
instantly
fla
lasting
ended
drawer
europe
extens
trap
traps
grips
female
realistic
##enced
sells
solved
##while
commercial
logical
computing
creates
internationally
relax
lamp
badge
checked
hundreds
understanding
rolling
fib
attend
summari
reasonably
integration
confident
clicking
cellph
service
matters
concaten
concerning
baseline
auth
counting
loaded
boxes
limits
limiting
bringing
ears
provides
monkey
valid
effects
replaced
forgetting
improving
matching
reached
entertain
collection
linux
questionnaires
bulky
advantages
synchronized
priorities
robot
icon
slowly
restriction
##sence
convers
minimise
offers
environmental
booklet
latent
newsfl
majority
variable
brands
geomet
famous
tomato
extracted
immediate
associate
awful
doubly
catchy
configure
dimensions
dimensional
achieved
irrelev
approximate
discovered
danger
articulation
histogram
analyse
typically
transmitting
christmas
tamgrams
impressive
accommod
homer
rectangle
telesc
waste
ordinary
maker
resolution
explanation
snow
##aneous
quiet
dissolve
curvature
fundamental
benefit
bullet
officially
assembly
crucial
fiddling
abundance
taste
trajectory
entropy
dwarf
monday
verbal
disposable
april
diode
jasmine
north
satellite
whilst
irrelevant
aimed
bon
bord
crow
cyc
dual
duck
ea
eb
enable
fiddle
gig
gar
gent
gate
gab
groo
hing
hel
kin
lic
lump
mouth
ov
odd
rh
san
tree
vag
##hen
##ts
##tes
##ex
##lass
##oon
##men
##bour
##fy
##yed
##zzy
thus
tow
##ories
##ital
beer
rev
##isable
liking
##edom
dock
##ustome
coo
copper
cohen
semant
stre
stru
stations
conve
conse
condu
congr
shut
##uristic
chop
##terday
##cember
woulda
##herine
##ifies
december
##oper
poor
scary
scared
sammy
yesterday
ourself
tips
pla
plot
##umn
##reak
##reams
cand
perman
differences
ideally
intensive
guid
clut
clar
adop
ages
bugs
shame
curious
partly
productive
presently
bling
uni
interfere
kayak
indu
boy
pretend
extr
presses
pressure
realised
genev
watchers
covering
brit
reply
regen
regist
accustome
freedom
touching
emailed
chew
electric
intended
road
gaming
subt
##ggle
belong
skills
recei
hearing
catherine
concave
picking
stationary
exceed
aims
stayed
rama
spending
formats
##izing
marc
tying
typing
operations
##gonal
replacing
wired
nineteen
lying
directional
flips
perfectly
poppy
##ciate
opinions
practically
burn
bulk
##osite
overlapping
adaptable
graphic
characters
whistles
primitive
walking
updates
peter
##enezer
organise
statement
estimation
estimated
notebook
frustration
heav
hyp
shoot
popularity
restricted
chunk
surfing
capable
translation
translates
extended
description
likelihoods
spots
paid
minimalist
portable
route
routing
contacts
strawberries
correlated
acceptable
diagonal
ultimately
modifier
transmission
driven
hurry
computationally
impression
transistor
disagreement
attribute
attributes
rectangular
oui
sizes
reconstruct
cube
sofa
spoken
accurate
demonstrate
cushion
gyro
adults
manipulate
influence
release
schematic
retrieval
girl
hooked
incremental
professional
bunny
brian
greater
polygon
sinusoidal
absorbers
principle
tonight
appreciate
entertainment
conversation
newsflash
accommodate
telescope
snowman
ebenezer
gentle
gateway
vague
congrat
accustomed
bow
dea
ding
dir
diver
daught
fat
fabul
ger
gather
hip
hert
hitting
jack
mich
mice
nin
nick
pant
pep
pops
paging
sen
sig
tables
und
vul
vision
##iel
##ha
##head
##ey
##ssed
##net
##bon
##bra
##break
##dro
##fly
##fix
##wr
##ina
##eag
##eating
youth
##rees
som
tor
toys
##orter
##ited
hamed
whi
whis
inv
inch
onl
##etically
butter
reuse
reissa
##icit
##icul
##ctors
liber
doable
coarse
justify
##idge
ann
ano
sey
stri
stret
conce
shit
shout
shorter
proceed
##urs
##aume
##terior
##ants
max
maint
mapl
abo
##rac
##raction
##herent
atl
exterior
##iforn
##unc
dept
moreover
prevent
poin
poss
scan
quot
##ulations
##ulating
ties
peoples
baba
##inted
functioning
functionally
perce
##ures
spare
enjo
marker
height
bucks
shaking
informed
mini
ruin
problematic
unpl
unvo
arm
applet
applied
income
incons
powers
indicated
leaning
voiced
addressed
devi
deviation
instant
treble
##riel
persons
workings
##ordin
harm
smallest
fanciness
##udes
##ularity
modulation
complain
complicate
consume
brother
##atively
formula
sponginess
bananas
inclined
calls
clearer
framing
relate
audi
saves
lists
listed
##erias
submit
records
criterias
millions
skipped
innovativeness
locating
distur
err
customisable
crappy
paying
parser
finalise
californ
smile
auto
objectives
explicit
tests
coded
carrot
correction
wipe
profitable
triangular
analyser
calculating
calculators
childish
identification
delux
increased
leading
feeds
matches
representing
represented
discon
explaining
explained
colleag
filling
futuristic
communicating
meantime
splitting
lengths
algorithms
improvements
opposite
##osoph
blanketing
sleep
packet
packaging
static
sheets
applications
shifted
ridicul
promote
concerns
frustrating
heather
hyper
hydro
smartboards
fields
gimmicky
##ney
succeed
responsibility
antek
luckily
involve
ranking
approximately
daniel
distinction
alternatively
booked
janus
midi
magnetic
diagram
advertising
observ
smell
smells
steep
described
confirmation
nuc
accompl
skins
sized
philips
philosoph
reconstruction
softer
surprised
luminous
luminos
emphasise
libraries
##abytes
decorrel
transparent
viol
upgrade
disappear
guillaume
harmonic
encoding
proportion
##cratic
peeling
override
brainstorming
psychology
overwhelming
acronym
kidding
##reglass
coefficients
executive
silicone
assumption
redundant
challenge
cartoon
cumul
health
preparing
fibreglass
concatenate
author
geometry
dangerous
gabriel
groovy
semantic
extras
hypoth
bowl
fabulous
hertz
vulner
butterfly
depth
unvoiced
inconsist
california
deluxe
ridiculous
hydrogen
philosophy
bore
bia
cle
cry
dil
ditch
died
diphone
fight
food
fol
hated
holes
jap
kitch
lingu
ner
nast
nist
oop
ping
pir
pul
row
rose
sal
smil
seat
tiger
una
##ius
##iber
##ipt
##geable
##ray
##rical
##eed
##emp
##sest
##nect
##lice
##lers
##lines
##lining
##co
##pa
##mble
##ball
##ding
##down
##fr
##zilla
##ja
##jme
##jection
thurs
theta
##inant
##eared
##atics
iter
soci
toggle
##uted
##itudes
##ening
##eness
##station
##sters
##structure
infer
inner
inverse
inex
rely
reverse
isol
##kend
##iss
##isy
##isms
lik
lime
cance
core
coating
coherent
orang
orient
##idy
notion
novice
sectors
stated
stem
stock
mozilla
shine
proven
alter
china
aband
reactions
exchangeable
allo
coulda
verify
vector
teeth
scoring
science
scream
sac
safer
needing
upload
que
quest
query
spell
##fert
timing
tivo
bare
outl
interse
cast
diss
tag
tall
tack
themes
colin
recal
recyc
basi
clue
##ffy
franc
letter
decomp
finds
slave
specs
techni
techno
unne
unrel
##ouses
lem
appli
sett
feelings
accent
fift
defeat
##ological
flow
flores
lastly
elan
cooler
naming
eval
elsewhere
specialist
modified
playstation
sounded
feet
realist
elect
complaint
sellable
amb
amer
specifics
protoc
essence
tera
terrib
touched
switched
emitting
crank
innovations
relates
tara
badly
badger
electricity
considerations
charges
chargeable
closely
rounded
helping
phoneme
critic
attemp
integrating
meta
breakdown
regularly
sticks
favourites
senses
developments
located
distingu
profiles
prints
customise
casings
mispl
##allic
concrete
objective
selecting
focussing
furry
closest
sentences
monitor
classification
constructed
homepage
analyses
structures
followed
manufacture
deleted
deliber
squares
increases
posters
improved
clusters
synched
answering
retail
arrays
comfortably
estab
reduced
appeals
##osition
priorit
durability
adaptation
contextual
##ograms
slee
contrad
optimal
staff
##senger
whistling
occurred
##ounce
applicable
offered
shifts
characteristic
promise
promising
constrained
indication
published
humans
carried
chunking
chunky
competitive
affected
beauty
smoothly
weekend
supermark
warm
removing
assignment
fulfilled
precision
transforms
reminder
screwed
spongey
thicker
crashes
ellipt
pair
stressful
optimisation
duh
dropping
capturing
danny
deadline
degrees
bosses
collected
concentr
##iphones
articulated
history
advertise
observed
determ
mistakes
demands
bouncing
nijme
managed
facility
facilities
christa
cordless
drag
hurt
angry
steve
guaranteed
mixed
econom
patent
mathem
collaboration
piloting
multiply
interpretation
distinctive
beamer
spoke
fluffy
parallelogram
macro
eliminate
demonstr
diego
library
##abyte
numerical
damage
disadvantage
disadvantages
copied
##ombus
granularity
calibration
messenger
members
scalable
theoretically
negative
suitable
quarter
spanish
unusual
preserve
encourage
virtual
jiggle
june
luxur
destro
spaceship
extension
cellphone
bonus
border
hinge
rhombus
tower
convex
conducted
genevieve
receiving
congratulations
daughter
german
ninja
panther
whisper
seyfert
stretch
maplin
appleton
errors
disconnect
accomplish
violent
hypothes
vulnerable
biased
clever
japan
kitchen
nasty
thursday
abandon
unrelated
protocol
terribly
distinguish
deliberately
elliptical
nijmegen
au
alex
bill
bol
cro
cash
craw
cup
ded
dough
divid
diod
eart
eating
empl
fas
frea
flying
gri
gee
hes
hides
heat
jon
king
killed
les
lis
mood
mics
mouses
nay
nut
nil
nought
native
oct
ps
pra
pard
pix
ry
rated
rap
rings
rays
sided
south
tong
tues
tidy
ur
veto
viable
voting
woo
wild
wings
yves
yah
##gies
##hib
##lar
##lind
##limin
##aur
##ael
##abe
##con
##com
##ober
##pro
##pensive
##mother
##bies
##da
##dom
##fo
##fet
##ffer
##flu
##yal
##zes
##zation
threw
##eady
##ati
##athan
##ermo
##ergic
##ndum
weigh
yous
##rest
social
tosh
##vember
##essed
##orer
##iter
##itate
wholes
##otion
ink
inches
##etics
bend
reject
relying
##ication
##igu
oka
lift
lives
##alk
doe
dozen
cope
##chair
##iders
noises
november
stan
stro
struct
steal
stops
storing
steady
mock
shif
proces
neigh
aless
alert
chief
##erely
mad
male
##rapped
contrary
##ourse
exch
meas
allergic
##ife
##ifiable
##ung
##unk
##unte
sums
useable
##name
whichever
##mentation
twos
sams
sapa
desired
##itect
tru
trial
treating
quid
##artment
##olate
siem
tired
compo
compose
compartment
bast
baby
plans
plos
func
##umes
tak
reco
##arks
spring
sparse
clea
adm
adde
enum
whoever
private
byte
fran
recogniz
recognised
##andre
##ancy
decis
overhead
blind
unw
unlike
projector
##ously
apples
fade
facing
supplied
supplies
court
volunte
volumes
informations
opal
underlying
underlined
flipped
flashing
elk
foot
defining
plasticine
lighter
lighted
advice
secondary
lesser
##encing
##encies
corpor
generic
generates
wav
wake
solves
bran
bridge
swi
swing
repro
agreeing
bana
forming
protru
microch
strings
quicknet
minds
readable
preferred
charged
logos
frequent
gazes
subtle
##ression
viewer
skipping
metre
metallic
breakable
generalised
targets
implementation
conform
assist
orders
fuzzy
locked
locations
grade
conclude
basement
stationality
simplified
parsing
pleased
experienced
exceptions
explorer
giant
darkness
messy
classic
constructor
sites
measured
methodology
analysing
##ibly
pump
visually
structured
appearing
identical
manuel
styl
edit
divx
himself
worthwhile
layers
sooner
affection
radical
scored
purch
headed
representative
discount
discrete
discourse
broader
continuing
positioning
combinations
retro
outputs
ipods
summariser
motlice
mornings
nature
consumes
envision
encry
assumed
adaptive
graphics
incorporates
thinner
refers
status
mailing
passing
primarily
distributions
thousands
subjective
pets
annotations
weighted
indicates
performing
fired
manuals
publish
painting
engineer
streamlined
affects
dumped
capital
intuitively
extracting
independence
independently
detections
assignments
visualise
amplif
amplify
amplitudes
regards
descriptions
catching
carrying
dots
ultra
contained
mechanical
mechanisms
predict
jumping
aligned
deadlines
portion
sequences
installed
termin
confuse
waterpro
meaningful
globally
snap
snake
convince
scenes
seriously
boundary
managers
sharpness
nebulae
gadgets
draft
vibrates
angles
molds
significantly
gaussians
aesthetics
maths
collaborating
retrieve
olivia
cows
multiplying
converts
interpreted
peaks
alien
alima
alimentation
reacts
efficiently
grandmother
unclear
surprising
prominently
gunn
hung
deeper
resistant
accurately
cushions
damaged
arguments
retriever
copies
somethi
guillermo
archive
architect
brackets
proportional
bath
causes
darren
frozen
growing
mutually
rarely
season
habits
scaling
unlabe
imagination
strictly
squeeze
fabr
photo
occurrence
occurrences
teaching
transcribe
illuminate
revolutionary
credit
dinos
martian
pipe
paul
tangible
superi
lefty
flavour
relaxed
attended
crowded
gigabytes
helium
cook
street
candid
cluttered
adopters
induction
british
regenerate
register
girls
polygons
gentlemen
michael
signa
unders
torches
liberty
atlas
enjoy
unplug
audiences
inconsistent
linguistic
piran
society
inexpensive
outlook
decomposition
realistically
complaints
supermarket
hypothesis
alexandre
crawl
dedicated
dividing
diodes
earth
geez
jonathan
lisbon
october
pardon
pixel
ryan
rapid
tongue
tuesday
yahoo
shifting
processed
neighbour
alerts
samsung
siemens
plosives
addendum
recognizer
motlicek
waterproof
unlabelled
ax
ack
apar
austr
bay
bau
bout
borrow
bomb
cy
cer
cit
cul
city
cater
cern
coun
dip
dile
diphones
fan
fell
font
fudge
gift
hire
ian
jen
joo
jour
jast
kill
lion
lad
lag
ming
mas
mun
mate
ny
national
nips
os
py
pig
pun
pist
pool
ris
rig
rast
rom
rush
van
vot
vel
vast
wea
wife
ze
##iate
##iability
##gu
##gers
##gling
##he
##hoo
##here
##hand
##ris
##rink
##rices
##riger
##sant
##sph
##now
##nal
##lig
##lari
##lict
##ai
##ade
##actions
##cal
##cas
##comp
##uc
##ub
##used
##oors
##ointed
##plex
##bar
##bag
##bbles
##blind
##dable
##ka
##ymmet
##win
##watch
##eab
##eries
##erature
weem
##requ
sole
socket
toler
##anate
##esh
##orage
##orph
##oratory
##itative
hair
##enus
##stic
whisk
ons
bef
began
rever
##rome
island
##ows
##icing
##ison
##isance
##issed
##ionally
liqu
lived
##alia
##alogue
doc
##inks
coat
cooper
cobra
coordin
ifs
whate
whatnot
whatev
##mma
oral
##idays
noted
notep
anim
anten
noisy
sem
stol
stab
streams
storage
conj
shark
kne
proced
prohib
##urally
##uries
##urance
alive
chart
chil
chap
aside
asymmet
##antic
maari
mailed
maps
magic
righty
##ively
contr
atmo
reactor
twe
twen
twent
twist
meanwhile
##irky
worries
##opard
versa
prev
prem
presen
preset
prelimin
vegg
anyt
anyth
templ
##mentally
polari
scra
sam
sake
upside
tries
##usi
queries
quirky
##arten
goodness
compens
hereby
##ili
##umns
##intuitive
outs
intermedi
interference
caro
camp
percept
perplex
disli
tags
column
columns
colourblind
intr
##venue
bash
everyday
clips
##ffman
username
ensure
enlar
aged
##actic
newest
##imler
##quist
##quences
pri
pron
proud
priced
impr
impl
impor
imply
impressed
france
bucket
bubbles
firstly
lotta
keck
backside
infrequ
sla
specif
##ists
costing
##achable
handing
handers
handwr
##omen
blo
blob
blame
unsure
uniqu
unsc
unsu
unbreak
arc
loyal
offices
feat
scroller
leopard
applies
simplex
fake
##uits
indian
indoors
leaf
##ultaneous
##cessary
voi
televi
theirs
volt
##ada
fifth
defend
##ologies
afric
underline
underlining
instit
flore
lasts
trees
pushes
trendiness
trendwatch
beforehand
request
evident
fox
travel
defines
plastics
obsol
modular
advise
playful
secondly
grind
grass
percentages
sideways
completed
rates
ratings
talks
consult
##cupy
walls
greatest
solutions
##aged
energies
brick
sword
sweet
titles
insight
insured
repaint
redo
ambit
joke
joel
joined
opener
halfway
detachable
cheaply
separating
separates
diffuse
emer
innova
holds
infrastructure
reliability
difficulties
reads
pengu
prefers
preferably
remembering
usefulness
root
rolls
subst
subcomp
recorders
recordings
daimler
helped
##ressive
phonemes
viewing
sheep
summer
normalise
texting
##racting
targeted
controllers
conflict
assess
zeros
figuring
necessity
youngsters
heart
distant
distances
gramm
gradu
serve
supposedly
printing
customised
crack
craft
catalogue
availability
simplify
pleasure
pleasant
trains
autumn
counted
exploring
limitation
learnt
closes
provider
monoph
matrices
march
marios
plane
operated
joysticks
linking
thirdly
powerpoints
replac
ugh
visibility
drops
follows
existence
paperwork
deltas
radiation
radius
heads
heading
headset
accountants
labs
laboratory
thumbs
stopping
recognises
ergonomically
##liers
##eases
disco
recharging
recharged
freeze
galactic
temps
temperature
mixt
entering
positioned
shortcut
exclude
approaching
adjustments
retain
burning
summarising
arrived
introductions
introduced
introducing
consuming
dynamos
copying
corrected
beast
occas
occupy
silent
barry
##brid
durations
activates
encoun
adaptor
plugs
foreign
foreground
icas
participants
optic
optical
packages
packets
supporting
supported
algorithmic
investment
tuner
references
referencing
annoyed
passes
glowing
dominant
tricks
smoothing
books
threes
weights
listened
performs
practicality
rabbits
firefo
recovered
hybrid
compares
disks
variance
categorising
geck
geek
briefing
sleeker
nearer
bulbs
dumping
##acy
bursts
hoped
secure
comparison
assigned
responses
visualisation
sebastien
doubting
doubles
regardless
injuries
backups
conclusions
responds
merit
sessions
involves
networks
blended
thickness
spotting
downloaded
interacting
centimetre
essentials
optimum
dupl
sharing
bothered
indexing
approximation
literature
demographics
routine
refriger
democratic
collecting
##iquit
fallen
temporary
temporarily
birds
articles
histograms
snail
observe
analyzer
ionized
neatly
treats
treated
manageable
hurray
vibrant
vibrate
contribute
simultaneous
tamgram
localization
precisely
nuance
nuisance
proposing
quantity
quantization
protecting
protected
collaborative
assemble
firmware
fails
multiples
continuously
scratched
ouch
##ppery
hierarchy
ignoring
enhanc
resistors
repeats
submitted
submenus
explanatory
emphasis
ticker
expression
numeric
transport
released
schemes
arguing
argument
strengths
knocked
disappointed
intentional
harmonics
modifying
granny
jointly
calibrated
chairs
holidays
muting
messed
rotation
mega
megabyte
backlighting
symmetric
symmetrical
advancement
glasses
squeezing
overwhelmed
acronyms
purely
depression
quarters
disabled
##orescent
legal
legos
capacity
transcription
virtually
dinner
lecture
pauses
doodle
remaining
teenager
probabilities
slippery
resemble
resembles
summarize
cycle
licence
strugg
consecutive
consequences
guido
petersen
notebooks
heavier
deaf
pepper
senior
announce
maintain
pointer
armchair
disturbed
explicitly
colleague
observatory
nuclear
luminosity
decorrelation
cumulative
bored
nerd
pulses
salary
isolated
cancel
orangut
provenance
altering
barely
recalibr
unnecessary
appliance
accentu
america
misplace
established
sleeve
contradiction
concentrating
advertisement
mathematics
luxurious
whispered
bolt
heated
nuts
wholesale
bendable
stroke
exchange
measuring
truly
enumerate
franck
unlikely
courtney
corporation
branch
protruding
microchip
purchasing
encryption
amplifier
grandmothers
architecture
dinosaur
underside
piranha
acknow
australia
baufix
culture
catering
dilemma
joost
minging
nyquist
pistol
risky
rasta
vanilla
weather
##sphere
weemote
whiskers
liquid
notepad
stolen
stabil
procedure
prohibitive
maarika
atmosphere
preliminary
intermediate
perplexity
enlarge
infrequently
handwriting
uniqueness
unbreakable
african
obsolete
ambitious
penguin
subcomponent
replaceable
firefox
refrigerator
ain
ape
bic
bong
bio
biz
barks
cre
cen
cud
cities
dow
dated
dream
ei
ep
ef
eq
eject
elev
fen
fle
fed
foo
fatter
fault
gas
gard
gear
gaps
grew
hill
hiding
ice
iain
je
jur
kang
kits
kicked
lou
lunc
mal
mum
mote
nest
nyn
omit
osc
pea
pile
pale
rou
ren
rar
rational
scept
seal
tu
tro
tint
tab
tones
vice
vene
vac
wis
wicked
wrapped
women
zill
zip
##ik
##ga
##gwin
##hn
##hog
##tic
##tra
##tions
##rial
##rarily
##sers
##suits
##nc
##nat
##lon
##long
##lead
##lud
##lia
##lishing
##ake
##aign
##aroo
##col
##cast
##cad
##ccer
##vill
##vative
##vices
##oy
##ole
##off
##parent
##mans
##bel
##bage
##bish
##bye
##bilities
##dly
##ker
##kill
##kward
##fish
##fined
##yce
##wi
##west
##za
##zard
##zines
ther
##inct
##ination
##inist
##inters
##inne
##ealed
##eauc
##atable
##atically
##atisf
##onic
##onvent
##onica
ital
iterate
##nding
soccer
toy
##utor
##ese
##itably
##iterate
hass
##enn
##enance
##stal
##struct
##stair
##ots
inev
inefficient
##etub
beg
bed
##lei
##ley
rein
recept
reiterate
##ican
##icum
##icial
##icting
##icious
##isa
##isyn
##ctu
##megr
##melon
lid
lies
lifet
lizard
##arre
fort
force
forced
##ede
doctor
##ustive
##htime
cogn
##asp
##ched
##idence
noth
sees
secur
sti
strea
stability
conso
##mpt
moments
shu
shove
shops
shiny
knob
prod
prove
projection
prompt
##urred
##urrent
##uristics
negle
negot
neural
alan
alri
alumin
altered
##pefr
chase
chuck
chalk
chrome
##verage
##anta
##anted
##antial
mapping
maarten
maga
##illips
##eless
##eline
##elsen
goin
ate
expend
exha
alloc
sug
sue
suits
##iring
dele
yourselves
##ichlet
veronica
mee
prede
prefix
##geous
##mentary
pose
polic
pomegr
scare
scrib
scient
scales
sacr
desert
tran
trunk
##uses
spee
spelled
##uls
##oseek
##ola
sister
tier
tiers
goodbye
comple
compil
compact
compiled
compressed
bags
plu
plas
plast
placing
##ints
acting
outlier
interim
interoper
interactions
cased
caps
perm
perip
persu
timed
ide
idios
differen
colo
colouring
recur
recall
recons
intensity
gue
##vene
caused
basing
spider
spiders
sprink
clicked
clashing
enlight
##icky
heuristics
prun
priv
pricing
probable
manner
impract
letting
buz
bund
buck
buys
buzz
buffer
##ieving
curving
cursor
lotus
kem
backs
partially
deci
decode
alrighty
ruled
slice
slip
slower
slap
slipped
evening
downward
overly
overload
overkill
technol
costings
handsh
handset
handica
##boy
rubble
rubbish
presentate
bla
unf
unnat
hover
locking
loses
offs
projecting
scrolls
leverage
reser
reson
##redibly
appeared
incredibly
##phic
faded
##uities
suppo
suppliers
settle
marketed
lean
leap
leather
phillips
exam
boot
comfy
addict
finer
devised
defi
instinct
flap
flush
ending
draws
elastic
prett
syner
sixes
trendier
eva
extensive
datas
interests
betwe
lightening
obv
obsc
obtain
objection
oblig
adva
advis
advoc
evaluations
plays
gray
grid
grasp
genetically
compli
complet
##ificial
ratty
corinne
generous
coverage
wai
buyer
buyers
facts
brush
swim
swah
swapping
swimming
extraordin
tita
insurance
reprodu
redraw
##most
amuse
amorph
commit
committ
bank
formal
formation
interestingly
join
joking
joining
john
advances
dependable
esque
changers
logically
accessed
freq
diffi
terrest
touches
switchboard
emotion
##assp
creativ
mustn
innovate
frag
relies
penl
listing
emailing
kinetics
considerable
understands
directive
rocket
royce
damp
personality
personalise
personalised
pict
piction
segmenting
segmented
placement
builds
texts
textual
textured
multisyn
sticker
implementations
confus
codec
developer
fuck
fucking
fuzz
origins
distraction
distracting
documented
grapes
grapefr
services
##perv
circuitry
mission
misses
mislead
webpage
concurrent
performed
parse
parsed
pleasing
trainable
autism
autonom
autoseek
##ribed
cuts
largest
boxy
reported
originality
earl
darker
carp
carame
ram
similarly
squash
entities
entries
corrections
monke
glo
homework
marble
begins
stepping
planet
planned
measurements
alphas
programmability
calculations
calculates
##ibilities
allowing
pulling
puzz
replicate
ugliness
receives
identifiable
suggests
absorbed
detects
editing
morphic
equipped
lays
manufactured
delicate
squarey
jobs
forwarding
forwarded
lunchbreak
population
feeding
headph
behave
stopped
recognisers
reachable
discs
recharges
tempted
stronger
mielsen
continua
continued
positions
modelled
adjusted
adjustable
artificial
telecon
strangely
lined
tendency
simpson
radios
communicates
burrit
bureauc
motiv
arrive
splinters
deals
copyright
attracted
connectors
beagle
departments
transmits
reducing
envis
flashlight
bars
overlay
uniquely
##mbling
##respect
graphs
incorporation
wondered
coaches
commonly
investing
answered
tuned
stamped
statistic
mails
maximise
maximising
converter
converting
conversion
converging
glows
##ucky
compressing
minimally
distributed
offering
removed
parameteri
petre
organised
organising
annotate
practicalities
recoverable
miles
shocking
variables
engineers
engineered
families
categorise
branding
silvers
impossibilities
kickoff
competitor
affecting
fingerpr
nearby
schema
unfortunate
superv
superflu
capability
presuming
drift
warping
warned
comparable
attaches
responsive
responsibilities
awkward
amplifies
precies
argh
websites
dictionaries
databases
robustness
lucky
summed
wikis
horns
reminds
screwing
satisfying
blend
downloading
keyboards
equaliser
addresses
optimation
optimise
##teenth
captured
specifying
redesigned
assumes
bals
##cade
demos
mangoey
gestures
alternatives
widely
timer
randomly
watermelon
accepts
accepted
laught
snakes
wishes
interpolate
advertised
observing
analysed
analytically
delivered
ionization
managing
facil
facia
transmitted
situations
christine
vibrating
angular
anglia
steven
eco
studying
commented
homing
sunil
sunlight
##ocity
setups
universally
recommendation
lacking
moulded
teletub
implication
arbitrarily
grandparent
scenarios
apologies
airbag
bench
beneath
benjo
##screen
abstraction
impacts
unconvent
additionally
fluorescent
fluctu
amongst
transfers
transferred
painful
winter
makers
eliminating
eliminates
submitting
corresponding
gym
illustr
dissolves
manipulation
influenced
surrounding
surrounded
exclusivity
upgradable
bullets
official
folded
lawsuits
textures
serialize
encoded
households
darn
dictation
dictate
dictated
rotated
debate
pockets
interviews
interviewed
unlucky
flicking
imagining
pilots
kiddie
landmark
varying
beefy
loosey
silicon
clients
unusable
photons
assumptions
redundancy
encourages
reflects
illuminated
credits
kitty
lectures
luxury
martin
mounted
tangled
##yncratic
severely
destruct
probabl
bumps
flaw
extensible
cellphones
validation
dwarfs
crowd
garbage
revis
streets
shuts
chopped
permanent
permanently
clutter
clarify
clarification
britain
subtit
subtract
belongs
heavily
vaguely
deact
dingy
dirichlet
diversion
conception
shouting
proceedings
maintenance
##racy
##uncated
scanning
quotation
perceived
instantaneous
complained
colleagues
hyperl
nuclei
crystal
fighting
folk
smiling
##friend
oriented
alloys
screaming
saccad
saccade
tacky
recycled
francs
lemme
lemons
settling
criticism
attempt
pairs
determined
economic
macros
destroy
germany
japanese
ellipticals
crossed
freaks
hesitate
nils
##igued
alessi
bastard
cleaning
decisive
unwrap
volunteer
reprocess
conforms
assistant
affectionate
terminal
snapsh
hungry
seasonal
superior
cookie
candidates
signalling
rapidly
cygwin
counter
journal
rigid
votes
velocity
cooperation
animation
chapters
twenties
premium
veggie
anythi
polarization
##usiastic
caroline
campaign
perceptual
intrigued
imprint
buckets
unscrew
unsuperv
institute
bricks
swordfish
substantial
monophone
occasionally
gecko
duplication
simultaneously
enhanced
announcement
orangutan
accentuate
stabilisation
bizarre
creep
cuddly
equally
elevation
garden
jurgen
kangaroo
kitsch
louisa
lunchtime
nynke
oscill
sceptical
veneer
vacation
wisdom
##track
##luded
##ville
hassle
##stairs
inevitably
lifetime
cognitive
security
console
knobs
aluminium
magazines
exhaustive
predefined
pomegranate
scribble
plasticky
capsicum
peripher
idiosyncratic
reconsider
impractical
handicapped
unnatural
swahili
amorphous
terrestrial
pictionary
grapefruit
autonomy
caramel
teleconference
bureaucracy
superfluous
laughter
unconventional
ast
aro
aid
amp
avenue
bis
bent
bite
bog
bone
bang
cus
cri
ceases
dic
dere
dive
dies
dance
dri
dude
dumb
dips
dreams
ech
eith
era
eso
egg
eta
fy
fer
fes
fus
fick
fong
fright
fusing
fitted
father
gut
gur
gel
gum
gree
gross
geared
hay
hed
hind
hue
hence
heap
hero
hors
hunch
ig
ik
ions
jes
jot
jar
jess
jum
jero
jules
ks
ka
kat
las
lone
lap
lord
lions
laser
ment
moo
mur
mation
mort
mother
mild
melp
mates
melt
migh
nan
nit
nas
nif
nint
nap
noun
omn
oxy
pse
por
pace
pare
penc
piz
pav
pissed
rise
rang
rib
roun
sou
sed
sau
sick
sys
sene
santa
tin
tan
tay
tet
tent
tens
tank
tons
taught
tiss
ub
vant
vive
vom
vets
vital
viter
vicious
wit
wol
wil
wack
weal
wob
wool
yi
zaps
##iw
##iance
##ians
##iety
##ipper
##gal
##gent
##ghing
##gate
##gue
##gain
##gical
##gressive
##ho
##hink
##ham
##happ
##husiastic
##tz
##rust
##ration
##rus
##rific
##riend
##rimin
##rases
##runcated
##ec
##eu
##eight
##eenth
##sl
##shing
##scept
##nas
##nce
##nard
##nering
##netic
##lor
##lose
##listic
##lene
##aking
##amil
##aired
##aks
##aisy
##cin
##cive
##cord
##cient
##uild
##uba
##vre
##vail
##oic
##oad
##oye
##oiding
##oeu
##pite
##park
##pone
##pap
##mic
##mid
##mund
##missed
##bi
##bot
##bet
##build
##di
##des
##kin
##ket
##kal
##fs
##ford
##function
##wal
##wire
##ween
##weight
##xing
##xiety
##zor
##zed
##zable
##zmo
thou
thor
threat
themed
##oustic
##inions
##inery
##ease
##ats
##atile
##atical
##erg
##erated
##erful
##eria
##erves
##oned
##onna
##onia
yeahs
##nday
##ndid
west
uhs
##resh
sore
soap
##ingly
tod
toil
toward
tooth
toffee
##anes
##utious
##oration
##orma
##iti
##itant
##iters
##itivity
##itzer
hal
hap
hall
hack
##ened
##ensed
##ston
##stand
##stances
whip
whale
whales
##otic
##otional
##otland
ing
ine
inp
inse
inference
invert
inapp
innard
inbet
butt
butto
##lendid
req
revenue
##owing
##icy
##icss
##icip
##icating
##isers
##isfact
##isites
##igan
##iguities
liver
##arith
forb
formed
likewise
##eds
##eded
coy
cox
coast
##asc
##asonic
justification
iffy
##ights
whats
##cha
##chest
orc
orna
orchest
##idi
##idaisy
notification
anech
anoth
ancient
anxiety
nob
sections
stif
stone
stim
storm
stare
stead
stag
steam
stressed
stalk
##mpy
mom
shines
ships
shipped
knop
knock
proxim
prospect
prolong
##urer
##urable
neon
neck
alkal
##aunt
##pection
chic
chile
chord
chines
chasing
chiquit
##vers
aspe
mai
mand
maine
masters
remin
remark
remarks
##illing
##illage
abut
##els
##elines
thingies
goi
gold
rightly
remotely
##outs
##rally
##rable
##rapping
##rageous
##raints
##ramid
conti
contract
contam
##hertz
##ourned
reall
reass
exotic
meat
alls
someti
##ifice
##ifact
##iform
wash
##unct
somethings
sued
suck
susp
sucks
sussed
suffer
suscept
sunday
##irit
##irrel
shoulda
shoulder
shoulders
worn
degra
##nail
loop
##ctionist
looki
vers
pref
preced
presence
##gehog
tex
polished
seeking
scul
scope
screams
sciss
scuba
scotland
##ckles
##oody
##oodle
despite
deserves
upward
upwards
upping
upset
trea
trip
triv
triphones
##ussel
##ogical
##ogene
quoting
speckles
##uling
changer
chances
channe
##esting
##olingu
##ppo
##ppable
##ppings
##romag
##fers
simon
simb
peep
pecul
goods
competing
compile
compete
compass
composed
compuls
peopl
##berg
backed
plants
##ils
##iling
##umble
##umber
##umstances
##realistic
##thern
nowhere
##abl
##abular
##abilities
##abetically
outrageous
interv
intercept
intervent
##ssing
myster
##ptures
functionability
cage
cafet
cautious
permit
disast
dispose
disjo
disflu
dismissed
tapes
tada
taiw
themself
##iples
sorting
##ectual
colouration
differentiate
hashes
guides
basket
everyth
spy
spat
spite
splic
spac
spaced
splendid
spicy
spirit
##asting
clim
ado
advent
muc
##arded
##fford
easiness
engra
##irect
aggressive
whereby
##icking
##mare
heck
heidi
whom
##imiters
##quent
prere
prone
prime
mana
manoeu
huffman
productions
producer
impul
impaired
##gette
fripper
firs
bumped
bubble
##ievable
recogni
shade
shaken
curios
curvable
##andro
backward
partial
partition
exposed
expressed
techie
decides
decline
rude
slot
slices
speci
downs
downsa
downstairs
overs
overcome
overwr
technic
##ache
handles
handier
handled
handhe
##omfort
##ominant
stuffs
aha
fourier
presents
presenta
presentat
blow
blur
bless
blows
bloody
une
unle
unident
unex
unifies
unused
unintuitive
unbel
unfriend
unhapp
uniform
unrealistic
hoffman
arri
arlo
##lfriend
los
projected
##erson
kayaks
feared
##thon
resul
resume
incurred
powering
powerstick
wording
fav
faint
failed
featured
india
indirect
supplying
##ella
marketability
pha
pho
phew
phaser
phrases
exac
examine
voic
courgette
televis
boston
volts
acoustic
fins
##ivates
devise
devote
##ertation
afro
flop
flies
flower
flier
flesh
flights
endang
trek
wri
writes
writer
elise
elix
thirt
sync
technologi
technologic
trendset
requiring
##gramming
evil
harry
smallville
foam
longmund
fanciest
##udo
trai
traver
traces
traged
definit
materi
specialised
signs
signature
functionali
modal
modific
modality
modulated
advised
evalua
played
playback
soundtrack
yelling
ground
fee
yellows
genius
complication
sevens
conser
eighth
watcher
generations
selled
waving
factory
##agers
brno
brussel
switzer
conceptually
insane
inspection
replying
repeating
reds
regu
regressive
amber
amusing
comma
formality
spongier
jolly
jokes
johan
doubled
inclu
dependant
esp
escal
singly
logarith
slidey
transaction
transfor
namely
imac
touchy
touchscreen
computes
computational
emit
embo
emotional
creation
modeling
blacks
crite
strat
fraid
fraction
frahan
selections
holders
relation
relating
reliant
releases
reload
audible
centr
centimes
centrally
lame
laid
lamb
targ
tarik
processes
reader
penal
listings
##ontin
cheerful
researcher
researching
researches
researched
researchers
considerably
remembered
charmed
charac
directing
integra
circles
circulating
circumstances
breathing
breath
util
subset
subsc
avoiding
rounder
uttera
finishes
waits
asks
personalising
phonebook
viewpoint
belt
##arian
machinery
attain
attack
attitude
segmenter
segmentations
normalised
normalising
normalization
millimet
millenn
skill
integral
bottle
bottlene
mobi
vegetarian
budgeting
bottoms
sticky
reception
computery
confining
confidence
assu
necessities
effic
fuel
winding
locally
locatable
youngst
youngest
beeper
clicks
clickable
digi
erasing
ericss
documentary
restore
restoration
restraints
serves
cares
carefully
customizing
catwal
miscal
webbed
concert
concealed
concluded
digitized
flats
flatten
criterium
simplification
fixing
fixable
parrot
slideshow
finalised
finalising
combi
combat
combines
reporting
##media
selector
mentions
gizmo
staying
earli
##shine
trackers
cloak
rav
rapple
rambling
razor
accessory
squeak
squared
squirrel
entry
enthusiastic
toolbar
complexes
formatted
monot
monster
monogram
glue
mature
classically
classify
classified
constructing
constructive
dying
surv
surgical
##izes
##izable
averaging
joyst
profitability
measurement
alphabetically
operability
##rence
spacey
thirds
greenish
seventh
seventies
replies
replied
replaces
whiteboards
etched
visa
visitors
absorp
absorbing
expectations
automated
editor
automatical
browsers
morgan
morris
oof
laying
chocol
delta
delimiters
untruncated
##iorno
largely
bravo
amounts
popped
popping
handedness
postpone
accounts
labour
matched
representations
representational
seemingly
##cias
discoura
discrimin
discontin
explains
whereab
tempered
strongest
mirac
stores
adjourned
broaden
broadness
lowering
shortcom
ballpark
detailing
approachable
adjustment
filler
artifact
##ledged
rethink
telewest
outputted
burner
burns
panasonic
panicking
summarisers
arrang
naturally
adam
traditionals
dealt
##lov
##loma
##losure
memor
memories
attracts
attracting
connecting
lengthen
bean
beach
beaver
beams
transmitters
estonia
reductionist
descript
envi
synchronise
synchronisation
synchronizing
barri
barbar
bargain
##brush
overlaps
blanks
enclose
enclosure
adapting
adaptors
clocks
clocky
movable
contexts
telephon
forese
forecast
foremost
icassp
icsl
contraptions
opted
studio
studied
supports
algorithmically
thinked
slows
navigating
tunnel
referred
annoys
stacked
statue
stars
staring
england
hugely
splits
converge
worlds
vocabular
advantageous
hippo
nets
##oidal
compresses
distributor
wales
walter
##ouncing
effectiveness
multimedia
statements
promoting
promotion
constrain
estimating
hits
agreeable
newspap
imposing
frustrates
firewire
dynamite
publishing
achieving
humble
stereot
shooting
restricts
ceiling
variability
affordable
initialise
initialize
silvery
thresholds
thresholding
kicks
streaming
streamlining
surfaced
googling
spins
grabber
satisfact
##acular
superb
capabilities
translated
translating
familiarity
drinks
hangs
hanging
warn
secured
remov
comparatively
feasibility
consistently
consistency
assigning
visuals
visualize
association
associating
financi
financing
extending
regarded
antlers
anticip
transformation
transformations
walks
pinball
pinkie
surveys
responding
responded
horrible
merging
merged
valued
reminded
screws
clothe
cloths
configured
satisfy
creature
##hesive
sophistic
troubles
speeding
bobby
ellis
irrespect
predominant
addressing
optimised
optimistic
weakness
alignments
respects
respective
bothering
elemental
elementary
approximated
approximating
layered
discovery
inspirations
literal
literate
gaudy
portland
routes
routines
whoop
whoohoo
refuses
refresh
periods
periodic
decoded
metals
efforts
##ropriate
collectively
fulfils
narrowed
beard
bearing
installation
roller
successfully
boost
crossing
jane
louder
pussy
##ami
chris
magnet
meaningless
appropriately
accepting
prototyping
brains
clustered
article
synthesise
dialling
dialect
laugh
laughing
snazzy
condensed
reconvene
adverts
analytic
delayed
demanding
bounces
ionic
ionising
nike
##ugged
excessive
residue
modifies
gadgety
cords
drastic
smelly
smelling
vibrator
##sym
steer
molded
contributions
contributed
simulation
simulate
intellectual
highlighting
scheduling
mixing
describes
ecological
##cuted
shopping
quantized
quantitative
extremes
definitions
insertion
skinny
presumed
divisions
collaborate
massively
bleeps
conditioned
kilohertz
homes
homogene
sunshine
failure
multiplied
universities
instructional
scratchy
interprets
intelligence
intelligible
recommended
recommendations
moulds
##ycle
reacting
triggers
plugging
expanding
decreases
sketchy
sketching
sketches
grandma
airpl
beambot
gaining
nicest
wasting
wastes
spectra
spectacular
perspectives
uncomfort
fluent
ordinate
ordinated
surprises
increasingly
warnings
configurations
interrupted
beside
derive
hunt
hunts
kiwi
resolve
resolved
repeated
transcript
gameboy
submission
statistically
irritates
progressions
proposals
triggered
corresponds
correspondence
bike
ticking
sufficiently
upsidaisy
curviness
expressive
damaging
fundament
fundamentally
brainstormed
benefits
beneficial
oughta
girlfriend
judgement
northern
nightmare
dolby
somethin
upgraded
disposal
intentions
spammed
incrementally
elaborated
granola
consciously
consciousness
lawy
serialization
calibrate
encodes
assemblies
causing
daring
fiddly
holiday
rotsym
sealed
tighty
tighter
habitual
abundances
debating
megabytes
desirable
peeler
functio
tastes
overrun
overriding
symmetry
trajectories
professor
provisional
provisionally
margins
claiming
psycholingu
squeezable
bins
dadada
fabien
lands
landed
melissa
theoretical
inventing
inventory
shocks
negate
depen
polym
sadly
actively
dispatch
dispense
wrists
preservative
artists
capacit
capacitor
reflected
ignored
principles
challenging
jiggling
junk
lecturer
havi
doodling
preparation
teeny
teenagers
qualities
qualco
qualitative
commercials
fibre
summarizing
summarizer
confidential
robotic
quieter
curvatures
borders
gigabyte
garage
garish
hinges
lumped
rhy
##bourne
town
likings
struggle
conducive
plotted
candy
permanantly
guidelines
adopted
geneva
registered
exceeding
ramaro
diagonals
reconstructed
professionals
dirk
diverse
gathered
michigan
invited
atlantic
prevents
pointers
possess
scanner
quotes
perceive
miniature
unplugged
disturb
smiley
triangulars
sleeping
observation
luminosities
decorrelate
disappearing
cumulatively
authority
crying
ditching
pulse
smilies
unavail
unafford
iteration
iterative
liklier
oranges
alloy
uploaded
intersect
intersection
dissatisf
dissertation
recalcul
recycling
unneeded
appliances
settled
fifties
defeated
electro
electret
electromag
ambigu
ambiguities
american
attempting
misplaced
prioritise
prioritize
prioritized
contradicting
concentrated
demonstrations
demonstrator
encouragement
luxurous
destroying
spaceships
bonuses
abandoning
billing
fascin
fascias
freaky
grippable
hesitant
urgent
weighs
inkling
rejected
stanford
structuring
structurally
alessandro
madonna
composer
composes
bastien
administ
blindly
reprogramming
pumpkin
stylised
envisioning
surprisingly
fabrics
fabricate
pipeline
flavours
candidate
pixels
axes
borrowed
citation
diploma
pyramid
python
punish
solely
tolerant
tolerable
reversed
coordination
coordinates
antenna
antennas
semi
conjunction
conjunct
knees
prevon
presenter
presets
anytime
template
templates
scramble
compensation
disliking
disliked
pronounce
implant
slaves
specifi
blocked
defending
florent
florence
emerge
emerging
assessment
grammar
graduates
headsets
temperatures
mixture
mixtures
occupying
encountered
##iquitous
assembled
struggled
struggling
nerds
recalibrate
acknowledge
acknowledged
bicycle
bongiorno
epinions
fenella
flew
fooling
jeff
malfunction
renew
raring
trois
zillion
##oleon
italy
##structed
reinvent
receptor
fortun
streamed
shoved
neglected
negotiation
expenditure
policy
scientists
sacrifice
compilation
interoperability
permission
persuade
sprinklers
pruning
privacy
buzzer
bundle
buckley
kemy
handshaking
unfamil
reserve
resonator
addicts
elasticity
prettiest
synergy
obvi
obliged
advisory
advocate
complimentary
completes
brushed
extraordinary
redrawing
amusement
fragile
penlites
picturing
confusion
misleading
carpal
monkeys
puzzle
headphones
burritos
motivation
envisage
fingerprint
supervision
facilitate
teletubbies
grandparents
benchmark
illustrate
flaws
subtitles
deactivate
conceptional
hyperlink
saccades
snapshots
counterintuitive
unsupervised
creeping
oscillating
erased
ferret
fickle
hedgehog
heaps
horses
jesus
jotted
lonely
mental
moose
mortg
nasa
napoleon
omni
oxygen
pseudo
pencil
pizza
pavlov
ribbon
saucer
senegal
tangram
taylor
tetris
tissue
ubiquitous
vantage
vivek
vomit
viterbi
wolfs
wealth
wobble
yikes
thorough
toilet
##standing
inappropriate
innards
inbetween
ornaments
orchestra
anechoic
stagger
proximity
alkaline
chinese
chiquita
remarkably
contamination
susceptible
precedence
sculptures
scissors
trivial
simba
peculiar
intervention
cafeteria
disaster
disfluencies
taiwan
splicing
manoeuvre
fripperies
curiosity
downsampling
handheld
unbelievable
unfriendly
unhappy
hoffmann
arriving
endangers
trendsetters
tragedy
modifications
brussels
switzerland
logarithm
transformed
lambda
millimetres
millennium
bottleneck
ericsson
catwalks
miscalcul
monogramme
chocolates
discourage
shortcomings
barbara
icsla
vocabularies
newspaper
satisfactory
anticipate
irrespective
dialects
uncomfortable
psycholinguistics
preservatives
qualcomm
unavailable
unaffordable
electromagnetic
fascinating
malfunctioning
unfamiliar
