<unk>	0
▁t	-0
▁th	-1
▁i	-2
▁a	-3
▁w	-4
▁s	-5
▁the	-6
▁y	-7
▁o	-8
re	-9
▁u	-10
ou	-11
in	-12
at	-13
▁b	-14
ea	-15
▁m	-16
▁c	-17
on	-18
▁it	-19
▁h	-20
▁d	-21
er	-22
▁yea	-23
▁yeah	-24
▁we	-25
▁f	-26
nd	-27
▁uh	-28
▁you	-29
ll	-30
▁so	-31
ing	-32
▁p	-33
▁to	-34
▁l	-35
▁that	-36
ve	-37
an	-38
▁n	-39
ay	-40
▁and	-41
ut	-42
st	-43
se	-44
or	-45
▁g	-46
it	-47
▁ha	-48
es	-49
▁wh	-50
en	-51
ot	-52
▁in	-53
▁of	-54
▁on	-55
et	-56
▁but	-57
▁be	-58
ro	-59
ke	-60
le	-61
▁re	-62
▁is	-63
▁um	-64
ow	-65
ic	-66
is	-67
ig	-68
▁have	-69
ion	-70
kay	-71
ld	-72
▁okay	-73
▁e	-74
ct	-75
ould	-76
me	-77
▁li	-78
al	-79
▁for	-80
ar	-81
▁mm	-82
▁like	-83
▁do	-84
ust	-85
▁can	-86
▁j	-87
ed	-88
ink	-89
▁k	-90
▁this	-91
ht	-92
▁think	-93
▁co	-94
▁r	-95
▁just	-96
▁if	-97
ight	-98
▁what	-99
all	-100
ver	-101
ch	-102
mm	-103
ly	-104
▁or	-105
as	-106
▁well	-107
ith	-108
id	-109
▁not	-110
ere	-111
▁an	-112
▁hmm	-113
▁go	-114
ally	-115
▁one	-116
▁with	-117
▁no	-118
▁se	-119
ent	-120
▁st	-121
▁con	-122
mp	-123
▁mo	-124
▁sh	-125
▁are	-126
▁kn	-127
▁know	-128
▁pro	-129
▁they	-130
▁then	-131
▁ne	-132
ur	-133
▁don	-134
▁al	-135
ca	-136
pe	-137
use	-138
hing	-139
▁ch	-140
▁there	-141
▁as	-142
cause	-143
ant	-144
▁ma	-145
▁rem	-146
ce	-147
▁lo	-148
ill	-149
▁ab	-150
▁remot	-151
ton	-152
el	-153
▁button	-154
▁would	-155
▁v	-156
▁thing	-157
▁right	-158
ive	-159
ter	-160
▁remote	-161
nt	-162
out	-163
▁some	-164
▁cont	-165
▁use	-166
very	-167
our	-168
her	-169
ra	-170
ind	-171
▁may	-172
▁at	-173
ble	-174
qu	-175
met	-176
▁ex	-177
▁tw	-178
▁oh	-179
▁mea	-180
ation	-181
▁about	-182
▁all	-183
▁somet	-184
if	-185
▁contro	-186
▁was	-187
be	-188
od	-189
un	-190
▁maybe	-191
▁mean	-192
▁something	-193
▁because	-194
▁control	-195
▁su	-196
ir	-197
▁want	-198
▁should	-199
▁wor	-200
▁de	-201
ok	-202
▁us	-203
▁more	-204
na	-205
▁could	-206
ge	-207
op	-208
ction	-209
▁look	-210
▁will	-211
ign	-212
▁your	-213
ich	-214
▁te	-215
ess	-216
▁which	-217
▁me	-218
▁pre	-219
▁any	-220
▁say	-221
▁po	-222
ment	-223
▁see	-224
▁two	-225
▁buttons	-226
▁how	-227
▁'	-228
▁make	-229
▁sa	-230
▁very	-231
▁yes	-232
▁our	-233
ck	-234
▁des	-235
ate	-236
ite	-237
us	-238
▁need	-239
▁up	-240
▁get	-241
▁really	-242
so	-243
▁sc	-244
▁tr	-245
▁sor	-246
oug	-247
ul	-248
▁qu	-249
▁spe	-250
▁chan	-251
ep	-252
▁kind	-253
ose	-254
▁ea	-255
art	-256
ice	-257
▁gon	-258
▁design	-259
ol	-260
pp	-261
rom	-262
▁also	-263
▁pe	-264
▁si	-265
▁from	-266
▁gonna	-267
▁good	-268
▁ti	-269
▁comp	-270
▁peop	-271
og	-272
▁people	-273
ber	-274
▁here	-275
▁pl	-276
ad	-277
il	-278
▁dif	-279
▁int	-280
▁diff	-281
▁fun	-282
um	-283
int	-284
ther	-285
▁got	-286
ide	-287
▁now	-288
▁work	-289
ctu	-290
▁when	-291
▁out	-292
ab	-293
eting	-294
▁fe	-295
pt	-296
▁other	-297
ine	-298
▁my	-299
ty	-300
▁function	-301
ss	-302
ree	-303
▁things	-304
▁per	-305
▁put	-306
▁does	-307
▁dis	-308
▁time	-309
▁id	-310
▁actu	-311
mple	-312
▁ta	-313
▁differe	-314
▁them	-315
▁ba	-316
xt	-317
ip	-318
ough	-319
▁did	-320
▁col	-321
▁than	-322
▁sort	-323
ect	-324
ure	-325
▁colour	-326
▁idea	-327
▁rec	-328
▁different	-329
▁ca	-330
ial	-331
▁has	-332
▁gu	-333
ven	-334
ort	-335
▁these	-336
ound	-337
▁actually	-338
ain	-339
ark	-340
▁bas	-341
▁every	-342
▁sp	-343
▁bit	-344
itt	-345
▁point	-346
ast	-347
▁meeting	-348
▁cl	-349
▁ad	-350
▁mu	-351
ard	-352
ff	-353
▁where	-354
▁five	-355
▁much	-356
du	-357
▁inter	-358
ue	-359
▁only	-360
▁basic	-361
▁eas	-362
nel	-363
▁user	-364
▁channel	-365
ear	-366
▁going	-367
▁sure	-368
ire	-369
▁ag	-370
▁too	-371
way	-372
▁exa	-373
ition	-374
one	-375
▁way	-376
▁mark	-377
ace	-378
▁he	-379
ick	-380
▁en	-381
▁who	-382
reen	-383
▁new	-384
ong	-385
ity	-386
▁litt	-387
▁little	-388
im	-389
▁three	-390
om	-391
ably	-392
▁yep	-393
thing	-394
▁pr	-395
right	-396
▁prob	-397
▁by	-398
▁hu	-399
▁man	-400
ie	-401
▁produ	-402
▁bet	-403
▁imp	-404
▁give	-405
▁quite	-406
get	-407
▁fr	-408
▁fir	-409
▁let	-410
ies	-411
▁probably	-412
▁were	-413
▁screen	-414
orm	-415
▁ke	-416
▁bu	-417
and	-418
▁first	-419
age	-420
▁recog	-421
▁recogn	-422
▁cur	-423
▁lot	-424
▁into	-425
▁might	-426
▁had	-427
ore	-428
▁stu	-429
anc	-430
▁back	-431
ision	-432
atter	-433
▁still	-434
▁fa	-435
able	-436
ject	-437
▁part	-438
sent	-439
▁inf	-440
de	-441
▁same	-442
ry	-443
▁exp	-444
▁tech	-445
▁dec	-446
▁alright	-447
▁most	-448
▁those	-449
▁find	-450
ise	-451
▁min	-452
own	-453
▁ru	-454
▁guess	-455
▁sl	-456
▁spec	-457
▁take	-458
king	-459
▁even	-460
▁down	-461
▁sha	-462
ist	-463
▁over	-464
▁techn	-465
▁tal	-466
▁next	-467
no	-468
▁cost	-469
een	-470
ated	-471
ssi	-472
▁hand	-473
▁recognition	-474
blem	-475
▁problem	-476
ens	-477
▁stuff	-478
▁easy	-479
ption	-480
▁start	-481
▁rub	-482
ech	-483
▁import	-484
pl	-485
▁off	-486
ments	-487
▁ah	-488
▁four	-489
▁possi	-490
▁product	-491
red	-492
▁present	-493
▁num	-494
▁speech	-495
▁ho	-496
ving	-497
▁rubber	-498
▁batter	-499
roll	-500
▁big	-501
▁huh	-502
▁basically	-503
▁doesn	-504
▁bl	-505
cus	-506
▁again	-507
ers	-508
est	-509
ile	-510
lev	-511
▁try	-512
▁un	-513
▁ar	-514
ower	-515
lf	-516
▁number	-517
ady	-518
▁chip	-519
▁interf	-520
▁le	-521
▁important	-522
▁project	-523
ag	-524
▁minut	-525
▁scroll	-526
▁sm	-527
ater	-528
ature	-529
▁doing	-530
ous	-531
ume	-532
▁simple	-533
▁curve	-534
▁functions	-535
ond	-536
▁app	-537
▁inc	-538
ph	-539
▁bo	-540
▁word	-541
▁interface	-542
ting	-543
uit	-544
▁feature	-545
ult	-546
ical	-547
▁ind	-548
▁res	-549
▁option	-550
th	-551
▁supp	-552
▁sorry	-553
▁true	-554
ever	-555
▁why	-556
ms	-557
ctly	-558
ft	-559
ys	-560
ell	-561
▁set	-562
▁used	-563
▁power	-564
▁market	-565
▁ph	-566
▁lea	-567
ap	-568
▁case	-569
ance	-570
▁minutes	-571
cess	-572
▁vo	-573
play	-574
▁said	-575
▁display	-576
ought	-577
▁feel	-578
▁inform	-579
▁cour	-580
▁telev	-581
▁didn	-582
▁add	-583
▁com	-584
▁television	-585
▁their	-586
▁discus	-587
▁vol	-588
▁each	-589
▁course	-590
▁ac	-591
▁men	-592
▁come	-593
▁bot	-594
▁fin	-595
▁looking	-596
ody	-597
▁keep	-598
ete	-599
▁alre	-600
▁information	-601
iv	-602
▁already	-603
▁presentation	-604
ked	-605
nder	-606
▁volume	-607
▁controls	-608
▁quest	-609
ash	-610
ush	-611
▁dev	-612
reat	-613
▁top	-614
▁wan	-615
▁done	-616
▁question	-617
ert	-618
▁better	-619
are	-620
body	-621
▁anything	-622
▁nice	-623
raw	-624
▁fif	-625
▁colours	-626
▁wanna	-627
▁op	-628
other	-629
▁using	-630
▁thought	-631
▁def	-632
olog	-633
▁af	-634
atch	-635
▁inst	-636
▁under	-637
fore	-638
▁thr	-639
▁whatever	-640
▁example	-641
▁exactly	-642
▁everything	-643
sed	-644
▁fl	-645
▁last	-646
▁another	-647
▁tre	-648
▁change	-649
▁through	-650
▁end	-651
▁pers	-652
▁wr	-653
enty	-654
▁el	-655
▁eu	-656
▁ro	-657
▁draw	-658
▁having	-659
▁pret	-660
▁thir	-661
▁voice	-662
ri	-663
▁euro	-664
▁menu	-665
▁sy	-666
▁whole	-667
ype	-668
▁push	-669
▁technolog	-670
ious	-671
vers	-672
em	-673
ary	-674
▁six	-675
▁trend	-676
▁anyway	-677
▁cool	-678
▁person	-679
▁before	-680
▁pretty	-681
▁been	-682
▁working	-683
▁na	-684
▁requ	-685
▁fo	-686
▁shape	-687
ail	-688
ning	-689
▁twenty	-690
▁looks	-691
▁ev	-692
▁dun	-693
astic	-694
ord	-695
ru	-696
ual	-697
▁after	-698
▁har	-699
▁dunno	-700
▁small	-701
▁isn	-702
▁require	-703
▁possible	-704
cond	-705
▁ext	-706
▁discuss	-707
ead	-708
gra	-709
vel	-710
▁whe	-711
oup	-712
▁battery	-713
▁dat	-714
▁long	-715
▁many	-716
erg	-717
▁stand	-718
alu	-719
ud	-720
▁suppose	-721
ctr	-722
ish	-723
▁fanc	-724
▁press	-725
ful	-726
▁tra	-727
cept	-728
▁defin	-729
▁thank	-730
▁sign	-731
▁plastic	-732
ger	-733
erest	-734
ular	-735
eak	-736
kes	-737
▁else	-738
▁mater	-739
▁interest	-740
▁special	-741
▁betw	-742
▁line	-743
▁material	-744
▁functional	-745
cent	-746
▁hig	-747
▁wheel	-748
ack	-749
▁hard	-750
▁between	-751
▁light	-752
▁able	-753
▁fruit	-754
▁ob	-755
▁mod	-756
▁adv	-757
▁evalu	-758
▁fancy	-759
▁play	-760
ier	-761
onent	-762
▁data	-763
▁sound	-764
▁device	-765
▁second	-766
▁less	-767
▁yell	-768
▁component	-769
▁thinking	-770
▁gr	-771
▁progra	-772
ether	-773
▁enough	-774
▁tur	-775
rea	-776
les	-777
▁real	-778
▁yellow	-779
▁z	-780
row	-781
ways	-782
▁ele	-783
▁gen	-784
▁percent	-785
self	-786
▁side	-787
ensive	-788
▁compl	-789
▁curved	-790
▁whether	-791
ific	-792
▁always	-793
▁fash	-794
▁rat	-795
▁tell	-796
▁seven	-797
▁made	-798
▁talk	-799
▁fashion	-800
▁speak	-801
▁em	-802
▁cons	-803
▁twel	-804
▁eight	-805
▁though	-806
▁cor	-807
▁signal	-808
▁channels	-809
eri	-810
▁fifty	-811
▁watch	-812
▁seg	-813
▁both	-814
▁gener	-815
▁twelve	-816
pect	-817
▁sell	-818
▁show	-819
▁means	-820
▁buy	-821
▁expensive	-822
ces	-823
▁cho	-824
▁features	-825
ount	-826
▁definite	-827
ang	-828
▁fact	-829
▁great	-830
▁toget	-831
▁together	-832
▁wouldn	-833
▁talking	-834
▁marketing	-835
earch	-836
▁around	-837
▁am	-838
▁sol	-839
▁ten	-840
pend	-841
elete	-842
ium	-843
▁dou	-844
ict	-845
▁energ	-846
lder	-847
vious	-848
▁wa	-849
inet	-850
itch	-851
▁br	-852
▁sw	-853
▁energy	-854
wh	-855
▁im	-856
▁high	-857
▁youn	-858
io	-859
▁left	-860
▁extra	-861
ics	-862
▁concept	-863
▁definitely	-864
▁ins	-865
▁tit	-866
▁red	-867
ative	-868
▁reg	-869
▁comm	-870
▁dire	-871
▁agree	-872
▁ideas	-873
▁thirty	-874
▁ban	-875
▁fine	-876
▁options	-877
▁words	-878
▁moment	-879
▁technology	-880
▁compan	-881
▁saying	-882
▁telete	-883
▁syst	-884
▁teletext	-885
ild	-886
▁form	-887
▁move	-888
▁ones	-889
▁board	-890
▁least	-891
▁turn	-892
▁interesting	-893
ans	-894
ically	-895
▁price	-896
ense	-897
▁specific	-898
cu	-899
▁prot	-900
▁rep	-901
▁being	-902
▁spong	-903
▁banan	-904
▁jo	-905
▁guys	-906
▁group	-907
▁mic	-908
▁won	-909
▁open	-910
▁euros	-911
▁double	-912
mes	-913
ouch	-914
▁advanc	-915
▁incl	-916
ily	-917
par	-918
por	-919
▁docu	-920
ach	-921
▁banana	-922
▁call	-923
▁kinda	-924
▁advanced	-925
▁es	-926
▁half	-927
▁happ	-928
▁main	-929
▁vide	-930
▁depend	-931
▁spongy	-932
▁company	-933
▁standard	-934
▁video	-935
▁det	-936
▁chang	-937
▁titan	-938
▁rather	-939
where	-940
▁sing	-941
▁sense	-942
ertain	-943
▁chea	-944
▁titanium	-945
ially	-946
ility	-947
▁components	-948
▁possib	-949
▁log	-950
▁year	-951
ations	-952
▁slide	-953
▁numbers	-954
▁separ	-955
iew	-956
ze	-957
ither	-958
▁trans	-959
▁decide	-960
ually	-961
▁certain	-962
ory	-963
▁few	-964
▁micro	-965
▁batteries	-966
▁single	-967
▁decision	-968
nce	-969
▁acc	-970
mo	-971
▁far	-972
▁fre	-973
▁name	-974
▁cheap	-975
▁without	-976
vent	-977
▁works	-978
▁ter	-979
▁away	-980
▁sour	-981
▁touch	-982
▁switch	-983
▁program	-984
ood	-985
▁la	-986
▁comput	-987
ided	-988
▁room	-989
▁makes	-990
▁type	-991
ull	-992
▁ow	-993
▁norm	-994
▁inno	-995
▁model	-996
▁remotes	-997
gr	-998
ange	-999
ating	-1000
▁must	-1001
▁send	-1002
▁black	-1003
▁ve	-1004
▁cr	-1005
▁evaluation	-1006
▁own	-1007
▁file	-1008
▁lose	-1009
▁intern	-1010
▁system	-1011
▁haven	-1012
▁innov	-1013
▁protot	-1014
▁requirements	-1015
bo	-1016
▁once	-1017
▁soft	-1018
▁str	-1019
▁white	-1020
idd	-1021
ible	-1022
▁hold	-1023
▁sele	-1024
▁diffic	-1025
▁either	-1026
ward	-1027
mber	-1028
▁fra	-1029
ouse	-1030
▁microph	-1031
▁clear	-1032
ides	-1033
▁infra	-1034
▁users	-1035
▁underst	-1036
▁separate	-1037
ase	-1038
mit	-1039
▁rel	-1040
▁run	-1041
▁quick	-1042
▁seems	-1043
▁source	-1044
imal	-1045
▁aud	-1046
▁cent	-1047
▁costs	-1048
▁everybody	-1049
ider	-1050
▁uni	-1051
▁technical	-1052
act	-1053
ass	-1054
▁tar	-1055
▁hope	-1056
▁shouldn	-1057
▁x	-1058
▁ga	-1059
ute	-1060
teen	-1061
▁such	-1062
▁process	-1063
▁save	-1064
▁difficult	-1065
quen	-1066
▁age	-1067
▁pen	-1068
▁mind	-1069
▁pref	-1070
▁read	-1071
porate	-1072
rent	-1073
▁found	-1074
▁speaker	-1075
▁bad	-1076
▁wanted	-1077
ages	-1078
▁list	-1079
▁const	-1080
▁forty	-1081
ont	-1082
▁che	-1083
▁page	-1084
▁research	-1085
ek	-1086
▁email	-1087
▁choose	-1088
▁instead	-1089
▁spectr	-1090
▁current	-1091
▁prototype	-1092
not	-1093
ndred	-1094
▁kinet	-1095
▁itself	-1096
▁trying	-1097
▁hundred	-1098
ia	-1099
elp	-1100
ude	-1101
▁electr	-1102
▁making	-1103
▁reme	-1104
▁understand	-1105
▁easier	-1106
ones	-1107
ustr	-1108
▁fit	-1109
▁close	-1110
▁ent	-1111
▁getting	-1112
▁remember	-1113
▁char	-1114
▁never	-1115
▁write	-1116
▁kinetic	-1117
▁somewhere	-1118
os	-1119
ings	-1120
ied	-1121
▁obvious	-1122
▁cir	-1123
icated	-1124
▁solar	-1125
▁partic	-1126
aps	-1127
mpl	-1128
▁da	-1129
▁key	-1130
▁circ	-1131
▁inte	-1132
▁says	-1133
▁setting	-1134
▁goes	-1135
▁inside	-1136
▁useful	-1137
pes	-1138
▁ut	-1139
▁designer	-1140
▁fair	-1141
▁logo	-1142
▁nothing	-1143
▁fi	-1144
ions	-1145
▁sub	-1146
▁based	-1147
▁later	-1148
▁av	-1149
reak	-1150
▁its	-1151
▁perh	-1152
board	-1153
▁conf	-1154
▁needs	-1155
▁record	-1156
▁within	-1157
ten	-1158
ivid	-1159
▁hour	-1160
▁wait	-1161
▁front	-1162
▁round	-1163
▁utter	-1164
▁finish	-1165
▁decided	-1166
ices	-1167
▁ask	-1168
▁help	-1169
▁lost	-1170
▁perhaps	-1171
▁personal	-1172
▁wood	-1173
▁actual	-1174
▁animal	-1175
iss	-1176
▁day	-1177
▁she	-1178
▁yet	-1179
▁phone	-1180
ence	-1181
▁view	-1182
▁given	-1183
▁level	-1184
▁trendy	-1185
▁consider	-1186
▁crit	-1187
▁cover	-1188
▁individ	-1189
ress	-1190
▁bel	-1191
▁frequen	-1192
▁att	-1193
▁mach	-1194
▁frequenc	-1195
ason	-1196
oney	-1197
▁summ	-1198
▁incor	-1199
▁money	-1200
▁normal	-1201
▁segment	-1202
lex	-1203
gest	-1204
▁build	-1205
▁place	-1206
▁integr	-1207
▁sk	-1208
▁fil	-1209
▁mill	-1210
▁reason	-1211
ask	-1212
iend	-1213
▁met	-1214
▁task	-1215
▁text	-1216
▁comes	-1217
▁terms	-1218
▁times	-1219
mil	-1220
▁bott	-1221
▁seen	-1222
▁break	-1223
▁points	-1224
co	-1225
ines	-1226
vour	-1227
▁mob	-1228
▁old	-1229
▁general	-1230
wise	-1231
▁mult	-1232
▁imple	-1233
▁aspect	-1234
▁depends	-1235
▁programme	-1236
▁microphone	-1237
ract	-1238
▁vers	-1239
▁veget	-1240
▁regular	-1241
▁electron	-1242
▁bud	-1243
ention	-1244
▁frame	-1245
▁bottom	-1246
▁friend	-1247
▁otherwise	-1248
▁sin	-1249
▁audio	-1250
▁mouse	-1251
▁stick	-1252
▁target	-1253
▁usually	-1254
eam	-1255
put	-1256
▁favour	-1257
▁implement	-1258
day	-1259
▁pict	-1260
▁prop	-1261
▁budget	-1262
▁controll	-1263
ors	-1264
ware	-1265
▁act	-1266
cture	-1267
▁inde	-1268
▁rece	-1269
ctions	-1270
▁computer	-1271
ero	-1272
▁plus	-1273
▁complete	-1274
▁check	-1275
▁expert	-1276
▁fig	-1277
▁ord	-1278
eable	-1279
▁best	-1280
▁settings	-1281
▁iss	-1282
▁code	-1283
▁devel	-1284
▁necess	-1285
▁include	-1286
▁segments	-1287
less	-1288
▁ass	-1289
▁eff	-1290
▁orig	-1291
▁mobile	-1292
▁develop	-1293
▁picture	-1294
▁younger	-1295
▁innovative	-1296
eal	-1297
iddle	-1298
uring	-1299
▁nine	-1300
▁wind	-1301
▁zero	-1302
▁origin	-1303
▁loc	-1304
ities	-1305
▁beep	-1306
▁hear	-1307
▁sens	-1308
▁click	-1309
▁manag	-1310
ves	-1311
▁dig	-1312
▁dist	-1313
▁espe	-1314
▁young	-1315
▁infrared	-1316
▁individual	-1317
▁espec	-1318
▁cannot	-1319
▁document	-1320
▁complicated	-1321
▁gra	-1322
▁cell	-1323
▁cust	-1324
▁prof	-1325
▁since	-1326
▁result	-1327
▁watching	-1328
▁easily	-1329
▁favourite	-1330
▁especially	-1331
▁ser	-1332
▁blue	-1333
▁rest	-1334
▁creat	-1335
▁often	-1336
▁custom	-1337
▁sounds	-1338
▁meetings	-1339
▁supposed	-1340
▁obviously	-1341
rop	-1342
▁care	-1343
▁print	-1344
▁table	-1345
▁circuit	-1346
▁industr	-1347
ates	-1348
ieve	-1349
▁cra	-1350
ering	-1351
▁wasn	-1352
▁matter	-1353
▁fifteen	-1354
ruct	-1355
▁cat	-1356
▁tha	-1357
▁team	-1358
▁parts	-1359
▁phase	-1360
▁middle	-1361
▁univers	-1362
▁industrial	-1363
▁pay	-1364
▁figure	-1365
▁frequency	-1366
ta	-1367
unch	-1368
▁web	-1369
▁base	-1370
▁perf	-1371
▁size	-1372
▁digit	-1373
▁functionality	-1374
med	-1375
▁pap	-1376
arent	-1377
▁almo	-1378
▁flat	-1379
▁avail	-1380
ered	-1381
ouple	-1382
▁coming	-1383
▁couple	-1384
▁sug	-1385
▁pick	-1386
▁station	-1387
▁fix	-1388
▁squ	-1389
▁sample	-1390
ye	-1391
▁par	-1392
▁anal	-1393
▁plea	-1394
▁week	-1395
▁final	-1396
▁experi	-1397
▁slides	-1398
▁materials	-1399
▁cal	-1400
▁train	-1401
▁almost	-1402
▁bright	-1403
▁happen	-1404
▁criteri	-1405
▁friendly	-1406
ne	-1407
era	-1408
rib	-1409
▁aut	-1410
▁ear	-1411
▁tot	-1412
▁came	-1413
▁exce	-1414
▁imag	-1415
▁count	-1416
▁object	-1417
▁everyone	-1418
▁questions	-1419
▁particular	-1420
imes	-1421
iple	-1422
▁box	-1423
▁bro	-1424
▁cut	-1425
▁lar	-1426
▁comb	-1427
▁conc	-1428
▁expl	-1429
▁load	-1430
▁report	-1431
▁suggest	-1432
▁changing	-1433
▁original	-1434
▁available	-1435
iz	-1436
▁aim	-1437
▁sca	-1438
▁bring	-1439
▁limit	-1440
▁topic	-1441
▁select	-1442
▁trends	-1443
ug	-1444
gin	-1445
res	-1446
▁cre	-1447
action	-1448
▁manager	-1449
ness	-1450
▁stay	-1451
▁focus	-1452
▁sometimes	-1453
oth	-1454
oked	-1455
part	-1456
▁fur	-1457
▁mar	-1458
▁lear	-1459
▁test	-1460
▁track	-1461
▁window	-1462
▁mention	-1463
▁documents	-1464
▁gi	-1465
▁cod	-1466
pping	-1467
▁band	-1468
▁dark	-1469
▁stra	-1470
▁leave	-1471
▁simil	-1472
▁machine	-1473
▁difference	-1474
▁ra	-1475
sure	-1476
▁car	-1477
▁gotta	-1478
▁ready	-1479
▁access	-1480
▁similar	-1481
▁low	-1482
ances	-1483
ution	-1484
▁prov	-1485
▁sent	-1486
▁spend	-1487
▁thanks	-1488
▁criteria	-1489
▁universal	-1490
ables	-1491
▁mess	-1492
▁tool	-1493
▁smart	-1494
▁folder	-1495
▁format	-1496
▁complex	-1497
▁quickly	-1498
▁presentations	-1499
▁mon	-1500
▁fast	-1501
▁unit	-1502
▁simpl	-1503
▁spectrum	-1504
ee	-1505
ock	-1506
▁today	-1507
▁putting	-1508
▁possibly	-1509
▁previous	-1510
lic	-1511
ove	-1512
▁gl	-1513
asing	-1514
▁pres	-1515
▁while	-1516
▁someone	-1517
▁internet	-1518
▁construct	-1519
▁discussion	-1520
▁incorporate	-1521
▁dy	-1522
ully	-1523
▁mat	-1524
▁sur	-1525
▁home	-1526
▁range	-1527
▁wants	-1528
▁imagine	-1529
▁prefere	-1530
▁discussed	-1531
▁wi	-1532
ateg	-1533
oint	-1534
▁pie	-1535
▁tri	-1536
▁val	-1537
▁aver	-1538
▁went	-1539
▁scale	-1540
▁please	-1541
▁instance	-1542
▁somebody	-1543
▁production	-1544
man	-1545
▁step	-1546
▁begin	-1547
▁years	-1548
▁direct	-1549
cul	-1550
▁ty	-1551
ised	-1552
▁joy	-1553
▁var	-1554
▁dyna	-1555
▁rech	-1556
▁gives	-1557
▁order	-1558
itional	-1559
▁software	-1560
▁completely	-1561
▁pa	-1562
▁wha	-1563
▁plan	-1564
▁resp	-1565
▁takes	-1566
▁contin	-1567
▁manage	-1568
▁profit	-1569
▁rechar	-1570
▁search	-1571
▁electronics	-1572
ced	-1573
▁sit	-1574
itive	-1575
stick	-1576
▁stru	-1577
▁covers	-1578
▁slight	-1579
ops	-1580
fort	-1581
▁his	-1582
▁average	-1583
▁measure	-1584
▁results	-1585
▁selling	-1586
ork	-1587
ses	-1588
point	-1589
▁alph	-1590
▁aren	-1591
▁late	-1592
▁oper	-1593
itting	-1594
▁appro	-1595
▁shall	-1596
▁joystick	-1597
▁programm	-1598
ank	-1599
ify	-1600
come	-1601
▁link	-1602
▁space	-1603
▁third	-1604
▁throw	-1605
▁wrong	-1606
▁includ	-1607
▁looked	-1608
▁triang	-1609
hod	-1610
work	-1611
▁exc	-1612
▁pos	-1613
▁calcul	-1614
▁method	-1615
▁phones	-1616
▁taking	-1617
ib	-1618
▁er	-1619
▁et	-1620
nces	-1621
▁cam	-1622
▁alth	-1623
▁keys	-1624
▁allow	-1625
▁corre	-1626
▁files	-1627
▁older	-1628
▁create	-1629
▁devices	-1630
▁million	-1631
▁although	-1632
▁controller	-1633
▁powerpoint	-1634
to	-1635
ient	-1636
ately	-1637
wards	-1638
▁wond	-1639
▁child	-1640
▁green	-1641
▁value	-1642
ability	-1643
▁effect	-1644
▁sevent	-1645
nda	-1646
sor	-1647
▁alpha	-1648
▁anybody	-1649
▁command	-1650
▁products	-1651
▁whiteboard	-1652
sol	-1653
▁ug	-1654
llow	-1655
▁saw	-1656
▁vis	-1657
▁wid	-1658
▁mute	-1659
▁repl	-1660
▁slog	-1661
▁class	-1662
▁fairly	-1663
▁eye	-1664
▁drop	-1665
▁appear	-1666
▁follow	-1667
▁receive	-1668
▁integrated	-1669
uf	-1670
nch	-1671
ump	-1672
veral	-1673
▁card	-1674
▁autom	-1675
▁ident	-1676
▁noise	-1677
▁width	-1678
▁analys	-1679
▁instru	-1680
▁slogan	-1681
▁believe	-1682
▁several	-1683
ron	-1684
▁sty	-1685
▁absor	-1686
▁exist	-1687
▁issue	-1688
▁lines	-1689
▁detect	-1690
▁expect	-1691
▁version	-1692
▁selection	-1693
▁conceptual	-1694
▁possibility	-1695
▁eng	-1696
▁equ	-1697
etera	-1698
▁wire	-1699
▁paper	-1700
▁ed	-1701
▁lapt	-1702
ording	-1703
▁image	-1704
▁automat	-1705
▁drawing	-1706
▁according	-1707
▁corporate	-1708
▁structure	-1709
▁oo	-1710
▁div	-1711
▁him	-1712
▁mor	-1713
▁brow	-1714
▁lots	-1715
▁meet	-1716
▁mine	-1717
▁relev	-1718
▁worth	-1719
▁shapes	-1720
▁decisions	-1721
▁utterance	-1722
ren	-1723
more	-1724
onom	-1725
side	-1726
▁lay	-1727
▁sch	-1728
▁dial	-1729
▁gets	-1730
▁categ	-1731
▁input	-1732
▁learn	-1733
▁manuf	-1734
▁bigger	-1735
▁couldn	-1736
▁running	-1737
▁vegetables	-1738
ern	-1739
▁del	-1740
▁gre	-1741
▁shot	-1742
▁soon	-1743
▁anyone	-1744
▁coding	-1745
▁square	-1746
▁problems	-1747
▁slightly	-1748
▁straight	-1749
ior	-1750
lish	-1751
sing	-1752
▁aff	-1753
▁job	-1754
▁rad	-1755
▁unt	-1756
fully	-1757
▁large	-1758
▁ninet	-1759
▁score	-1760
ath	-1761
ote	-1762
▁ly	-1763
ator	-1764
▁pur	-1765
mples	-1766
▁ugly	-1767
▁indeed	-1768
▁evaluate	-1769
▁direction	-1770
ax	-1771
▁di	-1772
▁bra	-1773
▁ooh	-1774
▁flip	-1775
▁lead	-1776
▁rate	-1777
▁amount	-1778
▁called	-1779
▁casing	-1780
▁lights	-1781
▁worked	-1782
▁forward	-1783
▁further	-1784
▁perfect	-1785
▁summary	-1786
▁beginning	-1787
umb	-1788
▁pop	-1789
iting	-1790
ivity	-1791
▁feed	-1792
▁lunch	-1793
▁handed	-1794
▁prefer	-1795
▁utterances	-1796
hip	-1797
ons	-1798
per	-1799
xim	-1800
iled	-1801
▁beh	-1802
▁head	-1803
▁post	-1804
ission	-1805
▁agenda	-1806
▁sensor	-1807
▁account	-1808
▁spectral	-1809
bit	-1810
how	-1811
▁bus	-1812
▁lab	-1813
arily	-1814
▁ever	-1815
▁sixt	-1816
▁stop	-1817
▁impro	-1818
▁sixty	-1819
▁thumb	-1820
▁until	-1821
▁forget	-1822
▁higher	-1823
▁analysis	-1824
▁interested	-1825
ped	-1826
▁ye	-1827
▁ref	-1828
▁happy	-1829
▁worry	-1830
▁during	-1831
▁reaction	-1832
que	-1833
angu	-1834
▁erg	-1835
istic	-1836
resent	-1837
▁langu	-1838
▁match	-1839
▁pages	-1840
▁reach	-1841
▁sorta	-1842
▁ergonom	-1843
▁outside	-1844
▁sixteen	-1845
▁somehow	-1846
▁findings	-1847
▁represent	-1848
py	-1849
gth	-1850
ffee	-1851
▁bec	-1852
ality	-1853
▁seem	-1854
▁piece	-1855
▁seventy	-1856
▁hopefully	-1857
▁preferences	-1858
li	-1859
ken	-1860
▁full	-1861
▁ahead	-1862
▁clust	-1863
▁lyman	-1864
▁ninety	-1865
▁summar	-1866
▁talked	-1867
▁cheaper	-1868
▁explain	-1869
▁recharg	-1870
▁started	-1871
▁directly	-1872
▁recognis	-1873
▁certainly	-1874
ci	-1875
lier	-1876
ooth	-1877
▁gal	-1878
▁wow	-1879
▁free	-1880
▁plug	-1881
▁purp	-1882
▁temp	-1883
▁told	-1884
▁synch	-1885
▁coffee	-1886
▁necessary	-1887
ah	-1888
sh	-1889
sw	-1890
rew	-1891
▁mi	-1892
view	-1893
▁adj	-1894
▁dem	-1895
▁hey	-1896
▁answ	-1897
▁stud	-1898
▁broad	-1899
▁chips	-1900
▁event	-1901
▁store	-1902
ational	-1903
▁continu	-1904
▁position	-1905
ript	-1906
▁nah	-1907
llent	-1908
▁dock	-1909
▁miss	-1910
apping	-1911
▁cells	-1912
▁combin	-1913
▁minute	-1914
▁strong	-1915
▁unless	-1916
▁designs	-1917
▁multiple	-1918
▁excellent	-1919
▁mentioned	-1920
▁absorption	-1921
▁management	-1922
ved	-1923
ailed	-1924
▁ball	-1925
▁coll	-1926
▁init	-1927
▁mode	-1928
▁onto	-1929
▁handy	-1930
▁lower	-1931
▁notes	-1932
▁short	-1933
▁adjust	-1934
▁detail	-1935
▁entire	-1936
▁approach	-1937
▁designed	-1938
▁finished	-1939
▁triangle	-1940
▁personally	-1941
▁technologically	-1942
ny	-1943
ems	-1944
▁art	-1945
▁fill	-1946
▁hell	-1947
▁along	-1948
▁galax	-1949
▁tried	-1950
▁player	-1951
▁digital	-1952
▁whereas	-1953
av	-1954
cur	-1955
led	-1956
sel	-1957
nect	-1958
▁goal	-1959
▁opin	-1960
▁took	-1961
▁commun	-1962
▁essent	-1963
▁fruits	-1964
▁models	-1965
▁anymore	-1966
▁totally	-1967
▁designing	-1968
▁televisions	-1969
ac	-1970
ian	-1971
▁ip	-1972
line	-1973
rodu	-1974
ross	-1975
▁thi	-1976
rease	-1977
▁fing	-1978
▁grey	-1979
▁tele	-1980
▁added	-1981
▁laptop	-1982
▁strange	-1983
▁directory	-1984
▁vegetable	-1985
ues	-1986
aces	-1987
iver	-1988
▁fut	-1989
▁lin	-1990
▁zap	-1991
▁ipod	-1992
▁simp	-1993
▁tend	-1994
▁apple	-1995
▁pract	-1996
▁radio	-1997
▁needed	-1998
▁output	-1999
▁script	-2000
▁earlier	-2001
▁produce	-2002
▁children	-2003
▁communic	-2004
got	-2005
ner	-2006
ret	-2007
▁ok	-2008
▁pan	-2009
iness	-2010
▁bits	-2011
selves	-2012
▁arrow	-2013
▁becom	-2014
▁meant	-2015
▁menus	-2016
ilities	-2017
▁series	-2018
▁finance	-2019
▁quality	-2020
▁automatically	-2021
ew	-2022
lo	-2023
mb	-2024
▁arr	-2025
▁mot	-2026
▁ret	-2027
oring	-2028
▁skip	-2029
iction	-2030
▁asked	-2031
▁curves	-2032
ditional	-2033
▁feeling	-2034
▁morning	-2035
▁language	-2036
▁necessarily	-2037
▁ada	-2038
▁dog	-2039
▁guy	-2040
▁len	-2041
▁spl	-2042
ified	-2043
▁face	-2044
▁gone	-2045
▁consum	-2046
▁dynamo	-2047
▁moving	-2048
▁parent	-2049
▁shaped	-2050
▁comfort	-2051
▁docking	-2052
▁introdu	-2053
▁emission	-2054
▁traditional	-2055
fe	-2056
ho	-2057
gor	-2058
ser	-2059
▁pu	-2060
▁bur	-2061
▁fru	-2062
▁mem	-2063
naire	-2064
▁copy	-2065
▁days	-2066
▁deal	-2067
▁algor	-2068
▁types	-2069
▁forgot	-2070
▁length	-2071
▁supple	-2072
▁attract	-2073
▁connect	-2074
▁related	-2075
▁replace	-2076
▁detailed	-2077
▁relevant	-2078
▁customers	-2079
▁rechargeable	-2080
▁questionnaire	-2081
end	-2082
▁oc	-2083
ared	-2084
ogue	-2085
vert	-2086
▁bea	-2087
▁led	-2088
▁sil	-2089
solute	-2090
▁knows	-2091
▁depart	-2092
▁simply	-2093
▁topics	-2094
▁changes	-2095
▁seconds	-2096
▁smaller	-2097
▁absolute	-2098
▁algorith	-2099
▁pictures	-2100
▁training	-2101
▁transmit	-2102
▁yourself	-2103
back	-2104
pped	-2105
▁bul	-2106
▁env	-2107
▁pot	-2108
iding	-2109
osing	-2110
▁desc	-2111
▁redu	-2112
▁below	-2113
▁blink	-2114
▁flash	-2115
▁advant	-2116
▁appeal	-2117
▁fruity	-2118
▁myself	-2119
▁finding	-2120
▁however	-2121
▁improve	-2122
▁opinion	-2123
▁overall	-2124
▁various	-2125
▁willing	-2126
▁examples	-2127
▁synchron	-2128
▁reasonable	-2129
br	-2130
up	-2131
▁bar	-2132
▁mis	-2133
▁opp	-2134
▁rob	-2135
▁apart	-2136
▁blank	-2137
▁cable	-2138
▁enter	-2139
▁prior	-2140
▁longer	-2141
▁mostly	-2142
▁shared	-2143
▁creativity	-2144
ux	-2145
zy	-2146
ift	-2147
▁dur	-2148
▁her	-2149
▁wel	-2150
ising	-2151
▁book	-2152
▁ways	-2153
▁above	-2154
▁activ	-2155
▁adapt	-2156
▁hands	-2157
▁house	-2158
▁month	-2159
▁overl	-2160
▁assume	-2161
▁future	-2162
▁memory	-2163
▁nobody	-2164
▁unique	-2165
▁signals	-2166
▁apparent	-2167
▁particip	-2168
bul	-2169
uck	-2170
ling	-2171
▁est	-2172
▁fits	-2173
▁apply	-2174
▁graph	-2175
▁panel	-2176
▁style	-2177
▁total	-2178
▁others	-2179
▁aspects	-2180
▁limited	-2181
▁provide	-2182
▁purpose	-2183
▁dialogue	-2184
▁department	-2185
▁instructions	-2186
ext	-2187
ird	-2188
ogra	-2189
ying	-2190
▁enc	-2191
▁hil	-2192
▁mov	-2193
▁corp	-2194
istics	-2195
▁weren	-2196
▁choice	-2197
▁teleph	-2198
▁charact	-2199
▁context	-2200
▁message	-2201
▁existing	-2202
▁feedback	-2203
▁depending	-2204
▁apparently	-2205
▁innovation	-2206
▁international	-2207
ky	-2208
ize	-2209
mon	-2210
tas	-2211
▁ic	-2212
▁ju	-2213
hold	-2214
▁non	-2215
▁sle	-2216
ience	-2217
vered	-2218
▁fore	-2219
▁phys	-2220
ership	-2221
▁heard	-2222
▁contra	-2223
▁issues	-2224
▁starts	-2225
▁wheels	-2226
▁finally	-2227
▁systems	-2228
▁incorpor	-2229
▁pressing	-2230
▁starting	-2231
▁scrolling	-2232
▁processing	-2233
▁participant	-2234
gan	-2235
oud	-2236
cing	-2237
osed	-2238
ters	-2239
ural	-2240
velo	-2241
vest	-2242
▁fal	-2243
▁kid	-2244
▁opt	-2245
▁fall	-2246
▁oops	-2247
▁pack	-2248
▁past	-2249
▁coach	-2250
▁hello	-2251
▁common	-2252
▁transf	-2253
▁support	-2254
▁algorithm	-2255
▁brightness	-2256
▁microphones	-2257
ean	-2258
vig	-2259
mped	-2260
icity	-2261
▁insp	-2262
▁love	-2263
▁slow	-2264
▁thin	-2265
▁navig	-2266
▁restr	-2267
▁sends	-2268
▁corpus	-2269
▁except	-2270
▁factor	-2271
▁invest	-2272
▁mainly	-2273
▁posteri	-2274
▁sitting	-2275
▁increase	-2276
▁leadership	-2277
ays	-2278
rap	-2279
bert	-2280
ream	-2281
tern	-2282
▁etc	-2283
▁med	-2284
▁tun	-2285
ently	-2286
▁acqu	-2287
▁anno	-2288
▁huge	-2289
▁mail	-2290
▁role	-2291
▁spea	-2292
▁star	-2293
▁stat	-2294
▁elder	-2295
▁maxim	-2296
▁share	-2297
▁split	-2298
▁proper	-2299
▁wonder	-2300
▁happens	-2301
▁hilbert	-2302
▁welcome	-2303
▁etcetera	-2304
▁electronic	-2305
▁fashionable	-2306
▁sta	-2307
tasia	-2308
▁area	-2309
▁glow	-2310
velope	-2311
▁links	-2312
▁minim	-2313
▁pitch	-2314
▁sheet	-2315
▁whist	-2316
▁world	-2317
▁yours	-2318
▁eighty	-2319
▁millise	-2320
▁camtasia	-2321
▁concepts	-2322
▁envelope	-2323
▁generate	-2324
▁thoughts	-2325
▁advantage	-2326
▁integrate	-2327
▁requirement	-2328
dd	-2329
vy	-2330
gle	-2331
lus	-2332
oid	-2333
▁hi	-2334
used	-2335
▁dom	-2336
▁net	-2337
ional	-2338
▁gave	-2339
▁prep	-2340
▁prim	-2341
ousand	-2342
▁false	-2343
▁latex	-2344
▁occur	-2345
▁answer	-2346
▁seeing	-2347
▁distrib	-2348
▁writing	-2349
▁speaking	-2350
▁thousand	-2351
▁millisecond	-2352
iest	-2353
iron	-2354
▁lit	-2355
▁wal	-2356
▁ease	-2357
erence	-2358
icient	-2359
▁conne	-2360
▁kinds	-2361
▁trick	-2362
▁applic	-2363
▁become	-2364
▁centre	-2365
▁define	-2366
▁environ	-2367
▁subject	-2368
▁windows	-2369
▁category	-2370
▁normally	-2371
▁relative	-2372
▁effective	-2373
▁ergonomic	-2374
ief	-2375
amet	-2376
ents	-2377
▁doh	-2378
▁upd	-2379
light	-2380
ground	-2381
▁basis	-2382
▁feels	-2383
▁funny	-2384
▁minus	-2385
▁multi	-2386
▁shift	-2387
▁stage	-2388
▁behind	-2389
▁damped	-2390
▁likely	-2391
▁remove	-2392
▁changed	-2393
▁charger	-2394
▁correct	-2395
▁paramet	-2396
▁building	-2397
▁compress	-2398
▁character	-2399
▁importance	-2400
▁comfortable	-2401
▁environment	-2402
but	-2403
ene	-2404
ror	-2405
asar	-2406
over	-2407
▁maj	-2408
▁pet	-2409
▁rid	-2410
idden	-2411
▁kids	-2412
▁pass	-2413
▁prom	-2414
▁annot	-2415
▁estim	-2416
▁organ	-2417
▁sides	-2418
▁state	-2419
ization	-2420
▁groups	-2421
▁losing	-2422
▁manufa	-2423
▁quasar	-2424
▁region	-2425
▁becomes	-2426
▁concern	-2427
▁constra	-2428
▁english	-2429
▁pushbut	-2430
▁machines	-2431
▁receiver	-2432
▁solution	-2433
▁including	-2434
▁recognisable	-2435
gn	-2436
vol	-2437
▁wo	-2438
▁hit	-2439
▁rab	-2440
▁veg	-2441
itten	-2442
▁agre	-2443
▁gaze	-2444
▁life	-2445
▁mist	-2446
▁news	-2447
▁note	-2448
▁cases	-2449
▁indic	-2450
▁major	-2451
▁adding	-2452
▁frustr	-2453
▁giving	-2454
▁hidden	-2455
▁listen	-2456
▁rabbit	-2457
▁weight	-2458
▁combine	-2459
▁opening	-2460
▁perform	-2461
▁playing	-2462
▁audience	-2463
▁included	-2464
▁received	-2465
▁thirteen	-2466
▁practical	-2467
▁recognise	-2468
▁clustering	-2469
▁experience	-2470
▁pushbutton	-2471
▁simplicity	-2472
ns	-2473
eas	-2474
ined	-2475
raid	-2476
▁nat	-2477
▁pub	-2478
▁disc	-2479
▁fire	-2480
▁dynam	-2481
▁taken	-2482
▁tools	-2483
▁manual	-2484
▁triple	-2485
▁covered	-2486
▁maximum	-2487
▁towards	-2488
▁zapping	-2489
▁annoying	-2490
▁commands	-2491
▁manufact	-2492
▁requires	-2493
▁wondering	-2494
▁additional	-2495
▁programming	-2496
▁supplements	-2497
▁possibilities	-2498
▁functionalities	-2499
iar	-2500
pid	-2501
▁hy	-2502
iced	-2503
medi	-2504
ster	-2505
▁ach	-2506
▁hum	-2507
lling	-2508
▁disk	-2509
▁impo	-2510
uitive	-2511
▁clock	-2512
▁hours	-2513
▁stere	-2514
▁across	-2515
▁marked	-2516
▁stupid	-2517
▁clearly	-2518
▁compare	-2519
▁details	-2520
▁figured	-2521
▁overlap	-2522
▁popular	-2523
▁written	-2524
▁compared	-2525
▁contrast	-2526
▁displays	-2527
▁restrict	-2528
▁agreement	-2529
▁generally	-2530
▁recording	-2531
▁smartboard	-2532
▁manufacture	-2533
▁ce	-2534
ield	-2535
load	-2536
▁cap	-2537
▁mil	-2538
iable	-2539
onest	-2540
using	-2541
▁gest	-2542
▁roll	-2543
▁surf	-2544
▁targ	-2545
▁brand	-2546
▁carri	-2547
▁famil	-2548
▁paint	-2549
▁shows	-2550
▁thres	-2551
▁afford	-2552
▁afraid	-2553
▁boring	-2554
▁cetera	-2555
▁digits	-2556
▁engine	-2557
▁fronts	-2558
▁layout	-2559
▁papers	-2560
▁respon	-2561
▁categor	-2562
▁impossi	-2563
▁initial	-2564
▁showing	-2565
▁creative	-2566
▁continuum	-2567
▁displayed	-2568
▁threshold	-2569
▁attractive	-2570
▁background	-2571
▁combination	-2572
▁manufacturing	-2573
▁technological	-2574
ibr	-2575
▁ge	-2576
aint	-2577
ming	-2578
▁map	-2579
chang	-2580
mmick	-2581
▁chun	-2582
▁flex	-2583
▁kick	-2584
▁brief	-2585
▁charg	-2586
▁field	-2587
▁movie	-2588
▁rough	-2589
▁sleek	-2590
▁wrote	-2591
▁affect	-2592
▁agreed	-2593
▁compet	-2594
▁eleven	-2595
▁finger	-2596
▁handle	-2597
▁honest	-2598
▁stereo	-2599
▁stream	-2600
▁gimmick	-2601
▁keeping	-2602
▁natural	-2603
▁screens	-2604
▁simpler	-2605
▁messages	-2606
▁following	-2607
gs	-2608
ety	-2609
ips	-2610
isf	-2611
ral	-2612
ales	-2613
cket	-2614
iant	-2615
▁cha	-2616
▁fam	-2617
▁sho	-2618
ledge	-2619
neath	-2620
▁bulb	-2621
▁grab	-2622
▁pens	-2623
▁spin	-2624
▁uses	-2625
▁wave	-2626
fortun	-2627
▁beaut	-2628
▁equip	-2629
▁lemon	-2630
▁twice	-2631
isation	-2632
▁frames	-2633
▁harder	-2634
▁months	-2635
▁smooth	-2636
▁careful	-2637
▁holding	-2638
▁locator	-2639
▁visible	-2640
▁physical	-2641
▁teamwork	-2642
▁unfortun	-2643
changeable	-2644
▁targeting	-2645
▁therefore	-2646
▁absolutely	-2647
▁underneath	-2648
▁essentially	-2649
by	-2650
▁fu	-2651
ckon	-2652
dden	-2653
hood	-2654
▁blu	-2655
▁ful	-2656
▁god	-2657
▁sat	-2658
▁seb	-2659
▁tom	-2660
▁ver	-2661
▁wee	-2662
▁dave	-2663
▁dump	-2664
▁hasn	-2665
▁held	-2666
▁kept	-2667
▁ruud	-2668
▁brill	-2669
▁burst	-2670
▁super	-2671
▁immedi	-2672
▁modern	-2673
▁presum	-2674
▁reckon	-2675
▁sudden	-2676
▁techni	-2677
▁transl	-2678
▁versus	-2679
▁defined	-2680
▁extract	-2681
▁recover	-2682
▁familiar	-2683
▁galaxies	-2684
▁happened	-2685
▁independ	-2686
▁investig	-2687
▁required	-2688
▁colourful	-2689
▁developed	-2690
▁fixations	-2691
▁intuitive	-2692
▁ourselves	-2693
▁afterwards	-2694
▁experiment	-2695
▁impossible	-2696
▁development	-2697
go	-2698
▁dr	-2699
soci	-2700
▁ago	-2701
▁hea	-2702
▁hop	-2703
▁sec	-2704
▁suc	-2705
▁war	-2706
▁dete	-2707
▁feas	-2708
▁fulf	-2709
▁hang	-2710
▁kate	-2711
▁mass	-2712
▁remo	-2713
etooth	-2714
▁label	-2715
▁assign	-2716
▁associ	-2717
▁attach	-2718
▁charge	-2719
▁compar	-2720
▁domain	-2721
▁likeli	-2722
▁sebast	-2723
▁visual	-2724
▁consist	-2725
▁objects	-2726
▁response	-2727
▁bluetooth	-2728
▁brilliant	-2729
▁calculate	-2730
▁equipment	-2731
▁knowledge	-2732
▁operating	-2733
▁telephone	-2734
▁constraint	-2735
▁posteriors	-2736
▁implemented	-2737
▁particularly	-2738
▁characteristics	-2739
ob	-2740
dle	-2741
eme	-2742
▁aw	-2743
cise	-2744
ival	-2745
onst	-2746
▁arg	-2747
▁emp	-2748
▁jav	-2749
▁pad	-2750
phant	-2751
▁ampl	-2752
▁cele	-2753
▁doub	-2754
▁nite	-2755
▁spon	-2756
▁voca	-2757
▁webs	-2758
▁bands	-2759
▁excel	-2760
▁matth	-2761
▁milan	-2762
▁shake	-2763
▁buying	-2764
▁cradle	-2765
▁descri	-2766
▁extend	-2767
▁financ	-2768
▁flashy	-2769
▁larger	-2770
▁regard	-2771
▁scheme	-2772
▁silver	-2773
▁easiest	-2774
▁elderly	-2775
▁opposed	-2776
▁realise	-2777
▁elephant	-2778
▁fixation	-2779
▁location	-2780
▁pointing	-2781
▁accessible	-2782
▁discussing	-2783
▁likelihood	-2784
▁separately	-2785
▁technically	-2786
▁distribution	-2787
▁manufacturer	-2788
▁unfortunately	-2789
bed	-2790
abor	-2791
▁ant	-2792
▁hor	-2793
▁inj	-2794
▁roo	-2795
▁typ	-2796
abase	-2797
antly	-2798
ident	-2799
▁java	-2800
▁near	-2801
▁nope	-2802
▁walk	-2803
ection	-2804
ensity	-2805
▁avoid	-2806
▁erase	-2807
▁paris	-2808
▁saved	-2809
▁tells	-2810
▁backup	-2811
▁celebr	-2812
▁filter	-2813
▁missed	-2814
▁reduce	-2815
▁robust	-2816
▁satisf	-2817
▁actions	-2818
▁against	-2819
▁brought	-2820
▁carrier	-2821
▁conclus	-2822
▁diction	-2823
▁matthew	-2824
▁whistle	-2825
▁customer	-2826
▁database	-2827
▁lighting	-2828
▁confusing	-2829
▁currently	-2830
▁transform	-2831
▁connection	-2832
▁preference	-2833
▁presumably	-2834
▁consideration	-2835
▁specification	-2836
tle	-2837
mbol	-2838
ries	-2839
▁pin	-2840
▁sum	-2841
▁wik	-2842
oured	-2843
▁buil	-2844
▁busy	-2845
▁luck	-2846
▁pink	-2847
▁sets	-2848
bulary	-2849
▁block	-2850
▁bunch	-2851
▁catch	-2852
▁disco	-2853
▁fixed	-2854
▁names	-2855
▁nowad	-2856
▁repet	-2857
▁surve	-2858
▁theme	-2859
▁action	-2860
▁galaxy	-2861
▁potent	-2862
▁symbol	-2863
▁animals	-2864
▁minimum	-2865
▁primary	-2866
▁propose	-2867
▁respond	-2868
▁anywhere	-2869
▁continue	-2870
▁feasible	-2871
▁speakers	-2872
▁vocabulary	-2873
▁application	-2874
▁frequencies	-2875
▁transmitter	-2876
ato	-2877
ode	-2878
ury	-2879
aced	-2880
iful	-2881
imet	-2882
ized	-2883
word	-2884
▁dim	-2885
itude	-2886
▁desk	-2887
▁sess	-2888
▁valu	-2889
romise	-2890
▁array	-2891
▁built	-2892
▁carry	-2893
▁cloth	-2894
▁crazy	-2895
▁invol	-2896
▁screw	-2897
▁turns	-2898
▁usual	-2899
▁aiming	-2900
▁config	-2901
▁dimens	-2902
▁hoping	-2903
▁latest	-2904
▁remind	-2905
▁review	-2906
▁sponge	-2907
▁convent	-2908
▁network	-2909
▁respons	-2910
▁coloured	-2911
▁measures	-2912
▁nowadays	-2913
▁spinning	-2914
▁standards	-2915
▁usability	-2916
▁compromise	-2917
▁interchangeable	-2918
lt	-2919
pr	-2920
avi	-2921
ios	-2922
vid	-2923
chan	-2924
ired	-2925
lled	-2926
ried	-2927
ules	-2928
umin	-2929
▁ble	-2930
▁bob	-2931
iture	-2932
▁blah	-2933
▁pull	-2934
▁soph	-2935
▁spot	-2936
▁trou	-2937
▁vari	-2938
▁wise	-2939
aviour	-2940
▁analy	-2941
▁cents	-2942
▁chose	-2943
▁couch	-2944
▁crash	-2945
▁david	-2946
▁equal	-2947
▁incre	-2948
▁liked	-2949
▁media	-2950
▁sales	-2951
▁speed	-2952
▁thick	-2953
▁weird	-2954
ulation	-2955
▁levels	-2956
▁survey	-2957
▁achieve	-2958
▁biggest	-2959
▁closing	-2960
▁density	-2961
▁missing	-2962
▁operate	-2963
▁pressed	-2964
▁reading	-2965
▁section	-2966
▁distance	-2967
▁download	-2968
▁keyboard	-2969
▁powerful	-2970
▁beautiful	-2971
▁behaviour	-2972
▁detection	-2973
▁sebastian	-2974
▁switching	-2975
▁dictionary	-2976
▁repetitive	-2977
cl	-2978
ged	-2979
hes	-2980
ime	-2981
ism	-2982
ndo	-2983
▁ir	-2984
▁dot	-2985
▁ell	-2986
▁fli	-2987
▁hot	-2988
▁idi	-2989
▁nok	-2990
▁ran	-2991
▁raw	-2992
▁ult	-2993
orrow	-2994
▁goog	-2995
▁pred	-2996
ograph	-2997
▁craig	-2998
▁early	-2999
▁error	-3000
▁optim	-3001
▁weeks	-3002
▁mechan	-3003
▁pieces	-3004
▁places	-3005
▁sender	-3006
▁stress	-3007
▁tricky	-3008
fficient	-3009
▁browser	-3010
▁contain	-3011
▁divided	-3012
▁dynamic	-3013
▁prepare	-3014
▁scripts	-3015
▁turning	-3016
▁wanting	-3017
▁website	-3018
▁centimet	-3019
▁interact	-3020
▁suddenly	-3021
▁wireless	-3022
▁connected	-3023
▁essential	-3024
▁evaluated	-3025
▁financial	-3026
▁graphical	-3027
▁introduce	-3028
▁suggested	-3029
▁categories	-3030
▁complexity	-3031
▁conclusion	-3032
▁effectively	-3033
▁specifically	-3034
cial	-3035
etic	-3036
mine	-3037
ught	-3038
▁dam	-3039
▁dro	-3040
▁jog	-3041
▁pow	-3042
▁tie	-3043
ences	-3044
esign	-3045
icked	-3046
▁capt	-3047
▁clay	-3048
▁furn	-3049
▁gamm	-3050
▁grip	-3051
▁jump	-3052
▁labe	-3053
▁shar	-3054
▁tape	-3055
▁weak	-3056
ishing	-3057
▁align	-3058
▁assum	-3059
▁excit	-3060
▁human	-3061
▁idiap	-3062
▁index	-3063
▁liter	-3064
▁nokia	-3065
ibility	-3066
▁altern	-3067
▁asking	-3068
▁broken	-3069
▁camera	-3070
▁counts	-3071
▁excuse	-3072
▁extent	-3073
▁inspir	-3074
▁linear	-3075
▁master	-3076
▁notice	-3077
▁orange	-3078
▁public	-3079
▁showed	-3080
▁values	-3081
▁element	-3082
▁fingers	-3083
▁minimal	-3084
▁players	-3085
▁respect	-3086
▁specify	-3087
▁trouble	-3088
▁worried	-3089
▁approxim	-3090
▁consumer	-3091
▁internal	-3092
▁priority	-3093
▁redesign	-3094
▁computers	-3095
▁demograph	-3096
▁furniture	-3097
▁presented	-3098
▁displaying	-3099
▁percentage	-3100
▁programmable	-3101
▁technologies	-3102
▁communication	-3103
of	-3104
si	-3105
iod	-3106
▁yo	-3107
atic	-3108
rate	-3109
▁bal	-3110
▁dan	-3111
▁deg	-3112
▁mer	-3113
▁nar	-3114
▁ski	-3115
lying	-3116
ropri	-3117
▁cats	-3118
▁cute	-3119
▁dead	-3120
▁disp	-3121
▁fish	-3122
▁knew	-3123
▁live	-3124
▁port	-3125
▁rout	-3126
▁synt	-3127
rawber	-3128
▁conse	-3129
▁decod	-3130
▁mango	-3131
▁metal	-3132
▁plate	-3133
▁shots	-3134
▁stamp	-3135
▁corner	-3136
▁distin	-3137
▁effort	-3138
▁fulfil	-3139
▁google	-3140
▁injury	-3141
▁motion	-3142
▁narrow	-3143
▁period	-3144
▁plates	-3145
▁strain	-3146
▁collect	-3147
▁contact	-3148
▁cutting	-3149
▁gesture	-3150
▁parents	-3151
▁session	-3152
▁sophist	-3153
▁telling	-3154
▁watches	-3155
▁acquaint	-3156
▁movement	-3157
▁optional	-3158
▁parental	-3159
▁planning	-3160
▁strawber	-3161
▁initially	-3162
▁modelling	-3163
▁sensitive	-3164
▁everywhere	-3165
▁identified	-3166
▁alternative	-3167
▁experiments	-3168
▁immediately	-3169
▁interaction	-3170
▁segmentation	-3171
▁sophisticated	-3172
am	-3173
▁q	-3174
elt	-3175
ome	-3176
▁ol	-3177
▁aye	-3178
▁tim	-3179
▁wou	-3180
andom	-3181
dated	-3182
▁bear	-3183
▁beca	-3184
▁demo	-3185
▁item	-3186
▁mayb	-3187
▁rule	-3188
▁term	-3189
▁wide	-3190
▁wrap	-3191
▁deskt	-3192
▁known	-3193
▁layer	-3194
▁loads	-3195
▁offer	-3196
▁tasks	-3197
▁allows	-3198
▁browse	-3199
▁circle	-3200
▁correl	-3201
▁random	-3202
▁sequen	-3203
▁tempor	-3204
▁address	-3205
▁allowed	-3206
▁centred	-3207
▁durable	-3208
▁install	-3209
▁loading	-3210
▁organic	-3211
▁success	-3212
ification	-3213
▁creating	-3214
▁identify	-3215
▁learning	-3216
▁navigate	-3217
▁outdated	-3218
▁designers	-3219
▁relevance	-3220
▁parameters	-3221
▁programmes	-3222
▁recogniser	-3223
▁communicate	-3224
▁compression	-3225
▁considering	-3226
▁controlling	-3227
▁independent	-3228
▁individually	-3229
ps	-3230
iph	-3231
set	-3232
val	-3233
vin	-3234
▁eh	-3235
aser	-3236
cked	-3237
read	-3238
room	-3239
▁chr	-3240
▁cou	-3241
▁eat	-3242
▁jan	-3243
▁mid	-3244
▁nee	-3245
▁pal	-3246
▁pus	-3247
▁via	-3248
asses	-3249
ather	-3250
▁acts	-3251
▁bird	-3252
▁flux	-3253
▁glob	-3254
▁hash	-3255
▁magn	-3256
▁ours	-3257
▁tune	-3258
▁artic	-3259
▁brain	-3260
▁chunk	-3261
▁cloud	-3262
▁heavy	-3263
▁logic	-3264
▁pound	-3265
▁shoes	-3266
▁stuck	-3267
▁water	-3268
▁accept	-3269
▁arrows	-3270
▁closed	-3271
▁family	-3272
▁living	-3273
▁plenty	-3274
▁videos	-3275
ropriate	-3276
▁choices	-3277
▁clothes	-3278
▁concent	-3279
▁meaning	-3280
▁neither	-3281
▁prototy	-3282
▁samples	-3283
▁sending	-3284
▁synthes	-3285
▁assuming	-3286
▁estimate	-3287
▁fourteen	-3288
▁recorder	-3289
▁subjects	-3290
▁tomorrow	-3291
▁tracking	-3292
▁attention	-3293
▁concerned	-3294
▁relatively	-3295
▁themselves	-3296
▁centimetres	-3297
▁inspiration	-3298
▁milliseconds	-3299
ma	-3300
arm	-3301
ded	-3302
lab	-3303
▁ri	-3304
dule	-3305
imin	-3306
llar	-3307
ping	-3308
ring	-3309
zing	-3310
▁scr	-3311
▁sna	-3312
aries	-3313
▁asse	-3314
▁cond	-3315
▁edge	-3316
▁felt	-3317
▁gaus	-3318
▁hist	-3319
▁leds	-3320
▁lock	-3321
▁loud	-3322
▁mush	-3323
▁scen	-3324
▁self	-3325
▁vote	-3326
▁wish	-3327
▁alarm	-3328
▁angle	-3329
▁cross	-3330
▁delay	-3331
▁deter	-3332
▁fully	-3333
▁games	-3334
▁mista	-3335
▁nebul	-3336
▁obser	-3337
▁solid	-3338
▁title	-3339
▁treat	-3340
▁ultim	-3341
▁units	-3342
▁upper	-3343
▁advert	-3344
▁boards	-3345
▁bother	-3346
▁convin	-3347
▁delete	-3348
▁demand	-3349
▁dollar	-3350
▁faster	-3351
▁forest	-3352
▁interp	-3353
▁matlab	-3354
▁module	-3355
▁patter	-3356
▁scores	-3357
▁stands	-3358
▁update	-3359
▁desktop	-3360
▁highest	-3361
▁printed	-3362
▁serious	-3363
▁consumers	-3364
▁annotation	-3365
▁conference	-3366
▁controlled	-3367
▁ergonomics	-3368
▁engineering	-3369
▁pushbuttons	-3370
▁incorporated	-3371
▁specifications	-3372
pel	-3373
▁ni	-3374
▁zo	-3375
cape	-3376
ived	-3377
mant	-3378
pple	-3379
▁ami	-3380
▁bou	-3381
▁fac	-3382
▁gad	-3383
▁ion	-3384
▁ste	-3385
rible	-3386
▁fant	-3387
▁hide	-3388
▁neat	-3389
▁nich	-3390
▁pear	-3391
▁phra	-3392
▁prog	-3393
▁rect	-3394
▁situ	-3395
▁upon	-3396
ressed	-3397
▁bound	-3398
▁cause	-3399
▁clean	-3400
▁disag	-3401
▁drive	-3402
▁exact	-3403
▁goals	-3404
▁lapel	-3405
▁modif	-3406
▁pause	-3407
▁react	-3408
▁resid	-3409
▁retur	-3410
▁sharp	-3411
▁shell	-3412
▁waves	-3413
▁christ	-3414
▁confir	-3415
▁conven	-3416
▁costly	-3417
▁extern	-3418
▁gadget	-3419
▁linked	-3420
▁nebula	-3421
▁opened	-3422
▁transm	-3423
▁cluster	-3424
▁content	-3425
▁pushing	-3426
▁roughly	-3427
▁tracker	-3428
▁exciting	-3429
▁expected	-3430
▁identity	-3431
▁throwing	-3432
▁automatic	-3433
▁comparing	-3434
▁framework	-3435
▁searching	-3436
▁extraction	-3437
▁interfaces	-3438
▁navigation	-3439
▁prototypes	-3440
▁appropriate	-3441
▁demographic	-3442
te	-3443
elf	-3444
for	-3445
let	-3446
rit	-3447
yes	-3448
ctor	-3449
mend	-3450
▁ang	-3451
▁bui	-3452
▁dra	-3453
▁hur	-3454
▁mix	-3455
▁sar	-3456
▁sim	-3457
▁sme	-3458
▁tam	-3459
aging	-3460
arant	-3461
mming	-3462
▁cord	-3463
▁eyes	-3464
▁hadn	-3465
▁mold	-3466
▁sold	-3467
▁thes	-3468
▁vibr	-3469
erties	-3470
idered	-3471
▁likes	-3472
▁local	-3473
▁niche	-3474
▁plain	-3475
▁refer	-3476
▁sched	-3477
▁scrap	-3478
▁shelf	-3479
▁solve	-3480
▁usage	-3481
▁basics	-3482
▁escape	-3483
▁events	-3484
▁excess	-3485
▁intell	-3486
▁online	-3487
▁potato	-3488
▁pounds	-3489
▁prices	-3490
▁secret	-3491
▁seemed	-3492
▁supply	-3493
▁wooden	-3494
▁builder	-3495
▁central	-3496
▁confirm	-3497
▁contrib	-3498
▁dealing	-3499
▁describ	-3500
▁guarant	-3501
▁laptops	-3502
▁precise	-3503
▁quasars	-3504
▁regions	-3505
▁strateg	-3506
▁waiting	-3507
▁choosing	-3508
▁deciding	-3509
▁external	-3510
▁flexible	-3511
▁flipping	-3512
▁hardware	-3513
▁positive	-3514
▁signific	-3515
▁standing	-3516
▁versions	-3517
▁fantastic	-3518
▁finishing	-3519
▁highlight	-3520
▁triangles	-3521
▁associated	-3522
▁considered	-3523
▁convenient	-3524
▁generation	-3525
▁properties	-3526
▁computation	-3527
▁constraints	-3528
lu	-3529
sy	-3530
aby	-3531
cut	-3532
eet	-3533
gen	-3534
ilo	-3535
isk	-3536
pad	-3537
sen	-3538
▁ja	-3539
▁nu	-3540
bble	-3541
esth	-3542
rary	-3543
▁alt	-3544
▁mus	-3545
athan	-3546
ining	-3547
oting	-3548
vable	-3549
▁acco	-3550
▁body	-3551
▁boss	-3552
▁dash	-3553
▁date	-3554
▁fest	-3555
▁gosh	-3556
▁kilo	-3557
▁math	-3558
▁mike	-3559
▁mono	-3560
▁oliv	-3561
▁rank	-3562
▁retr	-3563
▁shop	-3564
▁shou	-3565
▁site	-3566
▁skin	-3567
▁till	-3568
▁zoom	-3569
eapple	-3570
▁aesth	-3571
▁beeps	-3572
▁bleep	-3573
▁codes	-3574
▁drawn	-3575
▁ellen	-3576
▁embed	-3577
▁extre	-3578
▁forth	-3579
▁meets	-3580
▁novel	-3581
▁proof	-3582
▁quant	-3583
▁sarah	-3584
▁sport	-3585
▁strip	-3586
forward	-3587
pective	-3588
ruction	-3589
unction	-3590
▁acquis	-3591
▁bought	-3592
▁degree	-3593
▁eraser	-3594
▁hardly	-3595
▁insert	-3596
▁keypad	-3597
▁phrase	-3598
▁return	-3599
▁spread	-3600
▁turtle	-3601
▁ability	-3602
▁capture	-3603
▁comment	-3604
▁dropped	-3605
▁helpful	-3606
▁impress	-3607
▁massive	-3608
▁noticed	-3609
▁presume	-3610
▁protect	-3611
▁sources	-3612
▁student	-3613
▁symbols	-3614
▁activate	-3615
▁becoming	-3616
▁browsing	-3617
▁charging	-3618
▁collabor	-3619
▁confused	-3620
▁critical	-3621
▁disagree	-3622
▁division	-3623
▁drawings	-3624
▁festival	-3625
▁guessing	-3626
▁inspired	-3627
▁mushroom	-3628
▁sensible	-3629
▁sequence	-3630
▁terrible	-3631
▁transist	-3632
▁whenever	-3633
▁companies	-3634
▁condition	-3635
▁pineapple	-3636
▁producing	-3637
▁definition	-3638
▁eventually	-3639
▁incorporating	-3640
▁representation	-3641
▁straightforward	-3642
▁synchronization	-3643
dy	-3644
ev	-3645
ix	-3646
app	-3647
cii	-3648
igh	-3649
lls	-3650
rix	-3651
ule	-3652
zer	-3653
bles	-3654
enth	-3655
etch	-3656
iles	-3657
illa	-3658
▁ama	-3659
▁cow	-3660
▁fab	-3661
▁hol	-3662
▁hom	-3663
▁joe	-3664
▁ped	-3665
▁pil	-3666
▁saf	-3667
▁sun	-3668
▁tho	-3669
▁yay	-3670
icate	-3671
itors	-3672
ogram	-3673
verse	-3674
▁clap	-3675
▁diag	-3676
▁fail	-3677
▁firm	-3678
▁legs	-3679
▁palm	-3680
▁tail	-3681
mental	-3682
ommend	-3683
▁ascii	-3684
▁broke	-3685
▁cards	-3686
▁fewer	-3687
▁helps	-3688
▁merge	-3689
▁minor	-3690
▁motto	-3691
▁party	-3692
▁setup	-3693
▁slash	-3694
▁sorts	-3695
▁views	-3696
▁attrib	-3697
▁blinks	-3698
▁divide	-3699
▁emails	-3700
▁french	-3701
▁highly	-3702
▁matrix	-3703
▁multip	-3704
▁occurs	-3705
▁widths	-3706
▁anyways	-3707
▁balance	-3708
▁convert	-3709
▁deliver	-3710
▁package	-3711
▁powered	-3712
▁rectang	-3713
▁scratch	-3714
▁stylish	-3715
ationship	-3716
▁describe	-3717
▁detected	-3718
▁eighteen	-3719
▁elements	-3720
▁fashions	-3721
▁focusing	-3722
▁intellig	-3723
▁manually	-3724
▁properly	-3725
▁provided	-3726
▁recorded	-3727
▁residual	-3728
▁schedule	-3729
▁strategy	-3730
▁wherever	-3731
▁appealing	-3732
▁interpret	-3733
▁literally	-3734
▁recommend	-3735
▁situation	-3736
▁synthesis	-3737
▁changeable	-3738
▁continuous	-3739
▁supplement	-3740
▁understood	-3741
▁acquisition	-3742
▁instruction	-3743
▁performance	-3744
▁probability	-3745
▁suggestions	-3746
▁introduction	-3747
▁relationship	-3748
▁restrictions	-3749
▁documentation	-3750
vo	-3751
ane	-3752
ari	-3753
cal	-3754
ges	-3755
has	-3756
ien	-3757
ius	-3758
▁ou	-3759
arch	-3760
gram	-3761
ners	-3762
osal	-3763
oser	-3764
pper	-3765
rupt	-3766
udge	-3767
▁fly	-3768
▁foc	-3769
▁peg	-3770
▁siz	-3771
▁sus	-3772
▁tea	-3773
▁tel	-3774
erate	-3775
ology	-3776
▁bene	-3777
▁beta	-3778
▁clip	-3779
▁crap	-3780
▁drew	-3781
▁hier	-3782
▁icsi	-3783
▁lack	-3784
▁peak	-3785
▁phil	-3786
▁repe	-3787
▁trig	-3788
▁wiki	-3789
atible	-3790
iphone	-3791
▁arbit	-3792
▁forms	-3793
▁grand	-3794
▁mando	-3795
▁mould	-3796
▁pedro	-3797
▁schem	-3798
▁steps	-3799
▁telly	-3800
▁turbo	-3801
▁chance	-3802
▁desire	-3803
▁expand	-3804
▁images	-3805
▁implic	-3806
▁locate	-3807
▁mister	-3808
▁purple	-3809
▁resour	-3810
▁scenar	-3811
▁sketch	-3812
▁squish	-3813
▁thesis	-3814
▁consens	-3815
▁explore	-3816
▁extreme	-3817
▁focused	-3818
▁reconst	-3819
▁sliding	-3820
▁business	-3821
▁distinct	-3822
▁duration	-3823
▁hierarch	-3824
▁involved	-3825
▁produced	-3826
▁reliable	-3827
▁activated	-3828
▁adjusting	-3829
▁dependent	-3830
▁efficient	-3831
▁mechanism	-3832
▁potential	-3833
▁appearance	-3834
▁compatible	-3835
▁developing	-3836
▁instrument	-3837
▁originally	-3838
▁strawberry	-3839
▁concentrate	-3840
▁furthermore	-3841
▁synchronize	-3842
▁investigation	-3843
cy	-3844
sc	-3845
yc	-3846
ffe	-3847
rel	-3848
ted	-3849
und	-3850
▁ap	-3851
▁du	-3852
bing	-3853
ites	-3854
ives	-3855
lied	-3856
mmet	-3857
pond	-3858
ques	-3859
sian	-3860
vice	-3861
▁air	-3862
▁dut	-3863
▁flu	-3864
▁jus	-3865
▁rew	-3866
▁sof	-3867
▁tap	-3868
allel	-3869
atent	-3870
esome	-3871
ormed	-3872
▁abst	-3873
▁beam	-3874
▁celp	-3875
▁gain	-3876
▁iron	-3877
▁lazy	-3878
▁petr	-3879
▁puts	-3880
▁raid	-3881
▁rain	-3882
▁ring	-3883
▁wall	-3884
▁wast	-3885
iation	-3886
▁alone	-3887
▁among	-3888
▁appar	-3889
▁aware	-3890
▁camer	-3891
▁empty	-3892
▁frequ	-3893
▁fresh	-3894
▁music	-3895
▁ordin	-3896
▁relea	-3897
▁roles	-3898
▁rules	-3899
▁spect	-3900
▁study	-3901
▁surpr	-3902
▁worse	-3903
▁clouds	-3904
▁impact	-3905
▁leaves	-3906
▁lovely	-3907
▁nicely	-3908
▁picked	-3909
▁promin	-3910
▁rating	-3911
▁ratios	-3912
▁recent	-3913
▁somewh	-3914
▁sorted	-3915
▁sports	-3916
▁turned	-3917
▁amazing	-3918
▁awesome	-3919
▁dollars	-3920
▁figures	-3921
▁keyword	-3922
▁leaving	-3923
▁marking	-3924
▁reports	-3925
▁testing	-3926
▁texture	-3927
▁warning	-3928
▁activity	-3929
▁addition	-3930
▁artistic	-3931
▁checking	-3932
▁circuits	-3933
▁clapping	-3934
▁configur	-3935
▁finances	-3936
▁parallel	-3937
▁prepared	-3938
▁purposes	-3939
▁recently	-3940
▁recharge	-3941
▁sentence	-3942
▁students	-3943
▁switches	-3944
▁consensus	-3945
▁convinced	-3946
▁interrupt	-3947
▁parameter	-3948
▁regarding	-3949
▁resources	-3950
▁secretary	-3951
▁seventeen	-3952
▁summarise	-3953
▁wonderful	-3954
▁electrical	-3955
▁increasing	-3956
▁programmed	-3957
▁techniques	-3958
▁telephones	-3959
▁celebration	-3960
▁discussions	-3961
▁perspective	-3962
▁responsible	-3963
▁conventional	-3964
▁implementing	-3965
ak	-3966
att	-3967
bow	-3968
che	-3969
iny	-3970
its	-3971
ler	-3972
lly	-3973
ned	-3974
▁cu	-3975
▁ec	-3976
▁ki	-3977
atus	-3978
ceed	-3979
ches	-3980
illy	-3981
ingu	-3982
itor	-3983
like	-3984
pest	-3985
▁bes	-3986
▁chi	-3987
▁coh	-3988
▁cos	-3989
▁der	-3990
▁enh	-3991
▁flo	-3992
▁gun	-3993
▁ign	-3994
▁mac	-3995
▁mak	-3996
▁oth	-3997
▁sky	-3998
▁win	-3999
round	-4000
sheet	-4001
ulate	-4002
ulous	-4003
utral	-4004
▁anti	-4005
▁deep	-4006
▁dice	-4007
▁flag	-4008
▁game	-4009
▁gira	-4010
▁hate	-4011
▁jean	-4012
▁pain	-4013
▁subm	-4014
▁swap	-4015
▁wear	-4016
curved	-4017
inetis	-4018
liness	-4019
othing	-4020
▁accur	-4021
▁argue	-4022
▁curvy	-4023
▁falls	-4024
▁gamma	-4025
▁icons	-4026
▁ideal	-4027
▁irrit	-4028
▁lumin	-4029
▁picks	-4030
▁resol	-4031
▁silly	-4032
▁spent	-4033
▁wider	-4034
respond	-4035
▁breaks	-4036
▁cheers	-4037
▁chunks	-4038
▁closer	-4039
▁conver	-4040
▁elimin	-4041
▁emphas	-4042
▁encode	-4043
▁explan	-4044
▁gotten	-4045
▁increa	-4046
▁lowest	-4047
▁medium	-4048
▁multif	-4049
▁resist	-4050
▁tested	-4051
▁tracks	-4052
▁transc	-4053
▁afterno	-4054
▁appears	-4055
▁beeping	-4056
▁briefly	-4057
▁calling	-4058
▁cameras	-4059
▁cinetis	-4060
▁classes	-4061
▁corners	-4062
▁country	-4063
▁demonst	-4064
▁factors	-4065
▁methods	-4066
▁mistake	-4067
▁neutral	-4068
▁ordered	-4069
▁outline	-4070
▁plugged	-4071
▁pointed	-4072
▁rainbow	-4073
▁squishy	-4074
▁standby	-4075
▁statist	-4076
▁surface	-4077
▁variety	-4078
▁accident	-4079
▁cheapest	-4080
▁comments	-4081
▁discover	-4082
▁embedded	-4083
▁entirely	-4084
▁gaussian	-4085
▁labelled	-4086
▁overview	-4087
▁progress	-4088
▁proposal	-4089
▁somewhat	-4090
▁temporal	-4091
▁uncurved	-4092
▁apparatus	-4093
▁celebrate	-4094
▁correctly	-4095
▁determine	-4096
▁posterior	-4097
▁calculator	-4098
▁correspond	-4099
▁prediction	-4100
▁previously	-4101
▁correlation	-4102
▁highlighted	-4103
▁investigate	-4104
▁significant	-4105
▁spreadsheet	-4106
▁multifunction	-4107
▁environmentally	-4108
oc	-4109
xy	-4110
adv	-4111
ets	-4112
ica	-4113
key	-4114
nes	-4115
now	-4116
▁bi	-4117
▁gy	-4118
eare	-4119
gant	-4120
ging	-4121
land	-4122
mark	-4123
nded	-4124
outh	-4125
uary	-4126
unky	-4127
▁aur	-4128
▁bye	-4129
▁cla	-4130
▁cov	-4131
▁die	-4132
▁ill	-4133
▁kay	-4134
▁mir	-4135
▁nei	-4136
▁qui	-4137
▁son	-4138
▁tip	-4139
▁ups	-4140
ators	-4141
cious	-4142
clock	-4143
itted	-4144
ortun	-4145
ustry	-4146
▁argu	-4147
▁brea	-4148
▁cher	-4149
▁curv	-4150
▁cush	-4151
▁dogs	-4152
▁info	-4153
▁jord	-4154
▁libr	-4155
▁prin	-4156
▁risk	-4157
▁safe	-4158
▁stur	-4159
▁tick	-4160
advant	-4161
ptions	-4162
rength	-4163
▁adult	-4164
▁becau	-4165
▁benef	-4166
▁cache	-4167
▁decor	-4168
▁dutch	-4169
▁edges	-4170
▁funda	-4171
▁influ	-4172
▁items	-4173
▁manip	-4174
▁marks	-4175
▁moved	-4176
▁numer	-4177
▁ought	-4178
▁outer	-4179
▁shock	-4180
▁shown	-4181
▁steph	-4182
▁wires	-4183
▁andrew	-4184
▁cosine	-4185
▁decent	-4186
▁dissol	-4187
▁entity	-4188
▁exclus	-4189
▁exists	-4190
▁fourth	-4191
▁labels	-4192
▁launch	-4193
▁nathan	-4194
▁placed	-4195
▁pushed	-4196
▁retrie	-4197
▁rewind	-4198
▁speaks	-4199
▁stamps	-4200
▁thingy	-4201
▁tuning	-4202
ortunity	-4203
▁answers	-4204
▁arrange	-4205
▁brainst	-4206
▁expense	-4207
▁express	-4208
▁fancier	-4209
▁giraffe	-4210
▁january	-4211
▁markets	-4212
▁olivier	-4213
▁quicker	-4214
efficient	-4215
▁attached	-4216
▁blinking	-4217
▁combined	-4218
▁decrease	-4219
▁indicate	-4220
▁industry	-4221
▁scenario	-4222
▁simplest	-4223
▁strength	-4224
▁surround	-4225
▁afternoon	-4226
▁amplitude	-4227
▁arbitrary	-4228
▁classical	-4229
▁disadvant	-4230
▁expecting	-4231
▁expertise	-4232
▁generated	-4233
▁guarantee	-4234
▁recognize	-4235
▁removable	-4236
▁specified	-4237
▁acquainted	-4238
▁excitation	-4239
▁physically	-4240
▁simplistic	-4241
▁successful	-4242
▁sufficient	-4243
▁competition	-4244
▁competitors	-4245
▁intelligent	-4246
▁opportunity	-4247
▁potentially	-4248
▁configuration	-4249
▁multifunctional	-4250
oy	-4251
omb	-4252
ool	-4253
oph	-4254
ora	-4255
▁ts	-4256
▁vi	-4257
arse	-4258
ault	-4259
iday	-4260
lect	-4261
lies	-4262
ndem	-4263
onal	-4264
yond	-4265
▁als	-4266
▁bag	-4267
▁ben	-4268
▁cop	-4269
▁dol	-4270
▁due	-4271
▁gir	-4272
▁kno	-4273
▁law	-4274
▁nic	-4275
▁nor	-4276
▁raj	-4277
▁sli	-4278
▁vir	-4279
acing	-4280
atory	-4281
illed	-4282
ncing	-4283
peech	-4284
▁arch	-4285
▁bull	-4286
▁damn	-4287
▁ends	-4288
▁exer	-4289
▁fold	-4290
▁gran	-4291
▁keen	-4292
▁lith	-4293
▁mael	-4294
▁numb	-4295
▁olds	-4296
▁perl	-4297
▁pity	-4298
▁reca	-4299
▁rich	-4300
▁sits	-4301
▁spam	-4302
▁tied	-4303
▁vert	-4304
lished	-4305
mpling	-4306
utions	-4307
▁areas	-4308
▁balls	-4309
▁chair	-4310
▁encod	-4311
▁floor	-4312
▁joint	-4313
▁judge	-4314
▁keeps	-4315
▁night	-4316
▁offic	-4317
▁raise	-4318
▁rooms	-4319
▁tough	-4320
▁trade	-4321
▁upgra	-4322
▁vocal	-4323
ariance	-4324
ivalent	-4325
▁assemb	-4326
▁aurora	-4327
▁beyond	-4328
▁blocks	-4329
▁brings	-4330
▁calibr	-4331
▁chosen	-4332
▁clunky	-4333
▁disapp	-4334
▁elabor	-4335
▁global	-4336
▁harmon	-4337
▁hemant	-4338
▁hubble	-4339
▁jordan	-4340
▁mirror	-4341
▁modify	-4342
▁movies	-4343
▁raised	-4344
▁repeat	-4345
▁serial	-4346
▁someth	-4347
▁stages	-4348
▁stored	-4349
▁sturdy	-4350
▁tandem	-4351
▁transp	-4352
▁besides	-4353
▁bracket	-4354
▁convers	-4355
▁created	-4356
▁default	-4357
▁elegant	-4358
▁excited	-4359
▁experts	-4360
▁filters	-4361
▁lithium	-4362
▁preview	-4363
▁proport	-4364
▁reasons	-4365
▁rubbery	-4366
▁silence	-4367
▁trigger	-4368
▁typical	-4369
▁useless	-4370
▁abstract	-4371
▁breaking	-4372
▁decoding	-4373
▁exercise	-4374
▁keywords	-4375
▁password	-4376
▁projects	-4377
▁selected	-4378
▁skimming	-4379
▁transfer	-4380
▁ultimate	-4381
▁aesthetic	-4382
▁conscious	-4383
▁countries	-4384
▁filtering	-4385
▁happening	-4386
▁household	-4387
▁languages	-4388
▁listening	-4389
▁magnitude	-4390
▁recharger	-4391
▁reference	-4392
▁specially	-4393
▁technique	-4394
▁approaches	-4395
▁conditions	-4396
▁constantly	-4397
▁convention	-4398
▁covariance	-4399
▁equivalent	-4400
▁evaluating	-4401
▁mentioning	-4402
▁statistics	-4403
▁transition	-4404
▁university	-4405
▁connections	-4406
▁flexibility	-4407
▁informative	-4408
▁replacement	-4409
▁statistical	-4410
▁frustrations	-4411
▁satisfaction	-4412
▁manufacturers	-4413
cr	-4414
fl	-4415
zz	-4416
ery	-4417
mmy	-4418
ppy	-4419
ram	-4420
roo	-4421
ung	-4422
▁bh	-4423
▁hm	-4424
arya	-4425
aten	-4426
book	-4427
dnes	-4428
iers	-4429
iger	-4430
iped	-4431
rees	-4432
rete	-4433
rony	-4434
sych	-4435
umpt	-4436
whel	-4437
▁cru	-4438
▁dar	-4439
▁deb	-4440
▁fro	-4441
▁ish	-4442
▁loo	-4443
▁meg	-4444
▁mes	-4445
▁mut	-4446
▁pas	-4447
▁ron	-4448
▁rot	-4449
▁unl	-4450
ctile	-4451
earer	-4452
▁cars	-4453
▁dear	-4454
▁desi	-4455
▁dict	-4456
▁fidd	-4457
▁glad	-4458
▁grow	-4459
▁lets	-4460
▁none	-4461
▁oval	-4462
▁peel	-4463
▁prec	-4464
▁rare	-4465
▁scal	-4466
▁sexy	-4467
▁sony	-4468
▁tast	-4469
▁whoa	-4470
attach	-4471
cutive	-4472
speech	-4473
ulated	-4474
▁abund	-4475
▁admit	-4476
▁claim	-4477
▁doubt	-4478
▁flick	-4479
▁frank	-4480
▁funct	-4481
▁funky	-4482
▁guide	-4483
▁habit	-4484
▁loose	-4485
▁morse	-4486
▁nicer	-4487
▁overr	-4488
▁paste	-4489
▁pilot	-4490
▁psych	-4491
▁recap	-4492
▁revol	-4493
▁robin	-4494
▁squee	-4495
▁story	-4496
▁tenth	-4497
▁tight	-4498
▁trust	-4499
▁worst	-4500
dnesday	-4501
▁acrony	-4502
▁cherry	-4503
▁entrop	-4504
▁equals	-4505
▁export	-4506
▁filled	-4507
▁finder	-4508
▁gammas	-4509
▁inputs	-4510
▁margin	-4511
▁member	-4512
▁norman	-4513
▁pocket	-4514
▁safety	-4515
▁saving	-4516
▁school	-4517
▁stable	-4518
▁strict	-4519
▁string	-4520
▁surely	-4521
▁symmet	-4522
▁usable	-4523
▁advance	-4524
▁booking	-4525
▁compute	-4526
▁crashed	-4527
▁forever	-4528
▁friends	-4529
▁knowing	-4530
▁learned	-4531
▁marbles	-4532
▁profess	-4533
▁reality	-4534
▁sensors	-4535
▁shortly	-4536
▁spectro	-4537
▁tactile	-4538
▁trained	-4539
▁traject	-4540
▁updated	-4541
▁watched	-4542
▁bhattach	-4543
▁consists	-4544
▁honestly	-4545
▁includes	-4546
▁interior	-4547
▁numbered	-4548
▁overwhel	-4549
▁property	-4550
▁proposed	-4551
▁backlight	-4552
▁backwards	-4553
▁configure	-4554
▁detecting	-4555
▁extremely	-4556
▁fashioned	-4557
▁forgotten	-4558
▁interview	-4559
▁operation	-4560
▁pointless	-4561
▁processor	-4562
▁provision	-4563
▁referring	-4564
▁satisfied	-4565
▁translate	-4566
▁wednesday	-4567
▁activation	-4568
▁brainstorm	-4569
▁calculated	-4570
▁consistent	-4571
▁internally	-4572
▁marketable	-4573
▁presenting	-4574
▁separation	-4575
▁similarity	-4576
▁suggesting	-4577
▁summarised	-4578
▁throughout	-4579
▁accordingly	-4580
▁calculation	-4581
▁experiences	-4582
▁interactive	-4583
▁interspeech	-4584
▁acquaintance	-4585
▁bhattacharya	-4586
▁construction	-4587
▁hierarchical	-4588
▁implications	-4589
gh	-4590
air	-4591
ave	-4592
bur	-4593
cer	-4594
mas	-4595
nek	-4596
reg	-4597
ric	-4598
rot	-4599
zen	-4600
▁dw	-4601
aged	-4602
agne	-4603
eted	-4604
ills	-4605
imed	-4606
loes	-4607
ndra	-4608
omet	-4609
ores	-4610
ourg	-4611
pean	-4612
phin	-4613
soft	-4614
ulty	-4615
▁bee	-4616
▁bin	-4617
▁bri	-4618
▁bug	-4619
▁dad	-4620
▁dep	-4621
▁exe	-4622
▁fla	-4623
▁gap	-4624
▁leg	-4625
▁mel	-4626
▁neg	-4627
▁ray	-4628
▁rea	-4629
▁sad	-4630
allen	-4631
burgh	-4632
erion	-4633
grams	-4634
izing	-4635
izont	-4636
lined	-4637
oidal	-4638
▁anna	-4639
▁bass	-4640
▁beat	-4641
▁buck	-4642
▁chat	-4643
▁diva	-4644
▁door	-4645
▁dull	-4646
▁edin	-4647
▁film	-4648
▁frib	-4649
▁kidd	-4650
▁land	-4651
▁mond	-4652
▁pads	-4653
▁path	-4654
▁phot	-4655
▁poly	-4656
▁pure	-4657
▁quar	-4658
▁runs	-4659
▁sale	-4660
▁smac	-4661
▁span	-4662
▁suit	-4663
▁tiny	-4664
▁undo	-4665
▁unus	-4666
▁vary	-4667
▁vera	-4668
▁verb	-4669
▁virt	-4670
▁whoo	-4671
▁woah	-4672
ercial	-4673
ipedia	-4674
mpagne	-4675
▁altog	-4676
▁brown	-4677
▁capac	-4678
▁faces	-4679
▁herve	-4680
▁horse	-4681
▁hynek	-4682
▁kayak	-4683
▁modes	-4684
▁moves	-4685
▁named	-4686
▁princ	-4687
▁ratio	-4688
▁silic	-4689
▁sinus	-4690
▁slick	-4691
▁stays	-4692
▁teach	-4693
▁tends	-4694
▁wrist	-4695
ination	-4696
izontal	-4697
▁active	-4698
▁artist	-4699
▁bounce	-4700
▁cables	-4701
▁client	-4702
▁dispos	-4703
▁edible	-4704
▁encour	-4705
▁friday	-4706
▁ignore	-4707
▁invent	-4708
▁kendra	-4709
▁leader	-4710
▁marius	-4711
▁nearly	-4712
▁panels	-4713
▁phases	-4714
▁preser	-4715
▁ranked	-4716
▁redund	-4717
▁sector	-4718
▁slider	-4719
▁states	-4720
▁styles	-4721
▁theore	-4722
▁thrown	-4723
▁voices	-4724
▁whoops	-4725
▁assumpt	-4726
▁challen	-4727
▁decoder	-4728
▁derived	-4729
▁desires	-4730
▁disable	-4731
▁dolphin	-4732
▁edition	-4733
▁enhance	-4734
▁falling	-4735
▁fitting	-4736
▁illumin	-4737
▁marloes	-4738
▁mobiles	-4739
▁modules	-4740
▁novelty	-4741
▁occurre	-4742
▁pattern	-4743
▁profile	-4744
▁profits	-4745
▁reflect	-4746
▁species	-4747
▁stripes	-4748
▁studies	-4749
▁suspect	-4750
▁absorber	-4751
▁applying	-4752
▁circular	-4753
▁clothing	-4754
▁constant	-4755
▁contains	-4756
▁detector	-4757
▁eighties	-4758
▁european	-4759
▁fribourg	-4760
▁grabbing	-4761
▁minimise	-4762
▁patterns	-4763
▁practice	-4764
▁produces	-4765
▁programs	-4766
▁reviewed	-4767
▁sampling	-4768
▁sticking	-4769
▁transcri	-4770
▁triphone	-4771
▁worrying	-4772
▁alignment	-4773
▁annotated	-4774
▁champagne	-4775
▁combining	-4776
▁criterion	-4777
▁dimension	-4778
▁edinburgh	-4779
▁elaborate	-4780
▁elephants	-4781
▁exclusive	-4782
▁indicator	-4783
▁intention	-4784
▁labelling	-4785
▁lightning	-4786
▁microsoft	-4787
▁modifiers	-4788
▁movements	-4789
▁prominent	-4790
▁providing	-4791
▁separated	-4792
▁summaries	-4793
▁wikipedia	-4794
▁agreements	-4795
▁altogether	-4796
▁boundaries	-4797
▁constructs	-4798
▁describing	-4799
▁difficulty	-4800
▁directions	-4801
▁frequently	-4802
▁frustrated	-4803
▁generating	-4804
▁horizontal	-4805
▁irritating	-4806
▁protection	-4807
▁represents	-4808
▁revolution	-4809
▁suggestion	-4810
▁coefficient	-4811
▁differently	-4812
▁dynamically	-4813
▁improvement	-4814
▁limitations	-4815
▁spectrogram	-4816
▁transistors	-4817
▁accidentally	-4818
▁contribution	-4819
▁friendliness	-4820
▁summarisation	-4821
ex	-4822
ts	-4823
yn	-4824
ade	-4825
arf	-4826
eth	-4827
ila	-4828
lar	-4829
orn	-4830
ula	-4831
▁pi	-4832
cted	-4833
ilst	-4834
iser	-4835
issa	-4836
lude	-4837
male	-4838
mmod	-4839
orth	-4840
page	-4841
pril	-4842
utes	-4843
▁bun	-4844
▁cum	-4845
▁din	-4846
▁fib	-4847
▁hav	-4848
▁jas	-4849
▁jig	-4850
▁jun	-4851
▁kit	-4852
▁lef	-4853
▁lie	-4854
▁lux	-4855
▁sup	-4856
▁ton	-4857
atell	-4858
clear	-4859
ealth	-4860
ivate	-4861
relev	-4862
sence	-4863
while	-4864
▁adds	-4865
▁auth	-4866
▁bold	-4867
▁bump	-4868
▁cart	-4869
▁cold	-4870
▁cred	-4871
▁dest	-4872
▁dood	-4873
▁ears	-4874
▁exit	-4875
▁hole	-4876
▁hook	-4877
▁icon	-4878
▁lamp	-4879
▁loss	-4880
▁mart	-4881
▁qual	-4882
▁rese	-4883
▁slim	-4884
▁snow	-4885
▁tang	-4886
▁teen	-4887
▁tone	-4888
▁trap	-4889
▁wing	-4890
aneous	-4891
ashing	-4892
ctured	-4893
erning	-4894
ughter	-4895
▁appre	-4896
▁april	-4897
▁awful	-4898
▁badge	-4899
▁bells	-4900
▁boxes	-4901
▁bulky	-4902
▁diode	-4903
▁dwarf	-4904
▁ended	-4905
▁grips	-4906
▁homer	-4907
▁linux	-4908
▁maker	-4909
▁mount	-4910
▁newer	-4911
▁north	-4912
▁opens	-4913
▁quiet	-4914
▁relax	-4915
▁robot	-4916
▁scene	-4917
▁sells	-4918
▁sight	-4919
▁taste	-4920
▁teles	-4921
▁traps	-4922
▁valid	-4923
▁voila	-4924
▁waste	-4925
tically	-4926
▁attend	-4927
▁became	-4928
▁brands	-4929
▁bullet	-4930
▁catchy	-4931
▁cellph	-4932
▁danger	-4933
▁doubly	-4934
▁drawer	-4935
▁europe	-4936
▁extens	-4937
▁famous	-4938
▁female	-4939
▁geomet	-4940
▁holder	-4941
▁latent	-4942
▁limits	-4943
▁loaded	-4944
▁monday	-4945
▁monkey	-4946
▁newsfl	-4947
▁offers	-4948
▁office	-4949
▁prepar	-4950
▁probab	-4951
▁refere	-4952
▁remain	-4953
▁satell	-4954
▁server	-4955
▁slowly	-4956
▁solved	-4957
▁spaces	-4958
▁theory	-4959
▁thinks	-4960
▁tomato	-4961
▁verbal	-4962
▁whilst	-4963
relevant	-4964
▁analyse	-4965
▁benefit	-4966
▁booklet	-4967
▁checked	-4968
▁creates	-4969
▁crucial	-4970
▁dislike	-4971
▁effects	-4972
▁entropy	-4973
▁jasmine	-4974
▁lasting	-4975
▁lecture	-4976
▁letters	-4977
▁logical	-4978
▁matters	-4979
▁reached	-4980
▁rolling	-4981
▁service	-4982
ationally	-4983
▁accommod	-4984
▁achieved	-4985
▁assembly	-4986
▁baseline	-4987
▁bringing	-4988
▁clicking	-4989
▁concaten	-4990
▁contents	-4991
▁counting	-4992
▁dissolve	-4993
▁fiddling	-4994
▁handling	-4995
▁hundreds	-4996
▁limiting	-4997
▁majority	-4998
▁matching	-4999
▁ordinary	-5000
▁provides	-5001
▁replaced	-5002
▁sometime	-5003
▁tamgrams	-5004
▁variable	-5005
▁vertical	-5006
▁abundance	-5007
▁associate	-5008
▁christmas	-5009
▁computing	-5010
▁confident	-5011
▁curvature	-5012
▁entertain	-5013
▁extracted	-5014
▁histogram	-5015
▁immediate	-5016
▁improving	-5017
▁instantly	-5018
▁realistic	-5019
▁rectangle	-5020
▁satellite	-5021
▁typically	-5022
▁advantages	-5023
▁collection	-5024
▁commercial	-5025
▁concerning	-5026
▁dimensions	-5027
▁discovered	-5028
▁disposable	-5029
▁forgetting	-5030
▁impressive	-5031
▁irrelevant	-5032
▁officially	-5033
▁priorities	-5034
▁reasonably	-5035
▁resolution	-5036
▁trajectory	-5037
▁approximate	-5038
▁dimensional	-5039
▁explanation	-5040
▁fundamental	-5041
▁integration	-5042
▁restriction	-5043
▁articulation	-5044
▁synchronized	-5045
▁transmitting	-5046
▁environmental	-5047
▁understanding	-5048
▁questionnaires	-5049
▁internationally	-5050
fy	-5051
ha	-5052
yf	-5053
ame	-5054
con	-5055
ina	-5056
men	-5057
oke	-5058
oon	-5059
tes	-5060
til	-5061
umn	-5062
urs	-5063
zzy	-5064
▁eb	-5065
▁ov	-5066
▁rh	-5067
ague	-5068
bour	-5069
cave	-5070
cope	-5071
edom	-5072
ency	-5073
ggle	-5074
grat	-5075
ises	-5076
ital	-5077
lass	-5078
mble	-5079
oken	-5080
omed	-5081
oper	-5082
sses	-5083
ured	-5084
▁bab	-5085
▁bon	-5086
▁gab	-5087
▁gar	-5088
▁gig	-5089
▁goo	-5090
▁hel	-5091
▁hyp	-5092
▁lic	-5093
▁odd	-5094
▁oui	-5095
▁pla	-5096
▁rev	-5097
▁san	-5098
▁swi	-5099
▁tow	-5100
▁und	-5101
ciate	-5102
eared	-5103
enced	-5104
entle	-5105
erday	-5106
ifies	-5107
ories	-5108
osite	-5109
reams	-5110
▁adop	-5111
▁ages	-5112
▁aims	-5113
▁beer	-5114
▁bord	-5115
▁brit	-5116
▁bugs	-5117
▁bulk	-5118
▁burn	-5119
▁cand	-5120
▁chew	-5121
▁chop	-5122
▁clar	-5123
▁clut	-5124
▁crow	-5125
▁cube	-5126
▁dece	-5127
▁dual	-5128
▁duck	-5129
▁east	-5130
▁extr	-5131
▁gate	-5132
▁girl	-5133
▁groo	-5134
▁guid	-5135
▁gyro	-5136
▁heav	-5137
▁hing	-5138
▁indu	-5139
▁lump	-5140
▁marc	-5141
▁paid	-5142
▁plot	-5143
▁poor	-5144
▁rama	-5145
▁road	-5146
▁shut	-5147
▁sofa	-5148
▁stre	-5149
▁subt	-5150
▁thus	-5151
▁tips	-5152
▁tree	-5153
▁yest	-5154
cessed	-5155
enezer	-5156
herine	-5157
isable	-5158
▁aimed	-5159
▁bling	-5160
▁brian	-5161
▁bunny	-5162
▁cohen	-5163
▁condu	-5164
▁conve	-5165
▁flips	-5166
▁genev	-5167
▁hurry	-5168
▁lying	-5169
▁mouth	-5170
▁peter	-5171
▁polyg	-5172
▁poppy	-5173
▁recei	-5174
▁regen	-5175
▁reply	-5176
▁route	-5177
▁sammy	-5178
▁scary	-5179
▁shame	-5180
▁shoot	-5181
▁sizes	-5182
▁spots	-5183
▁tying	-5184
▁vague	-5185
▁wired	-5186
uristic	-5187
ustomed	-5188
▁adults	-5189
▁belong	-5190
▁copper	-5191
▁driven	-5192
▁enable	-5193
▁exceed	-5194
▁fiddle	-5195
▁gaming	-5196
▁gentle	-5197
▁hooked	-5198
▁liking	-5199
▁partly	-5200
▁perman	-5201
▁regist	-5202
▁scared	-5203
▁semant	-5204
▁skills	-5205
▁spoken	-5206
▁stayed	-5207
▁typing	-5208
▁woulda	-5209
▁capable	-5210
▁concave	-5211
▁congrat	-5212
▁curious	-5213
▁cushion	-5214
▁emailed	-5215
▁formats	-5216
▁freedom	-5217
▁gateway	-5218
▁graphic	-5219
▁greater	-5220
▁hearing	-5221
▁ideally	-5222
▁ourself	-5223
▁picking	-5224
▁presses	-5225
▁pretend	-5226
▁release	-5227
▁routing	-5228
▁snowman	-5229
▁surfing	-5230
▁tonight	-5231
▁updates	-5232
▁walking	-5233
▁accurate	-5234
▁contacts	-5235
▁covering	-5236
▁december	-5237
▁diagonal	-5238
▁ebenezer	-5239
▁electric	-5240
▁extended	-5241
▁intended	-5242
▁modifier	-5243
▁nineteen	-5244
▁notebook	-5245
▁opinions	-5246
▁organise	-5247
▁portable	-5248
▁pressure	-5249
▁realised	-5250
▁spending	-5251
▁stations	-5252
▁touching	-5253
▁watchers	-5254
▁whistles	-5255
▁absorbers	-5256
▁adaptable	-5257
▁attribute	-5258
▁catherine	-5259
▁estimated	-5260
▁influence	-5261
▁intensive	-5262
▁interfere	-5263
▁newsflash	-5264
▁perfectly	-5265
▁presently	-5266
▁primitive	-5267
▁principle	-5268
▁replacing	-5269
▁retrieval	-5270
▁schematic	-5271
▁statement	-5272
▁telescope	-5273
▁yesterday	-5274
▁acceptable	-5275
▁accustomed	-5276
▁appreciate	-5277
▁attributes	-5278
▁characters	-5279
▁correlated	-5280
▁estimation	-5281
▁impression	-5282
▁manipulate	-5283
▁minimalist	-5284
▁operations	-5285
▁popularity	-5286
▁productive	-5287
▁restricted	-5288
▁sinusoidal	-5289
▁stationary	-5290
▁transistor	-5291
▁translates	-5292
▁ultimately	-5293
▁accommodate	-5294
▁demonstrate	-5295
▁description	-5296
▁differences	-5297
▁directional	-5298
▁frustration	-5299
▁incremental	-5300
▁likelihoods	-5301
▁overlapping	-5302
▁practically	-5303
▁reconstruct	-5304
▁rectangular	-5305
▁translation	-5306
▁conversation	-5307
▁disagreement	-5308
▁professional	-5309
▁strawberries	-5310
▁transmission	-5311
▁entertainment	-5312
▁computationally	-5313
ey	-5314
gg	-5315
wr	-5316
alk	-5317
bon	-5318
bra	-5319
com	-5320
dro	-5321
eag	-5322
eat	-5323
fly	-5324
iel	-5325
isp	-5326
net	-5327
ney	-5328
oun	-5329
owl	-5330
pth	-5331
unc	-5332
unt	-5333
uxe	-5334
ants	-5335
ertz	-5336
head	-5337
icit	-5338
idge	-5339
ited	-5340
izer	-5341
ophy	-5342
plug	-5343
rely	-5344
riel	-5345
stru	-5346
udes	-5347
uses	-5348
ycle	-5349
▁abo	-5350
▁ann	-5351
▁ano	-5352
▁arm	-5353
▁atl	-5354
▁boy	-5355
▁dea	-5356
▁dir	-5357
▁enj	-5358
▁err	-5359
▁fat	-5360
▁ger	-5361
▁hip	-5362
▁inv	-5363
▁kin	-5364
▁mag	-5365
▁max	-5366
▁nin	-5367
▁onl	-5368
▁pep	-5369
▁sen	-5370
▁som	-5371
▁tag	-5372
▁tor	-5373
▁una	-5374
▁vul	-5375
▁whi	-5376
break	-5377
ctors	-5378
erent	-5379
iforn	-5380
iment	-5381
orter	-5382
tered	-5383
▁audi	-5384
▁baba	-5385
▁bowl	-5386
▁deli	-5387
▁devi	-5388
▁ding	-5389
▁diss	-5390
▁drag	-5391
▁fuck	-5392
▁harm	-5393
▁inch	-5394
▁jack	-5395
▁mapl	-5396
▁mice	-5397
▁mich	-5398
▁midi	-5399
▁nick	-5400
▁pant	-5401
▁poin	-5402
▁pops	-5403
▁quot	-5404
▁ruin	-5405
▁scan	-5406
▁seyf	-5407
▁shit	-5408
▁stri	-5409
▁ties	-5410
▁toys	-5411
▁unvo	-5412
▁viol	-5413
▁wipe	-5414
abytes	-5415
cratic	-5416
drogen	-5417
onsist	-5418
osophy	-5419
terfly	-5420
terior	-5421
▁antek	-5422
▁bucks	-5423
▁calls	-5424
▁coded	-5425
▁conce	-5426
▁cumul	-5427
▁depth	-5428
▁feeds	-5429
▁glass	-5430
▁hamed	-5431
▁hertz	-5432
▁hyper	-5433
▁janus	-5434
▁liber	-5435
▁lists	-5436
▁maint	-5437
▁perce	-5438
▁reuse	-5439
▁ridic	-5440
▁saves	-5441
▁shout	-5442
▁sized	-5443
▁skins	-5444
▁sleep	-5445
▁smell	-5446
▁smile	-5447
▁spare	-5448
▁stead	-5449
▁steep	-5450
▁stret	-5451
▁tests	-5452
▁youth	-5453
atively	-5454
ifornia	-5455
illaume	-5456
raction	-5457
reglass	-5458
ularity	-5459
ulating	-5460
▁applet	-5461
▁author	-5462
▁booked	-5463
▁carrot	-5464
▁coarse	-5465
▁crappy	-5466
▁daniel	-5467
▁deluxe	-5468
▁discon	-5469
▁distur	-5470
▁doable	-5471
▁extras	-5472
▁fields	-5473
▁groovy	-5474
▁health	-5475
▁height	-5476
▁hypoth	-5477
▁income	-5478
▁listed	-5479
▁marker	-5480
▁observ	-5481
▁packet	-5482
▁paging	-5483
▁parser	-5484
▁paying	-5485
▁powers	-5486
▁reissa	-5487
▁relate	-5488
▁sheets	-5489
▁smells	-5490
▁softer	-5491
▁static	-5492
▁submit	-5493
▁tables	-5494
▁treble	-5495
▁unplug	-5496
▁vision	-5497
▁voiced	-5498
▁vulner	-5499
etically	-5500
ulations	-5501
▁accompl	-5502
▁acronym	-5503
▁applied	-5504
▁bananas	-5505
▁brother	-5506
▁cartoon	-5507
▁clearer	-5508
▁colleag	-5509
▁compose	-5510
▁consume	-5511
▁diagram	-5512
▁discour	-5513
▁filling	-5514
▁formula	-5515
▁framing	-5516
▁gabriel	-5517
▁heather	-5518
▁hitting	-5519
▁instant	-5520
▁involve	-5521
▁justify	-5522
▁kidding	-5523
▁leading	-5524
▁leaning	-5525
▁lengths	-5526
▁luckily	-5527
▁luminos	-5528
▁matches	-5529
▁peeling	-5530
▁peoples	-5531
▁persons	-5532
▁philips	-5533
▁prevent	-5534
▁proceed	-5535
▁promote	-5536
▁ranking	-5537
▁records	-5538
▁shaking	-5539
▁shifted	-5540
▁shorter	-5541
▁skipped	-5542
▁succeed	-5543
▁upgrade	-5544
▁analyser	-5545
▁childish	-5546
▁complain	-5547
▁concerns	-5548
▁decorrel	-5549
▁encoding	-5550
▁explicit	-5551
▁exterior	-5552
▁fabulous	-5553
▁finalise	-5554
▁geometry	-5555
▁gimmicky	-5556
▁harmonic	-5557
▁hydrogen	-5558
▁inclined	-5559
▁informed	-5560
▁locating	-5561
▁luminous	-5562
▁magnetic	-5563
▁meantime	-5564
▁millions	-5565
▁moreover	-5566
▁opposite	-5567
▁override	-5568
▁semantic	-5569
▁silicone	-5570
▁smallest	-5571
▁unvoiced	-5572
▁workings	-5573
▁addressed	-5574
▁butterfly	-5575
▁challenge	-5576
▁criterias	-5577
▁dangerous	-5578
▁described	-5579
▁deviation	-5580
▁disappear	-5581
▁emphasise	-5582
▁executive	-5583
▁explained	-5584
▁fanciness	-5585
▁guillaume	-5586
▁inconsist	-5587
▁increased	-5588
▁indicated	-5589
▁libraries	-5590
▁packaging	-5591
▁preparing	-5592
▁redundant	-5593
▁splitting	-5594
▁surprised	-5595
▁algorithms	-5596
▁assumption	-5597
▁blanketing	-5598
▁california	-5599
▁complicate	-5600
▁correction	-5601
▁explaining	-5602
▁fibreglass	-5603
▁futuristic	-5604
▁modulation	-5605
▁objectives	-5606
▁philosophy	-5607
▁profitable	-5608
▁proportion	-5609
▁psychology	-5610
▁ridiculous	-5611
▁sponginess	-5612
▁triangular	-5613
▁advertising	-5614
▁calculating	-5615
▁calculators	-5616
▁concatenate	-5617
▁distinction	-5618
▁frustrating	-5619
▁functioning	-5620
▁problematic	-5621
▁represented	-5622
▁smartboards	-5623
▁transparent	-5624
▁applications	-5625
▁coefficients	-5626
▁confirmation	-5627
▁customisable	-5628
▁functionally	-5629
▁improvements	-5630
▁overwhelming	-5631
▁representing	-5632
▁alternatively	-5633
▁approximately	-5634
▁brainstorming	-5635
▁communicating	-5636
▁identification	-5637
▁innovativeness	-5638
▁reconstruction	-5639
▁responsibility	-5640
fo	-5641
ja	-5642
oo	-5643
pa	-5644
ub	-5645
ada	-5646
cca	-5647
eed	-5648
eer	-5649
emp	-5650
exp	-5651
ffy	-5652
idy	-5653
ipt	-5654
isy	-5655
jme	-5656
omp	-5657
ost	-5658
ray	-5659
ros	-5660
yed	-5661
▁ps	-5662
ager	-5663
asty	-5664
ball	-5665
ding	-5666
down	-5667
emat	-5668
isms	-5669
kend	-5670
lers	-5671
lice	-5672
look	-5673
ocol	-5674
ored	-5675
uted	-5676
▁amb	-5677
▁bat	-5678
▁bia	-5679
▁cas	-5680
▁cle	-5681
▁cry	-5682
▁dil	-5683
▁duh	-5684
▁fol	-5685
▁jap	-5686
▁lem	-5687
▁lik	-5688
▁moz	-5689
▁ner	-5690
▁oop	-5691
▁pir	-5692
▁pra	-5693
▁pul	-5694
▁que	-5695
▁row	-5696
▁sal	-5697
▁sea	-5698
▁syn	-5699
▁uns	-5700
abyte	-5701
allic	-5702
andon	-5703
ening	-5704
iling	-5705
iller	-5706
inant	-5707
ipped	-5708
lines	-5709
olate	-5710
ombus	-5711
ounce	-5712
ribly	-5713
rical	-5714
sters	-5715
▁amer	-5716
▁auto	-5717
▁basi	-5718
▁cast	-5719
▁choo	-5720
▁clue	-5721
▁core	-5722
▁died	-5723
▁elan	-5724
▁eval	-5725
▁feet	-5726
▁fift	-5727
▁flow	-5728
▁food	-5729
▁fran	-5730
▁hurt	-5731
▁iter	-5732
▁june	-5733
▁lime	-5734
▁meta	-5735
▁mini	-5736
▁nist	-5737
▁pair	-5738
▁ping	-5739
▁reco	-5740
▁rely	-5741
▁rose	-5742
▁seat	-5743
▁sett	-5744
▁slee	-5745
▁soci	-5746
▁stem	-5747
▁tack	-5748
▁tall	-5749
▁tara	-5750
▁tera	-5751
▁tivo	-5752
▁unne	-5753
▁warm	-5754
alling	-5755
itchen	-5756
itudes	-5757
jmegen	-5758
lining	-5759
market	-5760
ograms	-5761
senger	-5762
tering	-5763
ursday	-5764
▁angry	-5765
▁appli	-5766
▁badly	-5767
▁cance	-5768
▁china	-5769
▁colin	-5770
▁crank	-5771
▁danny	-5772
▁diego	-5773
▁ditch	-5774
▁elect	-5775
▁enjoy	-5776
▁estab	-5777
▁fight	-5778
▁finds	-5779
▁freak	-5780
▁furry	-5781
▁hated	-5782
▁hinge	-5783
▁holes	-5784
▁infer	-5785
▁inner	-5786
▁lingu	-5787
▁luxur	-5788
▁mispl	-5789
▁mixed	-5790
▁nasty	-5791
▁ninja	-5792
▁orang	-5793
▁query	-5794
▁recal	-5795
▁sacca	-5796
▁safer	-5797
▁shine	-5798
▁slave	-5799
▁specs	-5800
▁spell	-5801
▁spoke	-5802
▁staff	-5803
▁steve	-5804
▁stock	-5805
▁teeth	-5806
▁theta	-5807
▁tiger	-5808
▁tower	-5809
▁unrel	-5810
inguish	-5811
iphones	-5812
iptical	-5813
jection	-5814
osition	-5815
station	-5816
▁accent	-5817
▁arrays	-5818
▁attemp	-5819
▁badger	-5820
▁beamer	-5821
▁beauty	-5822
▁biased	-5823
▁border	-5824
▁bosses	-5825
▁chunky	-5826
▁clever	-5827
▁convex	-5828
▁cooler	-5829
▁copied	-5830
▁coulda	-5831
▁critic	-5832
▁damage	-5833
▁decomp	-5834
▁destro	-5835
▁determ	-5836
▁econom	-5837
▁errors	-5838
▁flores	-5839
▁fluffy	-5840
▁german	-5841
▁humans	-5842
▁jiggle	-5843
▁lastly	-5844
▁letter	-5845
▁maplin	-5846
▁naming	-5847
▁notion	-5848
▁novice	-5849
▁orient	-5850
▁patent	-5851
▁prints	-5852
▁proven	-5853
▁retail	-5854
▁scream	-5855
▁senses	-5856
▁shifts	-5857
▁stated	-5858
▁sticks	-5859
▁techno	-5860
▁themes	-5861
▁timing	-5862
▁toggle	-5863
▁upload	-5864
▁vector	-5865
▁verify	-5866
berately	-5867
ological	-5868
▁abandon	-5869
▁appeals	-5870
▁carried	-5871
▁casings	-5872
▁charges	-5873
▁christa	-5874
▁closely	-5875
▁closest	-5876
▁coating	-5877
▁conform	-5878
▁contrad	-5879
▁crashes	-5880
▁degrees	-5881
▁deleted	-5882
▁demands	-5883
▁diphone	-5884
▁essence	-5885
▁helping	-5886
▁history	-5887
▁interse	-5888
▁inverse	-5889
▁kitchen	-5890
▁library	-5891
▁located	-5892
▁managed	-5893
▁members	-5894
▁monitor	-5895
▁mozilla	-5896
▁needing	-5897
▁offered	-5898
▁optimal	-5899
▁panther	-5900
▁phoneme	-5901
▁posters	-5902
▁priorit	-5903
▁promise	-5904
▁quarter	-5905
▁realist	-5906
▁reduced	-5907
▁relates	-5908
▁reverse	-5909
▁rhombus	-5910
▁rounded	-5911
▁science	-5912
▁scoring	-5913
▁screwed	-5914
▁sectors	-5915
▁seyfert	-5916
▁sounded	-5917
▁spanish	-5918
▁spongey	-5919
▁squares	-5920
▁stretch	-5921
▁synched	-5922
▁thicker	-5923
▁touched	-5924
▁unusual	-5925
▁violent	-5926
▁virtual	-5927
▁weekend	-5928
▁affected	-5929
▁analyses	-5930
▁appleton	-5931
▁bouncing	-5932
▁chunking	-5933
▁clusters	-5934
▁coherent	-5935
▁concentr	-5936
▁concrete	-5937
▁cordless	-5938
▁daughter	-5939
▁deadline	-5940
▁demonstr	-5941
▁dropping	-5942
▁emitting	-5943
▁facility	-5944
▁feelings	-5945
▁followed	-5946
▁homepage	-5947
▁improved	-5948
▁mathemat	-5949
▁mistakes	-5950
▁modified	-5951
▁multiply	-5952
▁negative	-5953
▁nijmegen	-5954
▁observed	-5955
▁occurred	-5956
▁piloting	-5957
▁preserve	-5958
▁profiles	-5959
▁protocol	-5960
▁reminder	-5961
▁removing	-5962
▁scalable	-5963
▁sellable	-5964
▁smoothly	-5965
▁suitable	-5966
▁switched	-5967
▁terribly	-5968
▁thursday	-5969
▁advertise	-5970
▁answering	-5971
▁breakdown	-5972
▁capturing	-5973
▁cellphone	-5974
▁collected	-5975
▁complaint	-5976
▁conducted	-5977
▁customise	-5978
▁eliminate	-5979
▁elsewhere	-5980
▁encourage	-5981
▁extension	-5982
▁focussing	-5983
▁fulfilled	-5984
▁genevieve	-5985
▁increases	-5986
▁messenger	-5987
▁numerical	-5988
▁objective	-5989
▁precision	-5990
▁promising	-5991
▁published	-5992
▁reactions	-5993
▁receiving	-5994
▁regularly	-5995
▁selecting	-5996
▁sentences	-5997
▁spaceship	-5998
▁specifics	-5999
▁stressful	-6000
▁unrelated	-6001
▁whistling	-6002
▁accomplish	-6003
▁adaptation	-6004
▁applicable	-6005
▁assignment	-6006
▁chargeable	-6007
▁contextual	-6008
▁disconnect	-6009
▁durability	-6010
▁elliptical	-6011
▁facilities	-6012
▁favourites	-6013
▁guaranteed	-6014
▁indication	-6015
▁specialist	-6016
▁structures	-6017
▁transforms	-6018
▁vulnerable	-6019
▁articulated	-6020
▁calibration	-6021
▁comfortably	-6022
▁competitive	-6023
▁constrained	-6024
▁constructed	-6025
▁distinctive	-6026
▁distinguish	-6027
▁electricity	-6028
▁granularity	-6029
▁innovations	-6030
▁integrating	-6031
▁playstation	-6032
▁deliberately	-6033
▁developments	-6034
▁disadvantage	-6035
▁exchangeable	-6036
▁optimisation	-6037
▁collaboration	-6038
▁disadvantages	-6039
▁parallelogram	-6040
▁theoretically	-6041
▁characteristic	-6042
▁classification	-6043
▁considerations	-6044
▁interpretation	-6045
▁congratulations	-6046
fr	-6047
he	-6048
abe	-6049
ael	-6050
ale	-6051
ati	-6052
aur	-6053
cle	-6054
cto	-6055
eez	-6056
enc	-6057
fet	-6058
flu	-6059
hib	-6060
ife	-6061
igu	-6062
ils	-6063
ima	-6064
pro	-6065
uel	-6066
unk	-6067
yal	-6068
yan	-6069
zes	-6070
▁au	-6071
▁cy	-6072
▁ur	-6073
ahoo	-6074
ancy	-6075
apid	-6076
arks	-6077
comp	-6078
dend	-6079
erts	-6080
esis	-6081
esit	-6082
ibly	-6083
iter	-6084
ixel	-6085
lind	-6086
name	-6087
odes	-6088
oles	-6089
rawl	-6090
requ	-6091
sets	-6092
stic	-6093
umes	-6094
ures	-6095
▁adm	-6096
▁blo	-6097
▁bol	-6098
▁cup	-6099
▁ded	-6100
▁doe	-6101
▁elk	-6102
▁fas	-6103
▁gri	-6104
▁ink	-6105
▁joh	-6106
▁jok	-6107
▁jon	-6108
▁les	-6109
▁lis	-6110
▁mad	-6111
▁nay	-6112
▁nut	-6113
▁oka	-6114
▁sev	-6115
▁smo	-6116
▁tak	-6117
▁tru	-6118
▁unw	-6119
▁wav	-6120
andre	-6121
ardon	-6122
chair	-6123
emens	-6124
ergic	-6125
etics	-6126
iders	-6127
licek	-6128
limin	-6129
msung	-6130
ongue	-6131
ordin	-6132
otion	-6133
ously	-6134
proof	-6135
sians	-6136
uries	-6137
▁alex	-6138
▁baby	-6139
▁bana	-6140
▁bast	-6141
▁bath	-6142
▁bend	-6143
▁bill	-6144
▁bran	-6145
▁byte	-6146
▁cash	-6147
▁clea	-6148
▁cook	-6149
▁cope	-6150
▁cows	-6151
▁cult	-6152
▁divx	-6153
▁dots	-6154
▁edit	-6155
▁empl	-6156
▁enum	-6157
▁exch	-6158
▁fabr	-6159
▁fade	-6160
▁foot	-6161
▁func	-6162
▁geez	-6163
▁gunn	-6164
▁hung	-6165
▁hunt	-6166
▁isol	-6167
▁king	-6168
▁lift	-6169
▁male	-6170
▁meas	-6171
▁mics	-6172
▁mock	-6173
▁mood	-6174
▁nove	-6175
▁octo	-6176
▁opal	-6177
▁paul	-6178
▁pets	-6179
▁pipe	-6180
▁plos	-6181
▁pump	-6182
▁quid	-6183
▁rays	-6184
▁ryan	-6185
▁sapa	-6186
▁seas	-6187
▁shif	-6188
▁snap	-6189
▁stan	-6190
▁stro	-6191
▁styl	-6192
▁suck	-6193
▁sums	-6194
▁tidy	-6195
▁tosh	-6196
▁tues	-6197
▁twos	-6198
▁veto	-6199
▁wake	-6200
▁wild	-6201
▁yous	-6202
▁yves	-6203
dendum	-6204
encies	-6205
mother	-6206
ointed	-6207
rapped	-6208
resses	-6209
▁aless	-6210
▁alien	-6211
▁alima	-6212
▁atlas	-6213
▁blind	-6214
▁bored	-6215
▁chief	-6216
▁court	-6217
▁crawl	-6218
▁decis	-6219
▁dinos	-6220
▁divid	-6221
▁dough	-6222
▁dozen	-6223
▁draft	-6224
▁earth	-6225
▁encry	-6226
▁fired	-6227
▁franc	-6228
▁fuzzy	-6229
▁gazes	-6230
▁giant	-6231
▁girls	-6232
▁grade	-6233
▁hesit	-6234
▁hides	-6235
▁inexp	-6236
▁ipods	-6237
▁lefty	-6238
▁lives	-6239
▁logos	-6240
▁maths	-6241
▁messy	-6242
▁metre	-6243
▁minds	-6244
▁molds	-6245
▁neigh	-6246
▁peaks	-6247
▁piran	-6248
▁pixel	-6249
▁plans	-6250
▁polar	-6251
▁purch	-6252
▁rapid	-6253
▁rated	-6254
▁recon	-6255
▁recyc	-6256
▁repro	-6257
▁retro	-6258
▁rings	-6259
▁sided	-6260
▁sites	-6261
▁snake	-6262
▁south	-6263
▁steal	-6264
▁stops	-6265
▁swing	-6266
▁threw	-6267
▁tired	-6268
▁trial	-6269
▁ultra	-6270
▁weigh	-6271
▁whisp	-6272
▁wings	-6273
▁yahoo	-6274
abelled	-6275
artment	-6276
ication	-6277
ifiable	-6278
illermo	-6279
ression	-6280
▁advice	-6281
▁alerts	-6282
▁amplif	-6283
▁angles	-6284
▁apples	-6285
▁assist	-6286
▁bridge	-6287
▁candid	-6288
▁causes	-6289
▁copies	-6290
▁corpor	-6291
▁credit	-6292
▁darren	-6293
▁deeper	-6294
▁diodes	-6295
▁dumped	-6296
▁eating	-6297
▁facing	-6298
▁flying	-6299
▁frozen	-6300
▁gather	-6301
▁habits	-6302
▁headed	-6303
▁helium	-6304
▁inches	-6305
▁killed	-6306
▁layers	-6307
▁lesser	-6308
▁lisbon	-6309
▁locked	-6310
▁manuel	-6311
▁mouses	-6312
▁native	-6313
▁nature	-6314
▁noises	-6315
▁nought	-6316
▁olivia	-6317
▁orders	-6318
▁pardon	-6319
▁protru	-6320
▁rarely	-6321
▁reacts	-6322
▁refers	-6323
▁reject	-6324
▁resemb	-6325
▁scenes	-6326
▁scored	-6327
▁social	-6328
▁solves	-6329
▁sooner	-6330
▁sparse	-6331
▁spring	-6332
▁status	-6333
▁steady	-6334
▁street	-6335
▁struct	-6336
▁subtle	-6337
▁superi	-6338
▁termin	-6339
▁tongue	-6340
▁unders	-6341
▁unlike	-6342
▁viable	-6343
▁viewer	-6344
▁volunt	-6345
▁voting	-6346
▁wholes	-6347
▁affects	-6348
▁aligned	-6349
▁aliment	-6350
▁amplify	-6351
▁archite	-6352
▁archive	-6353
▁assumed	-6354
▁british	-6355
▁broader	-6356
▁capital	-6357
▁charged	-6358
▁classic	-6359
▁confuse	-6360
▁crowded	-6361
▁damaged	-6362
▁desired	-6363
▁flavour	-6364
▁flipped	-6365
▁forming	-6366
▁gadgets	-6367
▁generic	-6368
▁growing	-6369
▁himself	-6370
▁jumping	-6371
▁liberty	-6372
▁lighted	-6373
▁lighter	-6374
▁mailing	-6375
▁manuals	-6376
▁martian	-6377
▁michael	-6378
▁microch	-6379
▁nebulae	-6380
▁october	-6381
▁outlook	-6382
▁outputs	-6383
▁parsing	-6384
▁passing	-6385
▁pleased	-6386
▁portion	-6387
▁predict	-6388
▁private	-6389
▁publish	-6390
▁radical	-6391
▁regards	-6392
▁relaxed	-6393
▁relying	-6394
▁samsung	-6395
▁scaling	-6396
▁siemens	-6397
▁society	-6398
▁somethi	-6399
▁squeeze	-6400
▁storing	-6401
▁strings	-6402
▁targets	-6403
▁thinner	-6404
▁torches	-6405
▁tuesday	-6406
▁unclear	-6407
▁useable	-6408
▁volumes	-6409
▁whoever	-6410
structure	-6411
▁adaptive	-6412
▁addendum	-6413
▁adopters	-6414
▁agreeing	-6415
▁allergic	-6416
▁attended	-6417
▁basement	-6418
▁boundary	-6419
▁brackets	-6420
▁carrying	-6421
▁catching	-6422
▁conclude	-6423
▁consumes	-6424
▁contrary	-6425
▁converts	-6426
▁convince	-6427
▁cushions	-6428
▁darkness	-6429
▁defining	-6430
▁discount	-6431
▁discrete	-6432
▁dividing	-6433
▁engineer	-6434
▁envision	-6435
▁explorer	-6436
▁flashing	-6437
▁frequent	-6438
▁globally	-6439
▁graphics	-6440
▁jonathan	-6441
▁managers	-6442
▁measured	-6443
▁metallic	-6444
▁mornings	-6445
▁motlicek	-6446
▁mutually	-6447
▁november	-6448
▁overhead	-6449
▁painting	-6450
▁plosives	-6451
▁polygons	-6452
▁quicknet	-6453
▁readable	-6454
▁register	-6455
▁retrieve	-6456
▁shifting	-6457
▁skipping	-6458
▁strictly	-6459
▁supplied	-6460
▁supplies	-6461
▁tangible	-6462
▁teaching	-6463
▁treating	-6464
▁vibrates	-6465
▁visually	-6466
▁weighted	-6467
▁affection	-6468
▁alexandre	-6469
▁analysing	-6470
▁appearing	-6471
▁arguments	-6472
▁audiences	-6473
▁breakable	-6474
▁cluttered	-6475
▁contained	-6476
▁deadlines	-6477
▁dedicated	-6478
▁discourse	-6479
▁gaussians	-6480
▁generates	-6481
▁gentlemen	-6482
▁gigabytes	-6483
▁guillermo	-6484
▁identical	-6485
▁indicates	-6486
▁induction	-6487
▁installed	-6488
▁locations	-6489
▁neighbour	-6490
▁preferred	-6491
▁primarily	-6492
▁processed	-6493
▁projector	-6494
▁resistant	-6495
▁retriever	-6496
▁secondary	-6497
▁sequences	-6498
▁seriously	-6499
▁sharpness	-6500
▁thousands	-6501
▁visualise	-6502
▁whichever	-6503
▁accurately	-6504
▁aesthetics	-6505
▁amplitudes	-6506
▁complaints	-6507
▁continuing	-6508
▁detections	-6509
▁exceptions	-6510
▁extracting	-6511
▁hypothesis	-6512
▁illuminate	-6513
▁linguistic	-6514
▁meaningful	-6515
▁mechanical	-6516
▁mechanisms	-6517
▁occurrence	-6518
▁performing	-6519
▁plasticine	-6520
▁recognised	-6521
▁recognizer	-6522
▁regenerate	-6523
▁simplified	-6524
▁structured	-6525
▁subjective	-6526
▁summariser	-6527
▁surprising	-6528
▁transcribe	-6529
▁underlined	-6530
▁underlying	-6531
▁unlabelled	-6532
▁waterproof	-6533
▁worthwhile	-6534
▁annotations	-6535
▁assignments	-6536
▁compartment	-6537
▁constructor	-6538
▁efficiently	-6539
▁experienced	-6540
▁generalised	-6541
▁grandmother	-6542
▁imagination	-6543
▁inexpensive	-6544
▁interpreted	-6545
▁intuitively	-6546
▁methodology	-6547
▁multiplying	-6548
▁occurrences	-6549
▁positioning	-6550
▁prominently	-6551
▁streamlined	-6552
▁supermarket	-6553
▁alimentation	-6554
▁combinations	-6555
▁descriptions	-6556
▁inconsistent	-6557
▁incorporates	-6558
▁independence	-6559
▁informations	-6560
▁proportional	-6561
▁stationality	-6562
▁collaborating	-6563
▁decomposition	-6564
▁distributions	-6565
▁independently	-6566
▁realistically	-6567
▁revolutionary	-6568
▁significantly	-6569
▁implementation	-6570
▁representative	-6571
ai	-6572
az	-6573
bi	-6574
gu	-6575
jo	-6576
ka	-6577
ni	-6578
uc	-6579
acy	-6580
bag	-6581
bar	-6582
cas	-6583
dom	-6584
esh	-6585
fox	-6586
ili	-6587
lig	-6588
mma	-6589
mos	-6590
nal	-6591
obs	-6592
ole	-6593
ows	-6594
ris	-6595
sic	-6596
son	-6597
usi	-6598
win	-6599
yqu	-6600
▁ax	-6601
▁os	-6602
▁py	-6603
▁sn	-6604
▁ze	-6605
abil	-6606
alia	-6607
asta	-6608
bies	-6609
brid	-6610
cupy	-6611
enus	-6612
epad	-6613
eros	-6614
ffer	-6615
gers	-6616
guin	-6617
hand	-6618
here	-6619
iate	-6620
inks	-6621
irky	-6622
isky	-6623
ison	-6624
ists	-6625
lict	-6626
olen	-6627
omen	-6628
oors	-6629
orph	-6630
otes	-6631
plex	-6632
quid	-6633
quit	-6634
rest	-6635
rink	-6636
rint	-6637
rome	-6638
sant	-6639
tain	-6640
ufix	-6641
uits	-6642
umns	-6643
▁ack	-6644
▁arc	-6645
▁asy	-6646
▁bay	-6647
▁bef	-6648
▁bub	-6649
▁cer	-6650
▁cit	-6651
▁dip	-6652
▁doc	-6653
▁fad	-6654
▁fan	-6655
▁fox	-6656
▁hoo	-6657
▁hun	-6658
▁ian	-6659
▁ifs	-6660
▁jen	-6661
▁kne	-6662
▁lad	-6663
▁lag	-6664
▁lou	-6665
▁mas	-6666
▁ons	-6667
▁pig	-6668
▁pri	-6669
▁pun	-6670
▁rig	-6671
▁rom	-6672
▁sam	-6673
▁sem	-6674
▁sla	-6675
▁tab	-6676
▁twe	-6677
▁ugh	-6678
▁van	-6679
▁voi	-6680
▁woo	-6681
actic	-6682
anate	-6683
antic	-6684
arika	-6685
arten	-6686
atest	-6687
blind	-6688
dable	-6689
emote	-6690
eries	-6691
ffman	-6692
icing	-6693
idays	-6694
imler	-6695
issed	-6696
istol	-6697
ively	-6698
large	-6699
liers	-6700
mosph	-6701
opard	-6702
orage	-6703
ppery	-6704
rican	-6705
rices	-6706
riger	-6707
venue	-6708
watch	-6709
▁aged	-6710
▁allo	-6711
▁anim	-6712
▁anyt	-6713
▁apar	-6714
▁bash	-6715
▁bolt	-6716
▁bomb	-6717
▁camp	-6718
▁caro	-6719
▁cern	-6720
▁chap	-6721
▁chil	-6722
▁city	-6723
▁coat	-6724
▁conj	-6725
▁coun	-6726
▁deaf	-6727
▁dile	-6728
▁dupl	-6729
▁earl	-6730
▁encl	-6731
▁exha	-6732
▁fake	-6733
▁feat	-6734
▁fell	-6735
▁folk	-6736
▁font	-6737
▁geck	-6738
▁geek	-6739
▁gift	-6740
▁hair	-6741
▁hire	-6742
▁icas	-6743
▁impl	-6744
▁intr	-6745
▁jast	-6746
▁joel	-6747
▁joke	-6748
▁jour	-6749
▁keck	-6750
▁labs	-6751
▁laug	-6752
▁leaf	-6753
▁lion	-6754
▁maps	-6755
▁mate	-6756
▁mega	-6757
▁ment	-6758
▁merg	-6759
▁ming	-6760
▁mixt	-6761
▁nerd	-6762
▁nips	-6763
▁nuis	-6764
▁nuts	-6765
▁nyqu	-6766
▁oral	-6767
▁ouch	-6768
▁outs	-6769
▁pool	-6770
▁poss	-6771
▁prem	-6772
▁prev	-6773
▁pron	-6774
▁pros	-6775
▁redo	-6776
▁reli	-6777
▁root	-6778
▁rush	-6779
▁sake	-6780
▁seve	-6781
▁sole	-6782
▁tags	-6783
▁tint	-6784
▁twen	-6785
▁unsc	-6786
▁unsu	-6787
▁vast	-6788
▁vegg	-6789
▁volt	-6790
▁wife	-6791
alogue	-6792
cedure	-6793
iskers	-6794
ongest	-6795
overed	-6796
solete	-6797
urally	-6798
urance	-6799
▁alive	-6800
▁ambit	-6801
▁anten	-6802
▁anyth	-6803
▁aside	-6804
▁austr	-6805
▁barry	-6806
▁beast	-6807
▁began	-6808
▁birds	-6809
▁blame	-6810
▁bonus	-6811
▁books	-6812
▁breat	-6813
▁brick	-6814
▁bulbs	-6815
▁cater	-6816
▁centr	-6817
▁chart	-6818
▁chase	-6819
▁clips	-6820
▁cobra	-6821
▁contr	-6822
▁crack	-6823
▁craft	-6824
▁cycle	-6825
▁disks	-6826
▁disli	-6827
▁downs	-6828
▁drops	-6829
▁fails	-6830
▁fifth	-6831
▁flore	-6832
▁fudge	-6833
▁gradu	-6834
▁gramm	-6835
▁grass	-6836
▁grind	-6837
▁guido	-6838
▁heads	-6839
▁heart	-6840
▁holds	-6841
▁hoped	-6842
▁imply	-6843
▁impor	-6844
▁joost	-6845
▁labor	-6846
▁lasts	-6847
▁legal	-6848
▁legos	-6849
▁lived	-6850
▁lotta	-6851
▁loyal	-6852
▁magic	-6853
▁march	-6854
▁merit	-6855
▁noisy	-6856
▁noted	-6857
▁occas	-6858
▁optic	-6859
▁photo	-6860
▁plane	-6861
▁plugs	-6862
▁proud	-6863
▁rasta	-6864
▁rates	-6865
▁reads	-6866
▁rever	-6867
▁risky	-6868
▁rolls	-6869
▁serve	-6870
▁shark	-6871
▁sheep	-6872
▁snail	-6873
▁subst	-6874
▁sweet	-6875
▁sword	-6876
▁talks	-6877
▁templ	-6878
▁temps	-6879
▁toler	-6880
▁trees	-6881
▁tries	-6882
▁truly	-6883
▁tuner	-6884
▁twent	-6885
▁twist	-6886
▁unint	-6887
▁versa	-6888
▁walls	-6889
▁whate	-6890
▁zeros	-6891
aceable	-6892
achable	-6893
actions	-6894
cessary	-6895
erature	-6896
ionally	-6897
itative	-6898
mediate	-6899
ologies	-6900
plexity	-6901
quences	-6902
racting	-6903
ressive	-6904
version	-6905
writing	-6906
▁acknow	-6907
▁advise	-6908
▁assess	-6909
▁autumn	-6910
▁barely	-6911
▁baufix	-6912
▁borrow	-6913
▁branch	-6914
▁bucket	-6915
▁bursts	-6916
▁cancel	-6917
▁chairs	-6918
▁closes	-6919
▁column	-6920
▁cooper	-6921
▁defeat	-6922
▁defend	-6923
▁deltas	-6924
▁differ	-6925
▁dinner	-6926
▁doodle	-6927
▁enhanc	-6928
▁ensure	-6929
▁fallen	-6930
▁france	-6931
▁franck	-6932
▁freeze	-6933
▁granny	-6934
▁heated	-6935
▁helped	-6936
▁hereby	-6937
▁hurray	-6938
▁hybrid	-6939
▁indian	-6940
▁innova	-6941
▁instit	-6942
▁island	-6943
▁joined	-6944
▁learnt	-6945
▁liquid	-6946
▁mailed	-6947
▁marios	-6948
▁messed	-6949
▁monoph	-6950
▁muting	-6951
▁nearer	-6952
▁neatly	-6953
▁newest	-6954
▁nuance	-6955
▁occupy	-6956
▁opener	-6957
▁passes	-6958
▁pauses	-6959
▁pepper	-6960
▁pistol	-6961
▁presen	-6962
▁priced	-6963
▁prohib	-6964
▁pulses	-6965
▁purely	-6966
▁pushes	-6967
▁quirky	-6968
▁radius	-6969
▁retain	-6970
▁righty	-6971
▁salary	-6972
▁secure	-6973
▁senior	-6974
▁silent	-6975
▁simult	-6976
▁sleeve	-6977
▁socket	-6978
▁specif	-6979
▁stabil	-6980
▁stolen	-6981
▁stroke	-6982
▁strugg	-6983
▁summer	-6984
▁televi	-6985
▁theirs	-6986
▁threes	-6987
▁thumbs	-6988
▁ticker	-6989
▁titles	-6990
▁trains	-6991
▁travel	-6992
▁treats	-6993
▁tricks	-6994
▁unsure	-6995
▁upside	-6996
▁whatev	-6997
liminary	-6998
mentally	-6999
mosphere	-7000
orescent	-7001
▁accentu	-7002
▁adaptor	-7003
▁african	-7004
▁america	-7005
▁annoyed	-7006
▁applies	-7007
▁arguing	-7008
▁arrived	-7009
▁asymmet	-7010
▁backups	-7011
▁blended	-7012
▁bubbles	-7013
▁burning	-7014
▁cheaply	-7015
▁columns	-7016
▁compens	-7017
▁consult	-7018
▁copying	-7019
▁costing	-7020
▁counted	-7021
▁daimler	-7022
▁defines	-7023
▁diffuse	-7024
▁dilemma	-7025
▁distant	-7026
▁doubles	-7027
▁dumping	-7028
▁dynamos	-7029
▁enlarge	-7030
▁evident	-7031
▁exclude	-7032
▁firefox	-7033
▁firstly	-7034
▁follows	-7035
▁foreign	-7036
▁glasses	-7037
▁glowing	-7038
▁halfway	-7039
▁handers	-7040
▁handing	-7041
▁heading	-7042
▁heavier	-7043
▁imprint	-7044
▁indoors	-7045
▁infrequ	-7046
▁insight	-7047
▁insured	-7048
▁ionized	-7049
▁jointly	-7050
▁knocked	-7051
▁leopard	-7052
▁licence	-7053
▁linking	-7054
▁maarika	-7055
▁minging	-7056
▁modular	-7057
▁notepad	-7058
▁nuclear	-7059
▁numeric	-7060
▁nyquist	-7061
▁observe	-7062
▁offices	-7063
▁optical	-7064
▁optimum	-7065
▁orangut	-7066
▁packets	-7067
▁penguin	-7068
▁percept	-7069
▁piranha	-7070
▁playful	-7071
▁pointer	-7072
▁prefers	-7073
▁queries	-7074
▁rabbits	-7075
▁ratings	-7076
▁reactor	-7077
▁repaint	-7078
▁repeats	-7079
▁request	-7080
▁routine	-7081
▁schemes	-7082
▁sharing	-7083
▁simplex	-7084
▁sleeker	-7085
▁storage	-7086
▁streams	-7087
▁subcomp	-7088
▁tamgram	-7089
▁texting	-7090
▁thirdly	-7091
▁treated	-7092
▁unbreak	-7093
▁uniquen	-7094
▁vanilla	-7095
▁vibrant	-7096
▁vibrate	-7097
▁viewing	-7098
▁weather	-7099
▁weemote	-7100
▁weights	-7101
▁whatnot	-7102
▁worries	-7103
rigerator	-7104
▁acronyms	-7105
▁altering	-7106
▁analyzer	-7107
▁announce	-7108
▁argument	-7109
▁armchair	-7110
▁articles	-7111
▁assemble	-7112
▁assigned	-7113
▁backside	-7114
▁bendable	-7115
▁bothered	-7116
▁briefing	-7117
▁capacity	-7118
▁catering	-7119
▁compares	-7120
▁conflict	-7121
▁courtney	-7122
▁dinosaur	-7123
▁diphones	-7124
▁disabled	-7125
▁dominant	-7126
▁doubting	-7127
▁emphasis	-7128
▁energies	-7129
▁entering	-7130
▁everyday	-7131
▁exchange	-7132
▁figuring	-7133
▁firmware	-7134
▁galactic	-7135
▁goodness	-7136
▁greatest	-7137
▁holidays	-7138
▁ignoring	-7139
▁indexing	-7140
▁injuries	-7141
▁involves	-7142
▁isolated	-7143
▁listened	-7144
▁maintain	-7145
▁matrices	-7146
▁megabyte	-7147
▁misplace	-7148
▁national	-7149
▁networks	-7150
▁nuisance	-7151
▁obsolete	-7152
▁operated	-7153
▁packages	-7154
▁performs	-7155
▁petersen	-7156
▁phonemes	-7157
▁plastics	-7158
▁pleasant	-7159
▁pleasure	-7160
▁printing	-7161
▁provider	-7162
▁quantity	-7163
▁quarters	-7164
▁recalibr	-7165
▁released	-7166
▁resemble	-7167
▁responds	-7168
▁rotation	-7169
▁scroller	-7170
▁secondly	-7171
▁sessions	-7172
▁shortcut	-7173
▁sideways	-7174
▁simplify	-7175
▁slippery	-7176
▁spotting	-7177
▁stopping	-7178
▁submenus	-7179
▁targeted	-7180
▁teenager	-7181
▁unlikely	-7182
▁username	-7183
▁variance	-7184
▁whiskers	-7185
▁activates	-7186
▁ambitious	-7187
▁amplifier	-7188
▁appliance	-7189
▁australia	-7190
▁catalogue	-7191
▁colleague	-7192
▁completed	-7193
▁consuming	-7194
▁corrected	-7195
▁distances	-7196
▁disturbed	-7197
▁durations	-7198
▁enumerate	-7199
▁existence	-7200
▁exploring	-7201
▁harmonics	-7202
▁hierarchy	-7203
▁impressed	-7204
▁joysticks	-7205
▁luxurious	-7206
▁meanwhile	-7207
▁measuring	-7208
▁microchip	-7209
▁modifying	-7210
▁multiples	-7211
▁necessity	-7212
▁normalise	-7213
▁notebooks	-7214
▁paperwork	-7215
▁precisely	-7216
▁procedure	-7217
▁proposing	-7218
▁protected	-7219
▁radiation	-7220
▁recharged	-7221
▁recorders	-7222
▁recovered	-7223
▁remaining	-7224
▁resembles	-7225
▁resistors	-7226
▁responses	-7227
▁scratched	-7228
▁sebastien	-7229
▁separates	-7230
▁smoothing	-7231
▁solutions	-7232
▁squeezing	-7233
▁strengths	-7234
▁submitted	-7235
▁summarize	-7236
▁supported	-7237
▁symmetric	-7238
▁temporary	-7239
▁thickness	-7240
▁transport	-7241
▁underline	-7242
▁underside	-7243
▁virtually	-7244
▁whispered	-7245
▁wholesale	-7246
▁atmosphere	-7247
▁beforehand	-7248
▁calibrated	-7249
▁centimetre	-7250
▁collecting	-7251
▁comparison	-7252
▁contribute	-7253
▁cumulative	-7254
▁customised	-7255
▁democratic	-7256
▁depression	-7257
▁detachable	-7258
▁downloaded	-7259
▁encryption	-7260
▁essentials	-7261
▁explicitly	-7262
▁expression	-7263
▁foreground	-7264
▁histograms	-7265
▁introduced	-7266
▁investment	-7267
▁laboratory	-7268
▁limitation	-7269
▁literature	-7270
▁luminosity	-7271
▁manageable	-7272
▁perplexity	-7273
▁positioned	-7274
▁preferably	-7275
▁protecting	-7276
▁protruding	-7277
▁provenance	-7278
▁purchasing	-7279
▁recharging	-7280
▁recognises	-7281
▁recordings	-7282
▁references	-7283
▁regardless	-7284
▁separating	-7285
▁supporting	-7286
▁supposedly	-7287
▁trendiness	-7288
▁trendwatch	-7289
▁usefulness	-7290
▁visibility	-7291
▁youngsters	-7292
▁accountants	-7293
▁adjustments	-7294
▁advancement	-7295
▁algorithmic	-7296
▁approaching	-7297
▁colourblind	-7298
▁conclusions	-7299
▁consecutive	-7300
▁controllers	-7301
▁corporation	-7302
▁established	-7303
▁explanatory	-7304
▁handwriting	-7305
▁intentional	-7306
▁interacting	-7307
▁introducing	-7308
▁mathematics	-7309
▁observatory	-7310
▁overwhelmed	-7311
▁percentages	-7312
▁powerpoints	-7313
▁preliminary	-7314
▁prohibitive	-7315
▁referencing	-7316
▁reliability	-7317
▁remembering	-7318
▁replaceable	-7319
▁summarising	-7320
▁symmetrical	-7321
▁temperature	-7322
▁temporarily	-7323
▁unbreakable	-7324
▁underlining	-7325
▁unnecessary	-7326
▁architecture	-7327
▁availability	-7328
▁backlighting	-7329
▁categorising	-7330
▁consequences	-7331
▁continuously	-7332
▁demographics	-7333
▁difficulties	-7334
▁disappointed	-7335
▁grandmothers	-7336
▁infrequently	-7337
▁interference	-7338
▁intermediate	-7339
▁localization	-7340
▁participants	-7341
▁practicality	-7342
▁quantization	-7343
▁refrigerator	-7344
▁simultaneous	-7345
▁subcomponent	-7346
▁advertisement	-7347
▁approximation	-7348
▁collaborative	-7349
▁concentrating	-7350
▁contradiction	-7351
▁decorrelation	-7352
▁ergonomically	-7353
▁introductions	-7354
▁probabilities	-7355
▁transcription	-7356
▁visualisation	-7357
▁infrastructure	-7358
da	-7359
ik	-7360
wi	-7361
za	-7362
ake	-7363
asp	-7364
auc	-7365
bel	-7366
boy	-7367
bye	-7368
col	-7369
def	-7370
des	-7371
dly	-7372
eff	-7373
hog	-7374
hoo	-7375
isa	-7376
ley	-7377
lia	-7378
lon	-7379
mpt	-7380
nat	-7381
ola	-7382
ots	-7383
tic	-7384
tra	-7385
uls	-7386
yce	-7387
▁ef	-7388
▁ei	-7389
▁ep	-7390
▁om	-7391
▁tu	-7392
aign	-7393
airs	-7394
amel	-7395
anta	-7396
aroo	-7397
arre	-7398
assp	-7399
lud	-7400
off	-7401
ards	-7402
bage	-7403
bish	-7404
bled	-7405
bout	-7406
cast	-7407
ccer	-7408
ched	-7409
city	-7410
clei	-7411
conf	-7412
dest	-7413
eria	-7414
etub	-7415
evit	-7416
fish	-7417
gwin	-7418
husi	-7419
ican	-7420
icky	-7421
ilit	-7422
ille	-7423
inne	-7424
ints	-7425
isyn	-7426
kill	-7427
lead	-7428
long	-7429
mans	-7430
megr	-7431
most	-7432
pefr	-7433
perv	-7434
phic	-7435
racy	-7436
rial	-7437
sers	-7438
sole	-7439
ssle	-7440
stal	-7441
ucky	-7442
utor	-7443
vene	-7444
west	-7445
ynke	-7446
▁ain	-7447
▁ape	-7448
▁ate	-7449
▁avo	-7450
▁awk	-7451
▁bed	-7452
▁beg	-7453
▁bic	-7454
▁bio	-7455
▁biz	-7456
▁bla	-7457
▁buz	-7458
▁cea	-7459
▁cen	-7460
▁cro	-7461
▁cud	-7462
▁cyc	-7463
▁dow	-7464
▁eco	-7465
▁eva	-7466
▁fed	-7467
▁fen	-7468
▁fle	-7469
▁gas	-7470
▁glo	-7471
▁gue	-7472
▁gym	-7473
▁hon	-7474
▁ice	-7475
▁ide	-7476
▁jur	-7477
▁kem	-7478
▁lid	-7479
▁liz	-7480
▁mal	-7481
▁mee	-7482
▁mum	-7483
▁mun	-7484
▁obv	-7485
▁osc	-7486
▁pea	-7487
▁plu	-7488
▁ram	-7489
▁rar	-7490
▁rou	-7491
▁sco	-7492
▁shu	-7493
▁sti	-7494
▁sue	-7495
▁toy	-7496
▁tro	-7497
▁unc	-7498
▁vac	-7499
▁ven	-7500
▁wai	-7501
▁wis	-7502
▁zip	-7503
about	-7504
ahili	-7505
alled	-7506
anese	-7507
anted	-7508
arden	-7509
atisf	-7510
ctual	-7511
ealed	-7512
eless	-7513
eline	-7514
elsen	-7515
geous	-7516
gered	-7517
htime	-7518
icial	-7519
igued	-7520
inist	-7521
iosyn	-7522
ipher	-7523
iring	-7524
itsch	-7525
luded	-7526
melon	-7527
nding	-7528
ocate	-7529
onica	-7530
onomy	-7531
oseek	-7532
osure	-7533
ribed	-7534
riend	-7535
sicum	-7536
suits	-7537
track	-7538
urred	-7539
vices	-7540
ville	-7541
▁adva	-7542
▁alan	-7543
▁alri	-7544
▁argh	-7545
▁bags	-7546
▁bals	-7547
▁bank	-7548
▁bars	-7549
▁blob	-7550
▁bong	-7551
▁boot	-7552
▁boxy	-7553
▁bund	-7554
▁bure	-7555
▁buys	-7556
▁buzz	-7557
▁carp	-7558
▁cogn	-7559
▁colo	-7560
▁cros	-7561
▁cuts	-7562
▁damp	-7563
▁darn	-7564
▁deci	-7565
▁defi	-7566
▁dele	-7567
▁elev	-7568
▁exam	-7569
▁flap	-7570
▁flaw	-7571
▁fool	-7572
▁fort	-7573
▁frag	-7574
▁freq	-7575
▁fuzz	-7576
▁gaps	-7577
▁gear	-7578
▁goin	-7579
▁gray	-7580
▁grew	-7581
▁grid	-7582
▁heur	-7583
▁hill	-7584
▁iain	-7585
▁ital	-7586
▁jobs	-7587
▁john	-7588
▁join	-7589
▁kang	-7590
▁kill	-7591
▁lays	-7592
▁lean	-7593
▁leap	-7594
▁lies	-7595
▁lunc	-7596
▁mira	-7597
▁mote	-7598
▁nest	-7599
▁nils	-7600
▁noth	-7601
▁obsc	-7602
▁offs	-7603
▁omit	-7604
▁pale	-7605
▁penl	-7606
▁perm	-7607
▁pile	-7608
▁plas	-7609
▁pose	-7610
▁priv	-7611
▁prod	-7612
▁prun	-7613
▁puzz	-7614
▁rein	-7615
▁reit	-7616
▁sacr	-7617
▁scro	-7618
▁seal	-7619
▁sees	-7620
▁slap	-7621
▁slip	-7622
▁spee	-7623
▁sued	-7624
▁swim	-7625
▁ther	-7626
▁tier	-7627
▁tita	-7628
▁tran	-7629
▁unre	-7630
▁velo	-7631
▁vice	-7632
▁zill	-7633
antial	-7634
atable	-7635
azines	-7636
ceptor	-7637
cesses	-7638
curity	-7639
enance	-7640
fetime	-7641
fluous	-7642
ichlet	-7643
icious	-7644
icting	-7645
idence	-7646
ieving	-7647
illips	-7648
inters	-7649
ionary	-7650
ivered	-7651
mbling	-7652
parent	-7653
rarily	-7654
ribble	-7655
screen	-7656
stairs	-7657
teenth	-7658
uities	-7659
urrent	-7660
ustive	-7661
vative	-7662
verage	-7663
▁advis	-7664
▁amuse	-7665
▁backs	-7666
▁barks	-7667
▁beefy	-7668
▁bench	-7669
▁benjo	-7670
▁betwe	-7671
▁blend	-7672
▁brush	-7673
▁bumps	-7674
▁buyer	-7675
▁cased	-7676
▁chalk	-7677
▁chuck	-7678
▁codec	-7679
▁comfy	-7680
▁creep	-7681
▁crowd	-7682
▁datas	-7683
▁dated	-7684
▁deact	-7685
▁deals	-7686
▁demos	-7687
▁diffi	-7688
▁dingy	-7689
▁discs	-7690
▁draws	-7691
▁dream	-7692
▁drift	-7693
▁eject	-7694
▁envis	-7695
▁esque	-7696
▁facia	-7697
▁facts	-7698
▁faded	-7699
▁fault	-7700
▁finer	-7701
▁flush	-7702
▁force	-7703
▁gecko	-7704
▁glows	-7705
▁grasp	-7706
▁horns	-7707
▁japan	-7708
▁kitty	-7709
▁knobs	-7710
▁lemme	-7711
▁lined	-7712
▁loses	-7713
▁lotus	-7714
▁lucky	-7715
▁macro	-7716
▁mails	-7717
▁monke	-7718
▁motiv	-7719
▁mustn	-7720
▁negle	-7721
▁negot	-7722
▁nynke	-7723
▁oblig	-7724
▁pairs	-7725
▁parse	-7726
▁persu	-7727
▁petre	-7728
▁plast	-7729
▁plays	-7730
▁polic	-7731
▁prett	-7732
▁prove	-7733
▁ratty	-7734
▁reser	-7735
▁reson	-7736
▁revis	-7737
▁rigid	-7738
▁royce	-7739
▁ruled	-7740
▁scept	-7741
▁shiny	-7742
▁shops	-7743
▁shove	-7744
▁shuts	-7745
▁sixes	-7746
▁slice	-7747
▁suits	-7748
▁sunil	-7749
▁tacky	-7750
▁texts	-7751
▁tiers	-7752
▁timed	-7753
▁timer	-7754
▁tones	-7755
▁trunk	-7756
▁tuned	-7757
▁uncon	-7758
▁unnat	-7759
▁votes	-7760
▁wikis	-7761
▁women	-7762
aucracy	-7763
defined	-7764
icapped	-7765
ificial	-7766
lishing	-7767
onsider	-7768
orphous	-7769
pefruit	-7770
redibly	-7771
uminium	-7772
uncated	-7773
▁acting	-7774
▁addict	-7775
▁airbag	-7776
▁alessi	-7777
▁alloys	-7778
▁alphas	-7779
▁anglia	-7780
▁anythi	-7781
▁arrive	-7782
▁autism	-7783
▁basing	-7784
▁beagle	-7785
▁begins	-7786
▁behave	-7787
▁bricks	-7788
▁builds	-7789
▁burrit	-7790
▁buyers	-7791
▁caused	-7792
▁chrome	-7793
▁cities	-7794
▁commit	-7795
▁comple	-7796
▁confus	-7797
▁cookie	-7798
▁cuddly	-7799
▁cursor	-7800
▁cygwin	-7801
▁darker	-7802
▁debate	-7803
▁decode	-7804
▁desert	-7805
▁doctor	-7806
▁dwarfs	-7807
▁ending	-7808
▁expend	-7809
▁fatter	-7810
▁fluctu	-7811
▁folded	-7812
▁forced	-7813
▁formal	-7814
▁francs	-7815
▁freaks	-7816
▁garden	-7817
▁grapes	-7818
▁graphs	-7819
▁handsh	-7820
▁hassle	-7821
▁headph	-7822
▁hiding	-7823
▁homing	-7824
▁hungry	-7825
▁hyperl	-7826
▁imagin	-7827
▁inevit	-7828
▁instin	-7829
▁joking	-7830
▁jurgen	-7831
▁kicked	-7832
▁kiddie	-7833
▁kitsch	-7834
▁lemons	-7835
▁loosey	-7836
▁louisa	-7837
▁luxury	-7838
▁macros	-7839
▁makers	-7840
▁manner	-7841
▁marble	-7842
▁martin	-7843
▁misses	-7844
▁nearby	-7845
▁neural	-7846
▁nuclei	-7847
▁obtain	-7848
▁oscill	-7849
▁overly	-7850
▁parsed	-7851
▁pilots	-7852
▁planet	-7853
▁pomegr	-7854
▁prefix	-7855
▁prompt	-7856
▁radios	-7857
▁redraw	-7858
▁relies	-7859
▁rocket	-7860
▁scales	-7861
▁schema	-7862
▁scient	-7863
▁settle	-7864
▁setups	-7865
▁sister	-7866
▁slower	-7867
▁snakes	-7868
▁snapsh	-7869
▁soccer	-7870
▁spider	-7871
▁sprink	-7872
▁squash	-7873
▁steven	-7874
▁subtit	-7875
▁summed	-7876
▁superv	-7877
▁synerg	-7878
▁unwrap	-7879
▁veggie	-7880
▁veneer	-7881
▁warned	-7882
▁wicked	-7883
▁widely	-7884
▁winter	-7885
▁wisdom	-7886
▁wishes	-7887
atically	-7888
bilities	-7889
ractical	-7890
restrial	-7891
▁accepts	-7892
▁altered	-7893
▁amongst	-7894
▁angular	-7895
▁assumes	-7896
▁attempt	-7897
▁awkward	-7898
▁bastard	-7899
▁belongs	-7900
▁beneath	-7901
▁bizarre	-7902
▁britain	-7903
▁buckets	-7904
▁bullets	-7905
▁caramel	-7906
▁chopped	-7907
▁clarify	-7908
▁clicked	-7909
▁clients	-7910
▁coaches	-7911
▁committ	-7912
▁compact	-7913
▁complet	-7914
▁console	-7915
▁corinne	-7916
▁counter	-7917
▁creativ	-7918
▁credits	-7919
▁crossed	-7920
▁crystal	-7921
▁culture	-7922
▁curving	-7923
▁destroy	-7924
▁detects	-7925
▁devised	-7926
▁dictate	-7927
▁editing	-7928
▁elastic	-7929
▁emotion	-7930
▁encoded	-7931
▁enlight	-7932
▁entries	-7933
▁equally	-7934
▁evening	-7935
▁facilit	-7936
▁feeding	-7937
▁fucking	-7938
▁garbage	-7939
▁germany	-7940
▁goodbye	-7941
▁handset	-7942
▁heavily	-7943
▁idiosyn	-7944
▁illustr	-7945
▁impacts	-7946
▁interim	-7947
▁iterate	-7948
▁joining	-7949
▁journal	-7950
▁kickoff	-7951
▁lacking	-7952
▁largest	-7953
▁leather	-7954
▁letting	-7955
▁listing	-7956
▁locking	-7957
▁maarten	-7958
▁mangoey	-7959
▁mapping	-7960
▁mielsen	-7961
▁mislead	-7962
▁mission	-7963
▁moments	-7964
▁morphic	-7965
▁moulded	-7966
▁mounted	-7967
▁origins	-7968
▁outlier	-7969
▁overlay	-7970
▁	-7971
e	-7972
t	-7973
o	-7974
a	-7975
h	-7976
i	-7977
n	-7978
s	-7979
u	-7980
r	-7981
l	-7982
y	-7983
m	-7984
d	-7985
w	-7986
c	-7987
g	-7988
f	-7989
b	-7990
p	-7991
k	-7992
'	-7993
v	-7994
j	-7995
x	-7996
q	-7997
z	-7998
