t
th
i
a
w
s
the
y
o
##re
u
##ou
##in
##at
b
##ea
m
c
##on
it
h
d
##er
yea
yeah
we
f
##nd
uh
you
##ll
so
##ing
p
to
l
that
##ve
##an
n
##ay
and
##ut
##st
##se
##or
g
##it
ha
##es
wh
##en
##ot
in
of
on
##et
but
be
##ro
##ke
##le
re
is
um
##ow
##ic
##is
##ig
have
##ion
##kay
##ld
okay
e
##ct
##ould
##me
li
##al
for
##ar
mm
like
do
##ust
can
j
##ed
##ink
k
this
##ht
think
co
r
just
if
##ight
what
##all
##ver
##ch
##mm
##ly
or
##as
well
##ith
##id
not
##ere
an
hmm
go
##ally
one
with
no
se
##ent
st
con
##mp
mo
sh
are
kn
know
pro
they
then
ne
##ur
don
al
##ca
##pe
##use
##hing
ch
there
as
##cause
##ant
ma
rem
##ce
lo
##ill
ab
remot
##ton
##el
button
would
v
thing
right
##ive
##ter
remote
##nt
##out
some
cont
use
##very
##our
##her
##ra
##ind
may
at
##ble
##qu
##met
ex
tw
oh
mea
##ation
about
all
somet
##if
contro
was
##be
##od
##un
maybe
mean
something
because
control
su
##ir
want
should
wor
de
##ok
us
more
##na
could
##ge
##op
##ction
look
will
##ign
your
##ich
te
##ess
which
me
pre
any
say
po
##ment
see
two
buttons
how
'
make
sa
very
yes
our
##ck
des
##ate
##ite
##us
need
up
get
really
##so
sc
tr
sor
##oug
##ul
qu
spe
chan
##ep
kind
##ose
ea
##art
##ice
gon
design
##ol
##pp
##rom
also
pe
si
from
gonna
good
ti
comp
peop
##og
people
##ber
here
pl
##ad
##il
dif
int
diff
fun
##um
##int
##ther
got
##ide
now
work
##ctu
when
out
##ab
##eting
fe
##pt
other
##ine
my
##ty
function
##ss
##ree
things
per
put
does
dis
time
id
actu
##mple
ta
differe
them
ba
##xt
##ip
##ough
did
col
than
sort
##ect
##ure
colour
idea
rec
different
ca
##ial
has
gu
##ven
##ort
these
##ound
actually
##ain
##ark
bas
every
sp
bit
##itt
point
##ast
meeting
cl
ad
mu
##ard
##ff
where
five
much
##du
inter
##ue
only
basic
eas
##nel
user
channel
##ear
going
sure
##ire
ag
too
##way
exa
##ition
##one
way
mark
##ace
he
##ick
en
who
##reen
new
##ong
##ity
litt
little
##im
three
##om
##ably
yep
##thing
pr
##right
prob
by
hu
man
##ie
produ
bet
imp
give
quite
##get
fr
fir
let
##ies
probably
were
screen
##orm
ke
bu
##and
first
##age
recog
recogn
cur
lot
into
might
had
##ore
stu
##anc
back
##ision
##atter
still
fa
##able
##ject
part
##sent
inf
##de
same
##ry
exp
tech
dec
alright
most
those
find
##ise
min
##own
ru
guess
sl
spec
take
##king
even
down
sha
##ist
over
techn
tal
next
##no
cost
##een
##ated
##ssi
hand
recognition
##blem
problem
##ens
stuff
easy
##ption
start
rub
##ech
import
##pl
off
##ments
ah
four
possi
product
##red
present
num
speech
ho
##ving
rubber
batter
##roll
big
huh
basically
doesn
bl
##cus
again
##ers
##est
##ile
##lev
try
un
ar
##ower
##lf
number
##ady
chip
interf
le
important
project
##ag
minut
scroll
sm
##ater
##ature
doing
##ous
##ume
simple
curve
functions
##ond
app
inc
##ph
bo
word
interface
##ting
##uit
feature
##ult
##ical
ind
res
option
##th
supp
sorry
true
##ever
why
##ms
##ctly
##ft
##ys
##ell
set
used
power
market
ph
lea
##ap
case
##ance
minutes
##cess
vo
##play
said
display
##ought
feel
inform
cour
telev
didn
add
com
television
their
discus
vol
each
course
ac
men
come
bot
fin
looking
##ody
keep
##ete
alre
information
##iv
already
presentation
##ked
##nder
volume
controls
quest
##ash
##ush
dev
##reat
top
wan
done
question
##ert
better
##are
##body
anything
nice
##raw
fif
colours
wanna
op
##other
using
thought
def
##olog
af
##atch
inst
under
##fore
thr
whatever
example
exactly
everything
##sed
fl
last
another
tre
change
through
end
pers
wr
##enty
el
eu
ro
draw
having
pret
thir
voice
##ri
euro
menu
sy
whole
##ype
push
technolog
##ious
##vers
##em
##ary
six
trend
anyway
cool
person
before
pretty
been
working
na
requ
fo
shape
##ail
##ning
twenty
looks
ev
dun
##astic
##ord
##ru
##ual
after
har
dunno
small
isn
require
possible
##cond
ext
discuss
##ead
##gra
##vel
whe
##oup
battery
dat
long
many
##erg
stand
##alu
##ud
suppose
##ctr
##ish
fanc
press
##ful
tra
##cept
defin
thank
sign
plastic
##ger
##erest
##ular
##eak
##kes
else
mater
interest
special
betw
line
material
functional
##cent
hig
wheel
##ack
hard
between
light
able
fruit
ob
mod
adv
evalu
fancy
play
##ier
##onent
data
sound
device
second
less
yell
component
thinking
gr
progra
##ether
enough
tur
##rea
##les
real
yellow
z
##row
##ways
ele
gen
percent
##self
side
##ensive
compl
curved
whether
##ific
always
fash
rat
tell
seven
made
talk
fashion
speak
em
cons
twel
eight
though
cor
signal
channels
##eri
fifty
watch
seg
both
gener
twelve
##pect
sell
show
means
buy
expensive
##ces
cho
features
##ount
definite
##ang
fact
great
toget
together
wouldn
talking
marketing
##earch
around
am
sol
ten
##pend
##elete
##ium
dou
##ict
energ
##lder
##vious
wa
##inet
##itch
br
sw
energy
##wh
im
high
youn
##io
left
extra
##ics
concept
definitely
ins
tit
red
##ative
reg
comm
dire
agree
ideas
thirty
ban
fine
options
words
moment
technology
compan
saying
telete
syst
teletext
##ild
form
move
ones
board
least
turn
interesting
##ans
##ically
price
##ense
specific
##cu
prot
rep
being
spong
banan
jo
guys
group
mic
won
open
euros
double
##mes
##ouch
advanc
incl
##ily
##par
##por
docu
##ach
banana
call
kinda
advanced
es
half
happ
main
vide
depend
spongy
company
standard
video
det
chang
titan
rather
##where
sing
sense
##ertain
chea
titanium
##ially
##ility
components
possib
log
year
##ations
slide
numbers
separ
##iew
##ze
##ither
trans
decide
##ually
certain
##ory
few
micro
batteries
single
decision
##nce
acc
##mo
far
fre
name
cheap
without
##vent
works
ter
away
sour
touch
switch
program
##ood
la
comput
##ided
room
makes
type
##ull
ow
norm
inno
model
remotes
##gr
##ange
##ating
must
send
black
ve
cr
evaluation
own
file
lose
intern
system
haven
innov
protot
requirements
##bo
once
soft
str
white
##idd
##ible
hold
sele
diffic
either
##ward
##mber
fra
##ouse
microph
clear
##ides
infra
users
underst
separate
##ase
##mit
rel
run
quick
seems
source
##imal
aud
cent
costs
everybody
##ider
uni
technical
##act
##ass
tar
hope
shouldn
x
ga
##ute
##teen
such
process
save
difficult
##quen
age
pen
mind
pref
read
##porate
##rent
found
speaker
bad
wanted
##ages
list
const
forty
##ont
che
page
research
##ek
email
choose
instead
spectr
current
prototype
##not
##ndred
kinet
itself
trying
hundred
##ia
##elp
##ude
electr
making
reme
understand
easier
##ones
##ustr
fit
close
ent
getting
remember
char
never
write
kinetic
somewhere
##os
##ings
##ied
obvious
cir
##icated
solar
partic
##aps
##mpl
da
key
circ
inte
says
setting
goes
inside
useful
##pes
ut
designer
fair
logo
nothing
fi
##ions
sub
based
later
av
##reak
its
perh
##board
conf
needs
record
within
##ten
##ivid
hour
wait
front
round
utter
finish
decided
##ices
ask
help
lost
perhaps
personal
wood
actual
animal
##iss
day
she
yet
phone
##ence
view
given
level
trendy
consider
crit
cover
individ
##ress
bel
frequen
att
mach
frequenc
##ason
##oney
summ
incor
money
normal
segment
##lex
##gest
build
place
integr
sk
fil
mill
reason
##ask
##iend
met
task
text
comes
terms
times
##mil
bott
seen
break
points
##co
##ines
##vour
mob
old
general
##wise
mult
imple
aspect
depends
programme
microphone
##ract
vers
veget
regular
electron
bud
##ention
frame
bottom
friend
otherwise
sin
audio
mouse
stick
target
usually
##eam
##put
favour
implement
##day
pict
prop
budget
controll
##ors
##ware
act
##cture
inde
rece
##ctions
computer
##ero
plus
complete
check
expert
fig
ord
##eable
best
settings
iss
code
devel
necess
include
segments
##less
ass
eff
orig
mobile
develop
picture
younger
innovative
##eal
##iddle
##uring
nine
wind
zero
origin
loc
##ities
beep
hear
sens
click
manag
##ves
dig
dist
espe
young
infrared
individual
espec
cannot
document
complicated
gra
cell
cust
prof
since
result
watching
easily
favourite
especially
ser
blue
rest
creat
often
custom
sounds
meetings
supposed
obviously
##rop
care
print
table
circuit
industr
##ates
##ieve
cra
##ering
wasn
matter
fifteen
##ruct
cat
tha
team
parts
phase
middle
univers
industrial
pay
figure
frequency
##ta
##unch
web
base
perf
size
digit
functionality
##med
pap
##arent
almo
flat
avail
##ered
##ouple
coming
couple
sug
pick
station
fix
squ
sample
##ye
par
anal
plea
week
final
experi
slides
materials
cal
train
almost
bright
happen
criteri
friendly
##ne
##era
##rib
aut
ear
tot
came
exce
imag
count
object
everyone
questions
particular
##imes
##iple
box
bro
cut
lar
comb
conc
expl
load
report
suggest
changing
original
available
##iz
aim
sca
bring
limit
topic
select
trends
##ug
##gin
##res
cre
##action
manager
##ness
stay
focus
sometimes
##oth
##oked
##part
fur
mar
lear
test
track
window
mention
documents
gi
cod
##pping
band
dark
stra
leave
simil
machine
difference
ra
##sure
car
gotta
ready
access
similar
low
##ances
##ution
prov
sent
spend
thanks
criteria
universal
##ables
mess
tool
smart
folder
format
complex
quickly
presentations
mon
fast
unit
simpl
spectrum
##ee
##ock
today
putting
possibly
previous
##lic
##ove
gl
##asing
pres
while
someone
internet
construct
discussion
incorporate
dy
##ully
mat
sur
home
range
wants
imagine
prefere
discussed
wi
##ateg
##oint
pie
tri
val
aver
went
scale
please
instance
somebody
production
##man
step
begin
years
direct
##cul
ty
##ised
joy
var
dyna
rech
gives
order
##itional
software
completely
pa
wha
plan
resp
takes
contin
manage
profit
rechar
search
electronics
##ced
sit
##itive
##stick
stru
covers
slight
##ops
##fort
his
average
measure
results
selling
##ork
##ses
##point
alph
aren
late
oper
##itting
appro
shall
joystick
programm
##ank
##ify
##come
link
space
third
throw
wrong
includ
looked
triang
##hod
##work
exc
pos
calcul
method
phones
taking
##ib
er
et
##nces
cam
alth
keys
allow
corre
files
older
create
devices
million
although
controller
powerpoint
##to
##ient
##ately
##wards
wond
child
green
value
##ability
effect
sevent
##nda
##sor
alpha
anybody
command
products
whiteboard
##sol
ug
##llow
saw
vis
wid
mute
repl
slog
class
fairly
eye
drop
appear
follow
receive
integrated
##uf
##nch
##ump
##veral
card
autom
ident
noise
width
analys
instru
slogan
believe
several
##ron
sty
absor
exist
issue
lines
detect
expect
version
selection
conceptual
possibility
eng
equ
##etera
wire
paper
ed
lapt
##ording
image
automat
drawing
according
corporate
structure
oo
div
him
mor
brow
lots
meet
mine
relev
worth
shapes
decisions
utterance
##ren
##more
##onom
##side
lay
sch
dial
gets
categ
input
learn
manuf
bigger
couldn
running
vegetables
##ern
del
gre
shot
soon
anyone
coding
square
problems
slightly
straight
##ior
##lish
##sing
aff
job
rad
unt
##fully
large
ninet
score
##ath
##ote
ly
##ator
pur
##mples
ugly
indeed
evaluate
direction
##ax
di
bra
ooh
flip
lead
rate
amount
called
casing
lights
worked
forward
further
perfect
summary
beginning
##umb
pop
##iting
##ivity
feed
lunch
handed
prefer
utterances
##hip
##ons
##per
##xim
##iled
beh
head
post
##ission
agenda
sensor
account
spectral
##bit
##how
bus
lab
##arily
ever
sixt
stop
impro
sixty
thumb
until
forget
higher
analysis
interested
##ped
ye
ref
happy
worry
during
reaction
##que
##angu
erg
##istic
##resent
langu
match
pages
reach
sorta
ergonom
outside
sixteen
somehow
findings
represent
##py
##gth
##ffee
bec
##ality
seem
piece
seventy
hopefully
preferences
##li
##ken
full
ahead
clust
lyman
ninety
summar
talked
cheaper
explain
recharg
started
directly
recognis
certainly
##ci
##lier
##ooth
gal
wow
free
plug
purp
temp
told
synch
coffee
necessary
##ah
##sh
##sw
##rew
mi
##view
adj
dem
hey
answ
stud
broad
chips
event
store
##ational
continu
position
##ript
nah
##llent
dock
miss
##apping
cells
combin
minute
strong
unless
designs
multiple
excellent
mentioned
absorption
management
##ved
##ailed
ball
coll
init
mode
onto
handy
lower
notes
short
adjust
detail
entire
approach
designed
finished
triangle
personally
technologically
##ny
##ems
art
fill
hell
along
galax
tried
player
digital
whereas
##av
##cur
##led
##sel
##nect
goal
opin
took
commun
essent
fruits
models
anymore
totally
designing
televisions
##ac
##ian
ip
##line
##rodu
##ross
thi
##rease
fing
grey
tele
added
laptop
strange
directory
vegetable
##ues
##aces
##iver
fut
lin
zap
ipod
simp
tend
apple
pract
radio
needed
output
script
earlier
produce
children
communic
##got
##ner
##ret
ok
pan
##iness
bits
##selves
arrow
becom
meant
menus
##ilities
series
finance
quality
automatically
##ew
##lo
##mb
arr
mot
ret
##oring
skip
##iction
asked
curves
##ditional
feeling
morning
language
necessarily
ada
dog
guy
len
spl
##ified
face
gone
consum
dynamo
moving
parent
shaped
comfort
docking
introdu
emission
traditional
##fe
##ho
##gor
##ser
pu
bur
fru
mem
##naire
copy
days
deal
algor
types
forgot
length
supple
attract
connect
related
replace
detailed
relevant
customers
rechargeable
questionnaire
##end
oc
##ared
##ogue
##vert
bea
led
sil
##solute
knows
depart
simply
topics
changes
seconds
smaller
absolute
algorith
pictures
training
transmit
yourself
##back
##pped
bul
env
pot
##iding
##osing
desc
redu
below
blink
flash
advant
appeal
fruity
myself
finding
however
improve
opinion
overall
various
willing
examples
synchron
reasonable
##br
##up
bar
mis
opp
rob
apart
blank
cable
enter
prior
longer
mostly
shared
creativity
##ux
##zy
##ift
dur
her
wel
##ising
book
ways
above
activ
adapt
hands
house
month
overl
assume
future
memory
nobody
unique
signals
apparent
particip
##bul
##uck
##ling
est
fits
apply
graph
panel
style
total
others
aspects
limited
provide
purpose
dialogue
department
instructions
##ext
##ird
##ogra
##ying
enc
hil
mov
corp
##istics
weren
choice
teleph
charact
context
message
existing
feedback
depending
apparently
innovation
international
##ky
##ize
##mon
##tas
ic
ju
##hold
non
sle
##ience
##vered
fore
phys
##ership
heard
contra
issues
starts
wheels
finally
systems
incorpor
pressing
starting
scrolling
processing
participant
##gan
##oud
##cing
##osed
##ters
##ural
##velo
##vest
fal
kid
opt
fall
oops
pack
past
coach
hello
common
transf
support
algorithm
brightness
microphones
##ean
##vig
##mped
##icity
insp
love
slow
thin
navig
restr
sends
corpus
except
factor
invest
mainly
posteri
sitting
increase
leadership
##ays
##rap
##bert
##ream
##tern
etc
med
tun
##ently
acqu
anno
huge
mail
role
spea
star
stat
elder
maxim
share
split
proper
wonder
happens
hilbert
welcome
etcetera
electronic
fashionable
sta
##tasia
area
glow
##velope
links
minim
pitch
sheet
whist
world
yours
eighty
millise
camtasia
concepts
envelope
generate
thoughts
advantage
integrate
requirement
##dd
##vy
##gle
##lus
##oid
hi
##used
dom
net
##ional
gave
prep
prim
##ousand
false
latex
occur
answer
seeing
distrib
writing
speaking
thousand
millisecond
##iest
##iron
lit
wal
ease
##erence
##icient
conne
kinds
trick
applic
become
centre
define
environ
subject
windows
category
normally
relative
effective
ergonomic
##ief
##amet
##ents
doh
upd
##light
##ground
basis
feels
funny
minus
multi
shift
stage
behind
damped
likely
remove
changed
charger
correct
paramet
building
compress
character
importance
comfortable
environment
##but
##ene
##ror
##asar
##over
maj
pet
rid
##idden
kids
pass
prom
annot
estim
organ
sides
state
##ization
groups
losing
manufa
quasar
region
becomes
concern
constra
english
pushbut
machines
receiver
solution
including
recognisable
##gn
##vol
wo
hit
rab
veg
##itten
agre
gaze
life
mist
news
note
cases
indic
major
adding
frustr
giving
hidden
listen
rabbit
weight
combine
opening
perform
playing
audience
included
received
thirteen
practical
recognise
clustering
experience
pushbutton
simplicity
##ns
##eas
##ined
##raid
nat
pub
disc
fire
dynam
taken
tools
manual
triple
covered
maximum
towards
zapping
annoying
commands
manufact
requires
wondering
additional
programming
supplements
possibilities
functionalities
##iar
##pid
hy
##iced
##medi
##ster
ach
hum
##lling
disk
impo
##uitive
clock
hours
stere
across
marked
stupid
clearly
compare
details
figured
overlap
popular
written
compared
contrast
displays
restrict
agreement
generally
recording
smartboard
manufacture
ce
##ield
##load
cap
mil
##iable
##onest
##using
gest
roll
surf
targ
brand
carri
famil
paint
shows
thres
afford
afraid
boring
cetera
digits
engine
fronts
layout
papers
respon
categor
impossi
initial
showing
creative
continuum
displayed
threshold
attractive
background
combination
manufacturing
technological
##ibr
ge
##aint
##ming
map
##chang
##mmick
chun
flex
kick
brief
charg
field
movie
rough
sleek
wrote
affect
agreed
compet
eleven
finger
handle
honest
stereo
stream
gimmick
keeping
natural
screens
simpler
messages
following
##gs
##ety
##ips
##isf
##ral
##ales
##cket
##iant
cha
fam
sho
##ledge
##neath
bulb
grab
pens
spin
uses
wave
##fortun
beaut
equip
lemon
twice
##isation
frames
harder
months
smooth
careful
holding
locator
visible
physical
teamwork
unfortun
##changeable
targeting
therefore
absolutely
underneath
essentially
##by
fu
##ckon
##dden
##hood
blu
ful
god
sat
seb
tom
ver
wee
dave
dump
hasn
held
kept
ruud
brill
burst
super
immedi
modern
presum
reckon
sudden
techni
transl
versus
defined
extract
recover
familiar
galaxies
happened
independ
investig
required
colourful
developed
fixations
intuitive
ourselves
afterwards
experiment
impossible
development
##go
dr
##soci
ago
hea
hop
sec
suc
war
dete
feas
fulf
hang
kate
mass
remo
##etooth
label
assign
associ
attach
charge
compar
domain
likeli
sebast
visual
consist
objects
response
bluetooth
brilliant
calculate
equipment
knowledge
operating
telephone
constraint
posteriors
implemented
particularly
characteristics
##ob
##dle
##eme
aw
##cise
##ival
##onst
arg
emp
jav
pad
##phant
ampl
cele
doub
nite
spon
voca
webs
bands
excel
matth
milan
shake
buying
cradle
descri
extend
financ
flashy
larger
regard
scheme
silver
easiest
elderly
opposed
realise
elephant
fixation
location
pointing
accessible
discussing
likelihood
separately
technically
distribution
manufacturer
unfortunately
##bed
##abor
ant
hor
inj
roo
typ
##abase
##antly
##ident
java
near
nope
walk
##ection
##ensity
avoid
erase
paris
saved
tells
backup
celebr
filter
missed
reduce
robust
satisf
actions
against
brought
carrier
conclus
diction
matthew
whistle
customer
database
lighting
confusing
currently
transform
connection
preference
presumably
consideration
specification
##tle
##mbol
##ries
pin
sum
wik
##oured
buil
busy
luck
pink
sets
##bulary
block
bunch
catch
disco
fixed
names
nowad
repet
surve
theme
action
galaxy
potent
symbol
animals
minimum
primary
propose
respond
anywhere
continue
feasible
speakers
vocabulary
application
frequencies
transmitter
##ato
##ode
##ury
##aced
##iful
##imet
##ized
##word
dim
##itude
desk
sess
valu
##romise
array
built
carry
cloth
crazy
invol
screw
turns
usual
aiming
config
dimens
hoping
latest
remind
review
sponge
convent
network
respons
coloured
measures
nowadays
spinning
standards
usability
compromise
interchangeable
##lt
##pr
##avi
##ios
##vid
##chan
##ired
##lled
##ried
##ules
##umin
ble
bob
##iture
blah
pull
soph
spot
trou
vari
wise
##aviour
analy
cents
chose
couch
crash
david
equal
incre
liked
media
sales
speed
thick
weird
##ulation
levels
survey
achieve
biggest
closing
density
missing
operate
pressed
reading
section
distance
download
keyboard
powerful
beautiful
behaviour
detection
sebastian
switching
dictionary
repetitive
##cl
##ged
##hes
##ime
##ism
##ndo
ir
dot
ell
fli
hot
idi
nok
ran
raw
ult
##orrow
goog
pred
##ograph
craig
early
error
optim
weeks
mechan
pieces
places
sender
stress
tricky
##fficient
browser
contain
divided
dynamic
prepare
scripts
turning
wanting
website
centimet
interact
suddenly
wireless
connected
essential
evaluated
financial
graphical
introduce
suggested
categories
complexity
conclusion
effectively
specifically
##cial
##etic
##mine
##ught
dam
dro
jog
pow
tie
##ences
##esign
##icked
capt
clay
furn
gamm
grip
jump
labe
shar
tape
weak
##ishing
align
assum
excit
human
idiap
index
liter
nokia
##ibility
altern
asking
broken
camera
counts
excuse
extent
inspir
linear
master
notice
orange
public
showed
values
element
fingers
minimal
players
respect
specify
trouble
worried
approxim
consumer
internal
priority
redesign
computers
demograph
furniture
presented
displaying
percentage
programmable
technologies
communication
##of
##si
##iod
yo
##atic
##rate
bal
dan
deg
mer
nar
ski
##lying
##ropri
cats
cute
dead
disp
fish
knew
live
port
rout
synt
##rawber
conse
decod
mango
metal
plate
shots
stamp
corner
distin
effort
fulfil
google
injury
motion
narrow
period
plates
strain
collect
contact
cutting
gesture
parents
session
sophist
telling
watches
acquaint
movement
optional
parental
planning
strawber
initially
modelling
sensitive
everywhere
identified
alternative
experiments
immediately
interaction
segmentation
sophisticated
##am
q
##elt
##ome
ol
aye
tim
wou
##andom
##dated
bear
beca
demo
item
mayb
rule
term
wide
wrap
deskt
known
layer
loads
offer
tasks
allows
browse
circle
correl
random
sequen
tempor
address
allowed
centred
durable
install
loading
organic
success
##ification
creating
identify
learning
navigate
outdated
designers
relevance
parameters
programmes
recogniser
communicate
compression
considering
controlling
independent
individually
##ps
##iph
##set
##val
##vin
eh
##aser
##cked
##read
##room
chr
cou
eat
jan
mid
nee
pal
pus
via
##asses
##ather
acts
bird
flux
glob
hash
magn
ours
tune
artic
brain
chunk
cloud
heavy
logic
pound
shoes
stuck
water
accept
arrows
closed
family
living
plenty
videos
##ropriate
choices
clothes
concent
meaning
neither
prototy
samples
sending
synthes
assuming
estimate
fourteen
recorder
subjects
tomorrow
tracking
attention
concerned
relatively
themselves
centimetres
inspiration
milliseconds
##ma
##arm
##ded
##lab
ri
##dule
##imin
##llar
##ping
##ring
##zing
scr
sna
##aries
asse
cond
edge
felt
gaus
hist
leds
lock
loud
mush
scen
self
vote
wish
alarm
angle
cross
delay
deter
fully
games
mista
nebul
obser
solid
title
treat
ultim
units
upper
advert
boards
bother
convin
delete
demand
dollar
faster
forest
interp
matlab
module
patter
scores
stands
update
desktop
highest
printed
serious
consumers
annotation
conference
controlled
ergonomics
engineering
pushbuttons
incorporated
specifications
##pel
ni
zo
##cape
##ived
##mant
##pple
ami
bou
fac
gad
ion
ste
##rible
fant
hide
neat
nich
pear
phra
prog
rect
situ
upon
##ressed
bound
cause
clean
disag
drive
exact
goals
lapel
modif
pause
react
resid
retur
sharp
shell
waves
christ
confir
conven
costly
extern
gadget
linked
nebula
opened
transm
cluster
content
pushing
roughly
tracker
exciting
expected
identity
throwing
automatic
comparing
framework
searching
extraction
interfaces
navigation
prototypes
appropriate
demographic
##te
##elf
##for
##let
##rit
##yes
##ctor
##mend
ang
bui
dra
hur
mix
sar
sim
sme
tam
##aging
##arant
##mming
cord
eyes
hadn
mold
sold
thes
vibr
##erties
##idered
likes
local
niche
plain
refer
sched
scrap
shelf
solve
usage
basics
escape
events
excess
intell
online
potato
pounds
prices
secret
seemed
supply
wooden
builder
central
confirm
contrib
dealing
describ
guarant
laptops
precise
quasars
regions
strateg
waiting
choosing
deciding
external
flexible
flipping
hardware
positive
signific
standing
versions
fantastic
finishing
highlight
triangles
associated
considered
convenient
generation
properties
computation
constraints
##lu
##sy
##aby
##cut
##eet
##gen
##ilo
##isk
##pad
##sen
ja
nu
##bble
##esth
##rary
alt
mus
##athan
##ining
##oting
##vable
acco
body
boss
dash
date
fest
gosh
kilo
math
mike
mono
oliv
rank
retr
shop
shou
site
skin
till
zoom
##eapple
aesth
beeps
bleep
codes
drawn
ellen
embed
extre
forth
meets
novel
proof
quant
sarah
sport
strip
##forward
##pective
##ruction
##unction
acquis
bought
degree
eraser
hardly
insert
keypad
phrase
return
spread
turtle
ability
capture
comment
dropped
helpful
impress
massive
noticed
presume
protect
sources
student
symbols
activate
becoming
browsing
charging
collabor
confused
critical
disagree
division
drawings
festival
guessing
inspired
mushroom
sensible
sequence
terrible
transist
whenever
companies
condition
pineapple
producing
definition
eventually
incorporating
representation
straightforward
synchronization
##dy
##ev
##ix
##app
##cii
##igh
##lls
##rix
##ule
##zer
##bles
##enth
##etch
##iles
##illa
ama
cow
fab
hol
hom
joe
ped
pil
saf
sun
tho
yay
##icate
##itors
##ogram
##verse
clap
diag
fail
firm
legs
palm
tail
##mental
##ommend
ascii
broke
cards
fewer
helps
merge
minor
motto
party
setup
slash
sorts
views
attrib
blinks
divide
emails
french
highly
matrix
multip
occurs
widths
anyways
balance
convert
deliver
package
powered
rectang
scratch
stylish
##ationship
describe
detected
eighteen
elements
fashions
focusing
intellig
manually
properly
provided
recorded
residual
schedule
strategy
wherever
appealing
interpret
literally
recommend
situation
synthesis
changeable
continuous
supplement
understood
acquisition
instruction
performance
probability
suggestions
introduction
relationship
restrictions
documentation
##vo
##ane
##ari
##cal
##ges
##has
##ien
##ius
ou
##arch
##gram
##ners
##osal
##oser
##pper
##rupt
##udge
fly
foc
peg
siz
sus
tea
tel
##erate
##ology
bene
beta
clip
crap
drew
hier
icsi
lack
peak
phil
repe
trig
wiki
##atible
##iphone
arbit
forms
grand
mando
mould
pedro
schem
steps
telly
turbo
chance
desire
expand
images
implic
locate
mister
purple
resour
scenar
sketch
squish
thesis
consens
explore
extreme
focused
reconst
sliding
business
distinct
duration
hierarch
involved
produced
reliable
activated
adjusting
dependent
efficient
mechanism
potential
appearance
compatible
developing
instrument
originally
strawberry
concentrate
furthermore
synchronize
investigation
##cy
##sc
##yc
##ffe
##rel
##ted
##und
ap
du
##bing
##ites
##ives
##lied
##mmet
##pond
##ques
##sian
##vice
air
dut
flu
jus
rew
sof
tap
##allel
##atent
##esome
##ormed
abst
beam
celp
gain
iron
lazy
petr
puts
raid
rain
ring
wall
wast
##iation
alone
among
appar
aware
camer
empty
frequ
fresh
music
ordin
relea
roles
rules
spect
study
surpr
worse
clouds
impact
leaves
lovely
nicely
picked
promin
rating
ratios
recent
somewh
sorted
sports
turned
amazing
awesome
dollars
figures
keyword
leaving
marking
reports
testing
texture
warning
activity
addition
artistic
checking
circuits
clapping
configur
finances
parallel
prepared
purposes
recently
recharge
sentence
students
switches
consensus
convinced
interrupt
parameter
regarding
resources
secretary
seventeen
summarise
wonderful
electrical
increasing
programmed
techniques
telephones
celebration
discussions
perspective
responsible
conventional
implementing
##ak
##att
##bow
##che
##iny
##its
##ler
##lly
##ned
cu
ec
ki
##atus
##ceed
##ches
##illy
##ingu
##itor
##like
##pest
bes
chi
coh
cos
der
enh
flo
gun
ign
mac
mak
oth
sky
win
##round
##sheet
##ulate
##ulous
##utral
anti
deep
dice
flag
game
gira
hate
jean
pain
subm
swap
wear
##curved
##inetis
##liness
##othing
accur
argue
curvy
falls
gamma
icons
ideal
irrit
lumin
picks
resol
silly
spent
wider
##respond
breaks
cheers
chunks
closer
conver
elimin
emphas
encode
explan
gotten
increa
lowest
medium
multif
resist
tested
tracks
transc
afterno
appears
beeping
briefly
calling
cameras
cinetis
classes
corners
country
demonst
factors
methods
mistake
neutral
ordered
outline
plugged
pointed
rainbow
squishy
standby
statist
surface
variety
accident
cheapest
comments
discover
embedded
entirely
gaussian
labelled
overview
progress
proposal
somewhat
temporal
uncurved
apparatus
celebrate
correctly
determine
posterior
calculator
correspond
prediction
previously
correlation
highlighted
investigate
significant
spreadsheet
multifunction
environmentally
##oc
##xy
##adv
##ets
##ica
##key
##nes
##now
bi
gy
##eare
##gant
##ging
##land
##mark
##nded
##outh
##uary
##unky
aur
bye
cla
cov
die
ill
kay
mir
nei
qui
son
tip
ups
##ators
##cious
##clock
##itted
##ortun
##ustry
argu
brea
cher
curv
cush
dogs
info
jord
libr
prin
risk
safe
stur
tick
##advant
##ptions
##rength
adult
becau
benef
cache
decor
dutch
edges
funda
influ
items
manip
marks
moved
numer
ought
outer
shock
shown
steph
wires
andrew
cosine
decent
dissol
entity
exclus
exists
fourth
labels
launch
nathan
placed
pushed
retrie
rewind
speaks
stamps
thingy
tuning
##ortunity
answers
arrange
brainst
expense
express
fancier
giraffe
january
markets
olivier
quicker
##efficient
attached
blinking
combined
decrease
indicate
industry
scenario
simplest
strength
surround
afternoon
amplitude
arbitrary
classical
disadvant
expecting
expertise
generated
guarantee
recognize
removable
specified
acquainted
excitation
physically
simplistic
successful
sufficient
competition
competitors
intelligent
opportunity
potentially
configuration
multifunctional
##oy
##omb
##ool
##oph
##ora
ts
vi
##arse
##ault
##iday
##lect
##lies
##ndem
##onal
##yond
als
bag
ben
cop
dol
due
gir
kno
law
nic
nor
raj
sli
vir
##acing
##atory
##illed
##ncing
##peech
arch
bull
damn
ends
exer
fold
gran
keen
lith
mael
numb
olds
perl
pity
reca
rich
sits
spam
tied
vert
##lished
##mpling
##utions
areas
balls
chair
encod
floor
joint
judge
keeps
night
offic
raise
rooms
tough
trade
upgra
vocal
##ariance
##ivalent
assemb
aurora
beyond
blocks
brings
calibr
chosen
clunky
disapp
elabor
global
harmon
hemant
hubble
jordan
mirror
modify
movies
raised
repeat
serial
someth
stages
stored
sturdy
tandem
transp
besides
bracket
convers
created
default
elegant
excited
experts
filters
lithium
preview
proport
reasons
rubbery
silence
trigger
typical
useless
abstract
breaking
decoding
exercise
keywords
password
projects
selected
skimming
transfer
ultimate
aesthetic
conscious
countries
filtering
happening
household
languages
listening
magnitude
recharger
reference
specially
technique
approaches
conditions
constantly
convention
covariance
equivalent
evaluating
mentioning
statistics
transition
university
connections
flexibility
informative
replacement
statistical
frustrations
satisfaction
manufacturers
##cr
##fl
##zz
##ery
##mmy
##ppy
##ram
##roo
##ung
bh
hm
##arya
##aten
##book
##dnes
##iers
##iger
##iped
##rees
##rete
##rony
##sych
##umpt
##whel
cru
dar
deb
fro
ish
loo
meg
mes
mut
pas
ron
rot
unl
##ctile
##earer
cars
dear
desi
dict
fidd
glad
grow
lets
none
oval
peel
prec
rare
scal
sexy
sony
tast
whoa
##attach
##cutive
##speech
##ulated
abund
admit
claim
doubt
flick
frank
funct
funky
guide
habit
loose
morse
nicer
overr
paste
pilot
psych
recap
revol
robin
squee
story
tenth
tight
trust
worst
##dnesday
acrony
cherry
entrop
equals
export
filled
finder
gammas
inputs
margin
member
norman
pocket
safety
saving
school
stable
strict
string
surely
symmet
usable
advance
booking
compute
crashed
forever
friends
knowing
learned
marbles
profess
reality
sensors
shortly
spectro
tactile
trained
traject
updated
watched
bhattach
consists
honestly
includes
interior
numbered
overwhel
property
proposed
backlight
backwards
configure
detecting
extremely
fashioned
forgotten
interview
operation
pointless
processor
provision
referring
satisfied
translate
wednesday
activation
brainstorm
calculated
consistent
internally
marketable
presenting
separation
similarity
suggesting
summarised
throughout
accordingly
calculation
experiences
interactive
interspeech
acquaintance
bhattacharya
construction
hierarchical
implications
##gh
##air
##ave
##bur
##cer
##mas
##nek
##reg
##ric
##rot
##zen
dw
##aged
##agne
##eted
##ills
##imed
##loes
##ndra
##omet
##ores
##ourg
##pean
##phin
##soft
##ulty
bee
bin
bri
bug
dad
dep
exe
fla
gap
leg
mel
neg
ray
rea
sad
##allen
##burgh
##erion
##grams
##izing
##izont
##lined
##oidal
anna
bass
beat
buck
chat
diva
door
dull
edin
film
frib
kidd
land
mond
pads
path
phot
poly
pure
quar
runs
sale
smac
span
suit
tiny
undo
unus
vary
vera
verb
virt
whoo
woah
##ercial
##ipedia
##mpagne
altog
brown
capac
faces
herve
horse
hynek
kayak
modes
moves
named
princ
ratio
silic
sinus
slick
stays
teach
tends
wrist
##ination
##izontal
active
artist
bounce
cables
client
dispos
edible
encour
friday
ignore
invent
kendra
leader
marius
nearly
panels
phases
preser
ranked
redund
sector
slider
states
styles
theore
thrown
voices
whoops
assumpt
challen
decoder
derived
desires
disable
dolphin
edition
enhance
falling
fitting
illumin
marloes
mobiles
modules
novelty
occurre
pattern
profile
profits
reflect
species
stripes
studies
suspect
absorber
applying
circular
clothing
constant
contains
detector
eighties
european
fribourg
grabbing
minimise
patterns
practice
produces
programs
reviewed
sampling
sticking
transcri
triphone
worrying
alignment
annotated
champagne
combining
criterion
dimension
edinburgh
elaborate
elephants
exclusive
indicator
intention
labelling
lightning
microsoft
modifiers
movements
prominent
providing
separated
summaries
wikipedia
agreements
altogether
boundaries
constructs
describing
difficulty
directions
frequently
frustrated
generating
horizontal
irritating
protection
represents
revolution
suggestion
coefficient
differently
dynamically
improvement
limitations
spectrogram
transistors
accidentally
contribution
friendliness
summarisation
##ex
##ts
##yn
##ade
##arf
##eth
##ila
##lar
##orn
##ula
pi
##cted
##ilst
##iser
##issa
##lude
##male
##mmod
##orth
##page
##pril
##utes
bun
cum
din
fib
hav
jas
jig
jun
kit
lef
lie
lux
sup
ton
##atell
##clear
##ealth
##ivate
##relev
##sence
##while
adds
auth
bold
bump
cart
cold
cred
dest
dood
ears
exit
hole
hook
icon
lamp
loss
mart
qual
rese
slim
snow
tang
teen
tone
trap
wing
##aneous
##ashing
##ctured
##erning
##ughter
appre
april
awful
badge
bells
boxes
bulky
diode
dwarf
ended
grips
homer
linux
maker
mount
newer
north
opens
quiet
relax
robot
scene
sells
sight
taste
teles
traps
valid
voila
waste
##tically
attend
became
brands
bullet
catchy
cellph
danger
doubly
drawer
europe
extens
famous
female
geomet
holder
latent
limits
loaded
monday
monkey
newsfl
offers
office
prepar
probab
refere
remain
satell
server
slowly
solved
spaces
theory
thinks
tomato
verbal
whilst
##relevant
analyse
benefit
booklet
checked
creates
crucial
dislike
effects
entropy
jasmine
lasting
lecture
letters
logical
matters
reached
rolling
service
##ationally
accommod
achieved
assembly
baseline
bringing
clicking
concaten
contents
counting
dissolve
fiddling
handling
hundreds
limiting
majority
matching
ordinary
provides
replaced
sometime
tamgrams
variable
vertical
abundance
associate
christmas
computing
confident
curvature
entertain
extracted
histogram
immediate
improving
instantly
realistic
rectangle
satellite
typically
advantages
collection
commercial
concerning
dimensions
discovered
disposable
forgetting
impressive
irrelevant
officially
priorities
reasonably
resolution
trajectory
approximate
dimensional
explanation
fundamental
integration
restriction
articulation
synchronized
transmitting
environmental
understanding
questionnaires
internationally
##fy
##ha
##yf
##ame
##con
##ina
##men
##oke
##oon
##tes
##til
##umn
##urs
##zzy
eb
ov
rh
##ague
##bour
##cave
##cope
##edom
##ency
##ggle
##grat
##ises
##ital
##lass
##mble
##oken
##omed
##oper
##sses
##ured
bab
bon
gab
gar
gig
goo
hel
hyp
lic
odd
oui
pla
rev
san
swi
tow
und
##ciate
##eared
##enced
##entle
##erday
##ifies
##ories
##osite
##reams
adop
ages
aims
beer
bord
brit
bugs
bulk
burn
cand
chew
chop
clar
clut
crow
cube
dece
dual
duck
east
extr
gate
girl
groo
guid
gyro
heav
hing
indu
lump
marc
paid
plot
poor
rama
road
shut
sofa
stre
subt
thus
tips
tree
yest
##cessed
##enezer
##herine
##isable
aimed
bling
brian
bunny
cohen
condu
conve
flips
genev
hurry
lying
mouth
peter
polyg
poppy
recei
regen
reply
route
sammy
scary
shame
shoot
sizes
spots
tying
vague
wired
##uristic
##ustomed
adults
belong
copper
driven
enable
exceed
fiddle
gaming
gentle
hooked
liking
partly
perman
regist
scared
semant
skills
spoken
stayed
typing
woulda
capable
concave
congrat
curious
cushion
emailed
formats
freedom
gateway
graphic
greater
hearing
ideally
ourself
picking
presses
pretend
release
routing
snowman
surfing
tonight
updates
walking
accurate
contacts
covering
december
diagonal
ebenezer
electric
extended
intended
modifier
nineteen
notebook
opinions
organise
portable
pressure
realised
spending
stations
touching
watchers
whistles
absorbers
adaptable
attribute
catherine
estimated
influence
intensive
interfere
newsflash
perfectly
presently
primitive
principle
replacing
retrieval
schematic
statement
telescope
yesterday
acceptable
accustomed
appreciate
attributes
characters
correlated
estimation
impression
manipulate
minimalist
operations
popularity
productive
restricted
sinusoidal
stationary
transistor
translates
ultimately
accommodate
demonstrate
description
differences
directional
frustration
incremental
likelihoods
overlapping
practically
reconstruct
rectangular
translation
conversation
disagreement
professional
strawberries
transmission
entertainment
computationally
##ey
##gg
##wr
##alk
##bon
##bra
##com
##dro
##eag
##eat
##fly
##iel
##isp
##net
##ney
##oun
##owl
##pth
##unc
##unt
##uxe
##ants
##ertz
##head
##icit
##idge
##ited
##izer
##ophy
##plug
##rely
##riel
##stru
##udes
##uses
##ycle
abo
ann
ano
arm
atl
boy
dea
dir
enj
err
fat
ger
hip
inv
kin
mag
max
nin
onl
pep
sen
som
tag
tor
una
vul
whi
##break
##ctors
##erent
##iforn
##iment
##orter
##tered
audi
baba
bowl
deli
devi
ding
diss
drag
fuck
harm
inch
jack
mapl
mice
mich
midi
nick
pant
poin
pops
quot
ruin
scan
seyf
shit
stri
ties
toys
unvo
viol
wipe
##abytes
##cratic
##drogen
##onsist
##osophy
##terfly
##terior
antek
bucks
calls
coded
conce
cumul
depth
feeds
glass
hamed
hertz
hyper
janus
liber
lists
maint
perce
reuse
ridic
saves
shout
sized
skins
sleep
smell
smile
spare
stead
steep
stret
tests
youth
##atively
##ifornia
##illaume
##raction
##reglass
##ularity
##ulating
applet
author
booked
carrot
coarse
crappy
daniel
deluxe
discon
distur
doable
extras
fields
groovy
health
height
hypoth
income
listed
marker
observ
packet
paging
parser
paying
powers
reissa
relate
sheets
smells
softer
static
submit
tables
treble
unplug
vision
voiced
vulner
##etically
##ulations
accompl
acronym
applied
bananas
brother
cartoon
clearer
colleag
compose
consume
diagram
discour
filling
formula
framing
gabriel
heather
hitting
instant
involve
justify
kidding
leading
leaning
lengths
luckily
luminos
matches
peeling
peoples
persons
philips
prevent
proceed
promote
ranking
records
shaking
shifted
shorter
skipped
succeed
upgrade
analyser
childish
complain
concerns
decorrel
encoding
explicit
exterior
fabulous
finalise
geometry
gimmicky
harmonic
hydrogen
inclined
informed
locating
luminous
magnetic
meantime
millions
moreover
opposite
override
semantic
silicone
smallest
unvoiced
workings
addressed
butterfly
challenge
criterias
dangerous
described
deviation
disappear
emphasise
executive
explained
fanciness
guillaume
inconsist
increased
indicated
libraries
packaging
preparing
redundant
splitting
surprised
algorithms
assumption
blanketing
california
complicate
correction
explaining
fibreglass
futuristic
modulation
objectives
philosophy
profitable
proportion
psychology
ridiculous
sponginess
triangular
advertising
calculating
calculators
concatenate
distinction
frustrating
functioning
problematic
represented
smartboards
transparent
applications
coefficients
confirmation
customisable
functionally
improvements
overwhelming
representing
alternatively
approximately
brainstorming
communicating
identification
innovativeness
reconstruction
responsibility
##fo
##ja
##oo
##pa
##ub
##ada
##cca
##eed
##eer
##emp
##exp
##ffy
##idy
##ipt
##isy
##jme
##omp
##ost
##ray
##ros
##yed
ps
##ager
##asty
##ball
##ding
##down
##emat
##isms
##kend
##lers
##lice
##look
##ocol
##ored
##uted
amb
bat
bia
cas
cle
cry
dil
duh
fol
jap
lem
lik
moz
ner
oop
pir
pra
pul
que
row
sal
sea
syn
uns
##abyte
##allic
##andon
##ening
##iling
##iller
##inant
##ipped
##lines
##olate
##ombus
##ounce
##ribly
##rical
##sters
amer
auto
basi
cast
choo
clue
core
died
elan
eval
feet
fift
flow
food
fran
hurt
iter
june
lime
meta
mini
nist
pair
ping
reco
rely
rose
seat
sett
slee
soci
stem
tack
tall
tara
tera
tivo
unne
warm
##alling
##itchen
##itudes
##jmegen
##lining
##market
##ograms
##senger
##tering
##ursday
angry
appli
badly
cance
china
colin
crank
danny
diego
ditch
elect
enjoy
estab
fight
finds
freak
furry
hated
hinge
holes
infer
inner
lingu
luxur
mispl
mixed
nasty
ninja
orang
query
recal
sacca
safer
shine
slave
specs
spell
spoke
staff
steve
stock
teeth
theta
tiger
tower
unrel
##inguish
##iphones
##iptical
##jection
##osition
##station
accent
arrays
attemp
badger
beamer
beauty
biased
border
bosses
chunky
clever
convex
cooler
copied
coulda
critic
damage
decomp
destro
determ
econom
errors
flores
fluffy
german
humans
jiggle
lastly
letter
maplin
naming
notion
novice
orient
patent
prints
proven
retail
scream
senses
shifts
stated
sticks
techno
themes
timing
toggle
upload
vector
verify
##berately
##ological
abandon
appeals
carried
casings
charges
christa
closely
closest
coating
conform
contrad
crashes
degrees
deleted
demands
diphone
essence
helping
history
interse
inverse
kitchen
library
located
managed
members
monitor
mozilla
needing
offered
optimal
panther
phoneme
posters
priorit
promise
quarter
realist
reduced
relates
reverse
rhombus
rounded
science
scoring
screwed
sectors
seyfert
sounded
spanish
spongey
squares
stretch
synched
thicker
touched
unusual
violent
virtual
weekend
affected
analyses
appleton
bouncing
chunking
clusters
coherent
concentr
concrete
cordless
daughter
deadline
demonstr
dropping
emitting
facility
feelings
followed
homepage
improved
mathemat
mistakes
modified
multiply
negative
nijmegen
observed
occurred
piloting
preserve
profiles
protocol
reminder
removing
scalable
sellable
smoothly
suitable
switched
terribly
thursday
advertise
answering
breakdown
capturing
cellphone
collected
complaint
conducted
customise
eliminate
elsewhere
encourage
extension
focussing
fulfilled
genevieve
increases
messenger
numerical
objective
precision
promising
published
reactions
receiving
regularly
selecting
sentences
spaceship
specifics
stressful
unrelated
whistling
accomplish
adaptation
applicable
assignment
chargeable
contextual
disconnect
durability
elliptical
facilities
favourites
guaranteed
indication
specialist
structures
transforms
vulnerable
articulated
calibration
comfortably
competitive
constrained
constructed
distinctive
distinguish
electricity
granularity
innovations
integrating
playstation
deliberately
developments
disadvantage
exchangeable
optimisation
collaboration
disadvantages
parallelogram
theoretically
characteristic
classification
considerations
interpretation
congratulations
##fr
##he
##abe
##ael
##ale
##ati
##aur
##cle
##cto
##eez
##enc
##fet
##flu
##hib
##ife
##igu
##ils
##ima
##pro
##uel
##unk
##yal
##yan
##zes
au
cy
ur
##ahoo
##ancy
##apid
##arks
##comp
##dend
##erts
##esis
##esit
##ibly
##iter
##ixel
##lind
##name
##odes
##oles
##rawl
##requ
##sets
##stic
##umes
##ures
adm
blo
bol
cup
ded
doe
elk
fas
gri
ink
joh
jok
jon
les
lis
mad
nay
nut
oka
sev
smo
tak
tru
unw
wav
##andre
##ardon
##chair
##emens
##ergic
##etics
##iders
##licek
##limin
##msung
##ongue
##ordin
##otion
##ously
##proof
##sians
##uries
alex
baby
bana
bast
bath
bend
bill
bran
byte
cash
clea
cook
cope
cows
cult
divx
dots
edit
empl
enum
exch
fabr
fade
foot
func
geez
gunn
hung
hunt
isol
king
lift
male
meas
mics
mock
mood
nove
octo
opal
paul
pets
pipe
plos
pump
quid
rays
ryan
sapa
seas
shif
snap
stan
stro
styl
suck
sums
tidy
tosh
tues
twos
veto
wake
wild
yous
yves
##dendum
##encies
##mother
##ointed
##rapped
##resses
aless
alien
alima
atlas
blind
bored
chief
court
crawl
decis
dinos
divid
dough
dozen
draft
earth
encry
fired
franc
fuzzy
gazes
giant
girls
grade
hesit
hides
inexp
ipods
lefty
lives
logos
maths
messy
metre
minds
molds
neigh
peaks
piran
pixel
plans
polar
purch
rapid
rated
recon
recyc
repro
retro
rings
sided
sites
snake
south
steal
stops
swing
threw
tired
trial
ultra
weigh
whisp
wings
yahoo
##abelled
##artment
##ication
##ifiable
##illermo
##ression
advice
alerts
amplif
angles
apples
assist
bridge
candid
causes
copies
corpor
credit
darren
deeper
diodes
dumped
eating
facing
flying
frozen
gather
habits
headed
helium
inches
killed
layers
lesser
lisbon
locked
manuel
mouses
native
nature
noises
nought
olivia
orders
pardon
protru
rarely
reacts
refers
reject
resemb
scenes
scored
social
solves
sooner
sparse
spring
status
steady
street
struct
subtle
superi
termin
tongue
unders
unlike
viable
viewer
volunt
voting
wholes
affects
aligned
aliment
amplify
archite
archive
assumed
british
broader
capital
charged
classic
confuse
crowded
damaged
desired
flavour
flipped
forming
gadgets
generic
growing
himself
jumping
liberty
lighted
lighter
mailing
manuals
martian
michael
microch
nebulae
october
outlook
outputs
parsing
passing
pleased
portion
predict
private
publish
radical
regards
relaxed
relying
samsung
scaling
siemens
society
somethi
squeeze
storing
strings
targets
thinner
torches
tuesday
unclear
useable
volumes
whoever
##structure
adaptive
addendum
adopters
agreeing
allergic
attended
basement
boundary
brackets
carrying
catching
conclude
consumes
contrary
converts
convince
cushions
darkness
defining
discount
discrete
dividing
engineer
envision
explorer
flashing
frequent
globally
graphics
jonathan
managers
measured
metallic
mornings
motlicek
mutually
november
overhead
painting
plosives
polygons
quicknet
readable
register
retrieve
shifting
skipping
strictly
supplied
supplies
tangible
teaching
treating
vibrates
visually
weighted
affection
alexandre
analysing
appearing
arguments
audiences
breakable
cluttered
contained
deadlines
dedicated
discourse
gaussians
generates
gentlemen
gigabytes
guillermo
identical
indicates
induction
installed
locations
neighbour
preferred
primarily
processed
projector
resistant
retriever
secondary
sequences
seriously
sharpness
thousands
visualise
whichever
accurately
aesthetics
amplitudes
complaints
continuing
detections
exceptions
extracting
hypothesis
illuminate
linguistic
meaningful
mechanical
mechanisms
occurrence
performing
plasticine
recognised
recognizer
regenerate
simplified
structured
subjective
summariser
surprising
transcribe
underlined
underlying
unlabelled
waterproof
worthwhile
annotations
assignments
compartment
constructor
efficiently
experienced
generalised
grandmother
imagination
inexpensive
interpreted
intuitively
methodology
multiplying
occurrences
positioning
prominently
streamlined
supermarket
alimentation
combinations
descriptions
inconsistent
incorporates
independence
informations
proportional
stationality
collaborating
decomposition
distributions
independently
realistically
revolutionary
significantly
implementation
representative
##ai
##az
##bi
##gu
##jo
##ka
##ni
##uc
##acy
##bag
##bar
##cas
##dom
##esh
##fox
##ili
##lig
##mma
##mos
##nal
##obs
##ole
##ows
##ris
##sic
##son
##usi
##win
##yqu
ax
os
py
sn
ze
##abil
##alia
##asta
##bies
##brid
##cupy
##enus
##epad
##eros
##ffer
##gers
##guin
##hand
##here
##iate
##inks
##irky
##isky
##ison
##ists
##lict
##olen
##omen
##oors
##orph
##otes
##plex
##quid
##quit
##rest
##rink
##rint
##rome
##sant
##tain
##ufix
##uits
##umns
ack
arc
asy
bay
bef
bub
cer
cit
dip
doc
fad
fan
fox
hoo
hun
ian
ifs
jen
kne
lad
lag
lou
mas
ons
pig
pri
pun
rig
rom
sam
sem
sla
tab
twe
ugh
van
voi
woo
##actic
##anate
##antic
##arika
##arten
##atest
##blind
##dable
##emote
##eries
##ffman
##icing
##idays
##imler
##issed
##istol
##ively
##large
##liers
##mosph
##opard
##orage
##ppery
##rican
##rices
##riger
##venue
##watch
aged
allo
anim
anyt
apar
bash
bolt
bomb
camp
caro
cern
chap
chil
city
coat
conj
coun
deaf
dile
dupl
earl
encl
exha
fake
feat
fell
folk
font
geck
geek
gift
hair
hire
icas
impl
intr
jast
joel
joke
jour
keck
labs
laug
leaf
lion
maps
mate
mega
ment
merg
ming
mixt
nerd
nips
nuis
nuts
nyqu
oral
ouch
outs
pool
poss
prem
prev
pron
pros
redo
reli
root
rush
sake
seve
sole
tags
tint
twen
unsc
unsu
vast
vegg
volt
wife
##alogue
##cedure
##iskers
##ongest
##overed
##solete
##urally
##urance
alive
ambit
anten
anyth
aside
austr
barry
beast
began
birds
blame
bonus
books
breat
brick
bulbs
cater
centr
chart
chase
clips
cobra
contr
crack
craft
cycle
disks
disli
downs
drops
fails
fifth
flore
fudge
gradu
gramm
grass
grind
guido
heads
heart
holds
hoped
imply
impor
joost
labor
lasts
legal
legos
lived
lotta
loyal
magic
march
merit
noisy
noted
occas
optic
photo
plane
plugs
proud
rasta
rates
reads
rever
risky
rolls
serve
shark
sheep
snail
subst
sweet
sword
talks
templ
temps
toler
trees
tries
truly
tuner
twent
twist
unint
versa
walls
whate
zeros
##aceable
##achable
##actions
##cessary
##erature
##ionally
##itative
##mediate
##ologies
##plexity
##quences
##racting
##ressive
##version
##writing
acknow
advise
assess
autumn
barely
baufix
borrow
branch
bucket
bursts
cancel
chairs
closes
column
cooper
defeat
defend
deltas
differ
dinner
doodle
enhanc
ensure
fallen
france
franck
freeze
granny
heated
helped
hereby
hurray
hybrid
indian
innova
instit
island
joined
learnt
liquid
mailed
marios
messed
monoph
muting
nearer
neatly
newest
nuance
occupy
opener
passes
pauses
pepper
pistol
presen
priced
prohib
pulses
purely
pushes
quirky
radius
retain
righty
salary
secure
senior
silent
simult
sleeve
socket
specif
stabil
stolen
stroke
strugg
summer
televi
theirs
threes
thumbs
ticker
titles
trains
travel
treats
tricks
unsure
upside
whatev
##liminary
##mentally
##mosphere
##orescent
accentu
adaptor
african
america
annoyed
applies
arguing
arrived
asymmet
backups
blended
bubbles
burning
cheaply
columns
compens
consult
copying
costing
counted
daimler
defines
diffuse
dilemma
distant
doubles
dumping
dynamos
enlarge
evident
exclude
firefox
firstly
follows
foreign
glasses
glowing
halfway
handers
handing
heading
heavier
imprint
indoors
infrequ
insight
insured
ionized
jointly
knocked
leopard
licence
linking
maarika
minging
modular
notepad
nuclear
numeric
nyquist
observe
offices
optical
optimum
orangut
packets
penguin
percept
piranha
playful
pointer
prefers
queries
rabbits
ratings
reactor
repaint
repeats
request
routine
schemes
sharing
simplex
sleeker
storage
streams
subcomp
tamgram
texting
thirdly
treated
unbreak
uniquen
vanilla
vibrant
vibrate
viewing
weather
weemote
weights
whatnot
worries
##rigerator
acronyms
altering
analyzer
announce
argument
armchair
articles
assemble
assigned
backside
bendable
bothered
briefing
capacity
catering
compares
conflict
courtney
dinosaur
diphones
disabled
dominant
doubting
emphasis
energies
entering
everyday
exchange
figuring
firmware
galactic
goodness
greatest
holidays
ignoring
indexing
injuries
involves
isolated
listened
maintain
matrices
megabyte
misplace
national
networks
nuisance
obsolete
operated
packages
performs
petersen
phonemes
plastics
pleasant
pleasure
printing
provider
quantity
quarters
recalibr
released
resemble
responds
rotation
scroller
secondly
sessions
shortcut
sideways
simplify
slippery
spotting
stopping
submenus
targeted
teenager
unlikely
username
variance
whiskers
activates
ambitious
amplifier
appliance
australia
catalogue
colleague
completed
consuming
corrected
distances
disturbed
durations
enumerate
existence
exploring
harmonics
hierarchy
impressed
joysticks
luxurious
meanwhile
measuring
microchip
modifying
multiples
necessity
normalise
notebooks
paperwork
precisely
procedure
proposing
protected
radiation
recharged
recorders
recovered
remaining
resembles
resistors
responses
scratched
sebastien
separates
smoothing
solutions
squeezing
strengths
submitted
summarize
supported
symmetric
temporary
thickness
transport
underline
underside
virtually
whispered
wholesale
atmosphere
beforehand
calibrated
centimetre
collecting
comparison
contribute
cumulative
customised
democratic
depression
detachable
downloaded
encryption
essentials
explicitly
expression
foreground
histograms
introduced
investment
laboratory
limitation
literature
luminosity
manageable
perplexity
positioned
preferably
protecting
protruding
provenance
purchasing
recharging
recognises
recordings
references
regardless
separating
supporting
supposedly
trendiness
trendwatch
usefulness
visibility
youngsters
accountants
adjustments
advancement
algorithmic
approaching
colourblind
conclusions
consecutive
controllers
corporation
established
explanatory
handwriting
intentional
interacting
introducing
mathematics
observatory
overwhelmed
percentages
powerpoints
preliminary
prohibitive
referencing
reliability
remembering
replaceable
summarising
symmetrical
temperature
temporarily
unbreakable
underlining
unnecessary
architecture
availability
backlighting
categorising
consequences
continuously
demographics
difficulties
disappointed
grandmothers
infrequently
interference
intermediate
localization
participants
practicality
quantization
refrigerator
simultaneous
subcomponent
advertisement
approximation
collaborative
concentrating
contradiction
decorrelation
ergonomically
introductions
probabilities
transcription
visualisation
infrastructure
##da
##ik
##wi
##za
##ake
##asp
##auc
##bel
##boy
##bye
##col
##def
##des
##dly
##eff
##hog
##hoo
##isa
##ley
##lia
##lon
##mpt
##nat
##ola
##ots
##tic
##tra
##uls
##yce
ef
ei
ep
om
tu
##aign
##airs
##amel
##anta
##aroo
##arre
##assp
##lud
##off
##ards
##bage
##bish
##bled
##bout
##cast
##ccer
##ched
##city
##clei
##conf
##dest
##eria
##etub
##evit
##fish
##gwin
##husi
##ican
##icky
##ilit
##ille
##inne
##ints
##isyn
##kill
##lead
##long
##mans
##megr
##most
##pefr
##perv
##phic
##racy
##rial
##sers
##sole
##ssle
##stal
##ucky
##utor
##vene
##west
##ynke
ain
ape
ate
avo
awk
bed
beg
bic
bio
biz
bla
buz
cea
cen
cro
cud
cyc
dow
eco
eva
fed
fen
fle
gas
glo
gue
gym
hon
ice
ide
jur
kem
lid
liz
mal
mee
mum
mun
obv
osc
pea
plu
ram
rar
rou
sco
shu
sti
sue
toy
tro
unc
vac
ven
wai
wis
zip
##about
##ahili
##alled
##anese
##anted
##arden
##atisf
##ctual
##ealed
##eless
##eline
##elsen
##geous
##gered
##htime
##icial
##igued
##inist
##iosyn
##ipher
##iring
##itsch
##luded
##melon
##nding
##ocate
##onica
##onomy
##oseek
##osure
##ribed
##riend
##sicum
##suits
##track
##urred
##vices
##ville
adva
alan
alri
argh
bags
bals
bank
bars
blob
bong
boot
boxy
bund
bure
buys
buzz
carp
cogn
colo
cros
cuts
damp
darn
deci
defi
dele
elev
exam
flap
flaw
fool
fort
frag
freq
fuzz
gaps
gear
goin
gray
grew
grid
heur
hill
iain
ital
jobs
john
join
kang
kill
lays
lean
leap
lies
lunc
mira
mote
nest
nils
noth
obsc
offs
omit
pale
penl
perm
pile
plas
pose
priv
prod
prun
puzz
rein
reit
sacr
scro
seal
sees
slap
slip
spee
sued
swim
ther
tier
tita
tran
unre
velo
vice
zill
##antial
##atable
##azines
##ceptor
##cesses
##curity
##enance
##fetime
##fluous
##ichlet
##icious
##icting
##idence
##ieving
##illips
##inters
##ionary
##ivered
##mbling
##parent
##rarily
##ribble
##screen
##stairs
##teenth
##uities
##urrent
##ustive
##vative
##verage
advis
amuse
backs
barks
beefy
bench
benjo
betwe
blend
brush
bumps
buyer
cased
chalk
chuck
codec
comfy
creep
crowd
datas
dated
deact
deals
demos
diffi
dingy
discs
draws
dream
drift
eject
envis
esque
facia
facts
faded
fault
finer
flush
force
gecko
glows
grasp
horns
japan
kitty
knobs
lemme
lined
loses
lotus
lucky
macro
mails
monke
motiv
mustn
negle
negot
nynke
oblig
pairs
parse
persu
petre
plast
plays
polic
prett
prove
ratty
reser
reson
revis
rigid
royce
ruled
scept
shiny
shops
shove
shuts
sixes
slice
suits
sunil
tacky
texts
tiers
timed
timer
tones
trunk
tuned
uncon
unnat
votes
wikis
women
##aucracy
##defined
##icapped
##ificial
##lishing
##onsider
##orphous
##pefruit
##redibly
##uminium
##uncated
acting
addict
airbag
alessi
alloys
alphas
anglia
anythi
arrive
autism
basing
beagle
begins
behave
bricks
builds
burrit
buyers
caused
chrome
cities
commit
comple
confus
cookie
cuddly
cursor
cygwin
darker
debate
decode
desert
doctor
dwarfs
ending
expend
fatter
fluctu
folded
forced
formal
francs
freaks
garden
grapes
graphs
handsh
hassle
headph
hiding
homing
hungry
hyperl
imagin
inevit
instin
joking
jurgen
kicked
kiddie
kitsch
lemons
loosey
louisa
luxury
macros
makers
manner
marble
martin
misses
nearby
neural
nuclei
obtain
oscill
overly
parsed
pilots
planet
pomegr
prefix
prompt
radios
redraw
relies
rocket
scales
schema
scient
settle
setups
sister
slower
snakes
snapsh
soccer
spider
sprink
squash
steven
subtit
summed
superv
synerg
unwrap
veggie
veneer
warned
wicked
widely
winter
wisdom
wishes
##atically
##bilities
##ractical
##restrial
accepts
altered
amongst
angular
assumes
attempt
awkward
bastard
belongs
beneath
bizarre
britain
buckets
bullets
caramel
chopped
clarify
clicked
clients
coaches
committ
compact
complet
console
corinne
counter
creativ
credits
crossed
crystal
culture
curving
destroy
detects
devised
dictate
editing
elastic
emotion
encoded
enlight
entries
equally
evening
facilit
feeding
fucking
garbage
germany
goodbye
handset
heavily
idiosyn
illustr
impacts
interim
iterate
joining
journal
kickoff
lacking
largest
leather
letting
listing
locking
maarten
mangoey
mapping
mielsen
mislead
mission
moments
morphic
moulded
mounted
origins
outlier
overlay
▁
##e
##t
##o
##a
##h
##i
##n
##s
##u
##r
##l
##y
##m
##d
##w
##c
##g
##f
##b
##p
##k
##'
##v
##j
##x
##q
##z
